{"version":"1.0","truncation":null,"padding":null,"added_tokens":[{"id":0,"special":true,"content":"[UNK]","single_word":false,"lstrip":false,"rstrip":false,"normalized":false},{"id":1,"special":true,"content":"[CLS]","single_word":false,"lstrip":false,"rstrip":false,"normalized":false},{"id":2,"special":true,"content":"[SEP]","single_word":false,"lstrip":false,"rstrip":false,"normalized":false},{"id":3,"special":true,"content":"[PAD]","single_word":false,"lstrip":false,"rstrip":false,"normalized":false},{"id":4,"special":true,"content":"[MASK]","single_word":false,"lstrip":false,"rstrip":false,"normalized":false},{"id":5,"special":true,"content":"<|startoftext|>","single_word":false,"lstrip":false,"rstrip":false,"normalized":false},{"id":6,"special":true,"content":"<|endoftext|>","single_word":false,"lstrip":false,"rstrip":false,"normalized":false}],"normalizer":null,"pre_tokenizer":{"type":"Whitespace"},"post_processor":null,"decoder":null,"model":{"dropout":null,"unk_token":"[UNK]","continuing_subword_prefix":null,"end_of_word_suffix":null,"fuse_unk":false,"vocab":{"[UNK]":0,"[CLS]":1,"[SEP]":2,"[PAD]":3,"[MASK]":4,"<|startoftext|>":5,"<|endoftext|>":6,"!":7,"\"":8,"#":9,"$":10,"%":11,"&":12,"'":13,"(":14,")":15,"*":16,"+":17,",":18,"-":19,".":20,"/":21,"0":22,"1":23,"2":24,"3":25,"4":26,"5":27,"6":28,"7":29,"8":30,"9":31,":":32,";":33,"=":34,">":35,"?":36,"@":37,"A":38,"B":39,"C":40,"D":41,"E":42,"F":43,"G":44,"H":45,"I":46,"J":47,"K":48,"L":49,"M":50,"N":51,"O":52,"P":53,"Q":54,"R":55,"S":56,"T":57,"U":58,"V":59,"W":60,"X":61,"Y":62,"Z":63,"[":64,"\\":65,"]":66,"_":67,"`":68,"a":69,"b":70,"c":71,"d":72,"e":73,"f":74,"g":75,"h":76,"i":77,"j":78,"k":79,"l":80,"m":81,"n":82,"o":83,"p":84,"q":85,"r":86,"s":87,"t":88,"u":89,"v":90,"w":91,"x":92,"y":93,"z":94,"in":95,"an":96,"th":97,"ing":98,"on":99,"er":100,"ar":101,"at":102,"le":103,"it":104,"and":105,"of":106,"re":107,"to":108,"the":109,"is":110,"wi":111,"ro":112,"with":113,"en":114,"st":115,"al":116,"om":117,"ch":118,"ra":119,"ed":120,"la":121,"ou":122,"es":123,"ck":124,"ow":125,"ld":126,"or":127,"et":128,"bo":129,"ir":130,"id":131,"man":132,"as":133,"lo":134,"all":135,"sit":136,"ting":137,"ne":138,"wo":139,"ple":140,"ge":141,"wh":142,"be":143,"ho":144,"ers":145,"ta":146,"stand":147,"sitting":148,"are":149,"ig":150,"up":151,"pe":152,"ard":153,"ic":154,"un":155,"he":156,"ite":157,"lay":158,"top":159,"king":160,"ble":161,"lding":162,"sk":163,"ver":164,"ss":165,"standing":166,"ll":167,"ur":168,"ide":169,"tra":170,"board":171,"ople":172,"ad":173,"se":174,"ate":175,"ba":176,"oun":177,"ie":178,"pl":179,"bu":180,"xt":181,"fr":182,"wom":183,"next":184,"room":185,"do":186,"people":187,"white":188,"ce":189,"play":190,"ve":191,"ts":192,"ome":193,"sh":194,"od":195,"gro":196,"ile":197,"woman":198,"dow":199,"par":200,"air":201,"table":202,"ther":203,"stre":204,"ff":205,"street":206,"Two":207,"gra":208,"co":209,"ball":210,"holding":211,"that":212,"pers":213,"il":214,"ter":215,"some":216,"The":217,"lar":218,"ph":219,"side":220,"ase":221,"ri":222,"sm":223,"wal":224,"person":225,"one":226,"am":227,"ke":228,"cou":229,"ten":230,"clo":231,"down":232,"large":233,"cat":234,"rid":235,"ont":236,"wat":237,"by":238,"his":239,"um":240,"und":241,"wa":242,"ach":243,"lu":244,"dog":245,"po":246,"ion":247,"red":248,"fl":249,"fie":250,"her":251,"sn":252,"field":253,"car":254,"igh":255,"group":256,"near":257,"fo":258,"snow":259,"mo":260,"nis":261,"ign":262,"two":263,"pi":264,"front":265,"train":266,"lack":267,"park":268,"small":269,"tennis":270,"ree":271,"for":272,"li":273,"sur":274,"row":275,"sign":276,"ant":277,"black":278,"ying":279,"plate":280,"riding":281,"skate":282,"loo":283,"ure":284,"oung":285,"grass":286,"other":287,"bus":288,"kit":289,"pa":290,"water":291,"cle":292,"ru":293,"ca":294,"bath":295,"ele":296,"base":297,"pu":298,"we":299,"surf":300,"ving":301,"out":302,"young":303,"bed":304,"men":305,"ilding":306,"building":307,"reen":308,"ink":309,"An":310,"com":311,"baseball":312,"has":313,"eat":314,"playing":315,"im":316,"while":317,"walking":318,"win":319,"gi":320,"skateboard":321,"zz":322,"bathroom":323,"lue":324,"food":325,"blue":326,"ight":327,"back":328,"hor":329,"chen":330,"tor":331,"pizz":332,"wood":333,"ycle":334,"kitchen":335,"bre":336,"raff":337,"green":338,"plan":339,"te":340,"dy":341,"parked":342,"boy":343,"uit":344,"pizza":345,"gh":346,"looking":347,"giraff":348,"ct":349,"road":350,"ski":351,"tle":352,"over":353,"motor":354,"des":355,"fe":356,"beach":357,"ity":358,"pic":359,"aring":360,"cks":361,"ben":362,"irl":363,"toile":364,"age":365,"eleph":366,"bear":367,"couple":368,"de":369,"lap":370,"ground":371,"ame":372,"girl":373,"chi":374,"toilet":375,"dr":376,"irt":377,"op":378,"ture":379,"llow":380,"lla":381,"ut":382,"led":383,"clock":384,"fro":385,"ep":386,"brella":387,"dis":388,"city":389,"umbrella":390,"walk":391,"flying":392,"cycle":393,"ze":394,"lass":395,"ted":396,"plane":397,"wearing":398,"bench":399,"ong":400,"she":401,"ul":402,"bra":403,"picture":404,"player":405,"phone":406,"ugh":407,"laptop":408,"way":409,"motorcycle":410,"game":411,"glass":412,"veral":413,"ped":414,"bir":415,"laying":416,"ind":417,"ma":418,"from":419,"sits":420,"ire":421,"compu":422,"tain":423,"get":424,"ice":425,"ound":426,"old":427,"rough":428,"child":429,"sand":430,"rown":431,"wooden":432,"ent":433,"boat":434,"sing":435,"window":436,"ye":437,"zebra":438,"sink":439,"tow":440,"area":441,"tru":442,"chair":443,"through":444,"their":445,"cake":446,"horse":447,"bee":448,"wall":449,"tre":450,"around":451,"hand":452,"eating":453,"brown":454,"con":455,"yellow":456,"show":457,"bat":458,"isbee":459,"desk":460,"computer":461,"mp":462,"lit":463,"cro":464,"ap":465,"ay":466,"stop":467,"under":468,"bird":469,"hoto":470,"cover":471,"ban":472,"photo":473,"giraffe":474,"tside":475,"cket":476,"open":477,"ang":478,"outside":479,"qu":480,"flo":481,"truck":482,"here":483,"rest":484,"ses":485,"close":486,"per":487,"ty":488,"living":489,"ill":490,"fire":491,"bow":492,"surfboard":493,"cross":494,"suit":495,"cor":496,"Th":497,"There":498,"di":499,"covered":500,"coun":501,"its":502,"tree":503,"each":504,"trees":505,"sc":506,"bun":507,"very":508,"run":509,"illed":510,"door":511,"cour":512,"go":513,"ly":514,"flow":515,"ation":516,"cell":517,"hind":518,"elephant":519,"wing":520,"cow":521,"Three":522,"behind":523,"sto":524,"gg":525,"off":526,"read":527,"wave":528,"filled":529,"ping":530,"light":531,"bowl":532,"banan":533,"sky":534,"ok":535,"ves":536,"bi":537,"met":538,"lin":539,"court":540,"fen":541,"little":542,"into":543,"couch":544,"ction":545,"gether":546,"together":547,"pla":548,"head":549,"kite":550,"day":551,"col":552,"fa":553,"wich":554,"ange":555,"Se":556,"moun":557,"sho":558,"background":559,"sandwich":560,"iew":561,"bunch":562,"TH":563,"dri":564,"able":565,"rick":566,"skis":567,"ag":568,"pre":569,"watch":570,"floor":571,"frisbee":572,"stands":573,"mir":574,"inside":575,"Several":576,"ort":577,"mirro":578,"dou":579,"ket":580,"mirror":581,"view":582,"form":583,"Pe":584,"ass":585,"cean":586,"pie":587,"hill":588,"ocean":589,"hy":590,"look":591,"big":592,"People":593,"shirt":594,"sheep":595,"counter":596,"cut":597,"ull":598,"hydr":599,"many":600,"dle":601,"swing":602,"mid":603,"set":604,"sl":605,"hydrant":606,"bl":607,"veget":608,"fence":609,"racket":610,"IN":611,"ffic":612,"Man":613,"airplane":614,"che":615,"ants":616,"display":617,"traffic":618,"ies":619,"les":620,"el":621,"br":622,"another":623,"jum":624,"sidewalk":625,"ffer":626,"teddy":627,"dirt":628,"fferent":629,"our":630,"vegetable":631,"ner":632,"ouse":633,"imal":634,"orange":635,"stu":636,"snowboard":637,"mountain":638,"tu":639,"iling":640,"women":641,"sa":642,"lot":643,"tower":644,"animal":645,"different":646,"flowers":647,"tall":648,"eng":649,"tracks":650,"ser":651,"ment":652,"full":653,"vase":654,"fruit":655,"parking":656,"there":657,"along":658,"so":659,"tie":660,"plat":661,"ful":662,"ren":663,"sun":664,"ven":665,"baby":666,"horses":667,"ress":668,"past":669,"vegetables":670,"ator":671,"grassy":672,"hang":673,"hold":674,"three":675,"being":676,"hit":677,"giraffes":678,"bro":679,"ters":680,"ous":681,"vel":682,"cars":683,"station":684,"ain":685,"slo":686,"hot":687,"ari":688,"ti":689,"cup":690,"middle":691,"Some":692,"tr":693,"stuff":694,"ready":695,"dress":696,"glasses":697,"book":698,"gu":699,"kes":700,"bike":701,"no":702,"ha":703,"elephants":704,"key":705,"cer":706,"bananas":707,"urn":708,"box":709,"several":710,"image":711,"hat":712,"me":713,"thing":714,"sp":715,"bes":716,"zebras":717,"taking":718,"ated":719,"uring":720,"zing":721,"wor":722,"cam":723,"rowd":724,"ggage":725,"ces":726,"driving":727,"signs":728,"slope":729,"them":730,"crowd":731,"ol":732,"piece":733,"color":734,"pro":735,"catch":736,"ade":737,"pass":738,"abo":739,"cco":740,"mu":741,"rush":742,"stuffed":743,"above":744,"iger":745,"wine":746,"long":747,"ccoli":748,"brush":749,"across":750,"vis":751,"bot":752,"grazing":753,"don":754,"refr":755,"beside":756,"travel":757,"uts":758,"case":759,"tal":760,"igerator":761,"skiing":762,"ese":763,"luggage":764,"refrigerator":765,"ms":766,"snowy":767,"ched":768,"This":769,"broccoli":770,"hanging":771,"THE":772,"bic":773,"cl":774,"camer":775,"male":776,"ber":777,"vari":778,"during":779,"mon":780,"holds":781,"mat":782,"iting":783,"herd":784,"RE":785,"roll":786,"oth":787,"camera":788,"guy":789,"kid":790,"prepar":791,"port":792,"doing":793,"cows":794,"pink":795,"cont":796,"pair":797,"ets":798,"double":799,"emp":800,"ste":801,"dogs":802,"buildings":803,"pole":804,"ning":805,"oven":806,"keyboard":807,"round":808,"ine":809,"cker":810,"bin":811,"cu":812,"decor":813,"ding":814,"looks":815,"cur":816,"ligh":817,"going":818,"stove":819,"ING":820,"this":821,"cutting":822,"corner":823,"paper":824,"rac":825,"who":826,"mar":827,"track":828,"umbrellas":829,"empty":830,"passeng":831,"lf":832,"watching":833,"AN":834,"trick":835,"vision":836,"bicycle":837,"tele":838,"bag":839,"high":840,"television":841,"soc":842,"children":843,"chairs":844,"vide":845,"jumping":846,"posing":847,"pit":848,"boats":849,"pot":850,"kites":851,"remo":852,"stri":853,"bottle":854,"ip":855,"talking":856,"din":857,"soccer":858,"tub":859,"traveling":860,"video":861,"pan":862,"smiling":863,"body":864,"clos":865,"swinging":866,"using":867,"airport":868,"ors":869,"topped":870,"lling":871,"ess":872,"line":873,"IS":874,"getting":875,"rain":876,"contain":877,"ab":878,"cabin":879,"carr":880,"Fr":881,"pain":882,"ick":883,"house":884,"clu":885,"rail":886,"lea":887,"animals":888,"again":889,"ak":890,"night":891,"against":892,"apple":893,"can":894,"bar":895,"cho":896,"quet":897,"colorful":898,"fee":899,"home":900,"throw":901,"lady":902,"offee":903,"brick":904,"leep":905,"pitch":906,"cheese":907,"birds":908,"made":909,"coffee":910,"su":911,"plates":912,"jet":913,"river":914,"carrying":915,"him":916,"lights":917,"cked":918,"banana":919,"waiting":920,"Frisbee":921,"ive":922,"meat":923,"ating":924,"aur":925,"tray":926,"ON":927,"kn":928,"sil":929,"bedroom":930,"Wi":931,"ced":932,"dish":933,"restaur":934,"something":935,"drink":936,"restaurant":937,"motorcycles":938,"outh":939,"ath":940,"oo":941,"lots":942,"bears":943,"end":944,"clou":945,"land":946,"shower":947,"Wii":948,"remote":949,"metal":950,"ian":951,"du":952,"alf":953,"face":954,"runway":955,"num":956,"players":957,"tile":958,"iss":959,"ash":960,"various":961,"about":962,"racquet":963,"sleep":964,"items":965,"ramp":966,"ry":967,"decker":968,"outdoor":969,"surround":970,"ft":971,"ases":972,"enclos":973,"mic":974,"hel":975,"ection":976,"toy":977,"running":978,"ult":979,"pile":980,"dough":981,"screen":982,"lored":983,"micro":984,"carro":985,"ark":986,"store":987,"inters":988,"ans":989,"ps":990,"busy":991,"like":992,"graph":993,"skateboarder":994,"mouth":995,"skier":996,"surfing":997,"cre":998,"ga":999,"dressed":1000,"lying":1001,"intersection":1002,"pur":1003,"ial":1004,"hands":1005,"ja":1006,"ones":1007,"bas":1008,"arm":1009,"surfer":1010,"passenger":1011,"ish":1012,"slic":1013,"toward":1014,"monit":1015,"ars":1016,"doughn":1017,"ue":1018,"Four":1019,"suitcase":1020,"pes":1021,"low":1022,"tan":1023,"brid":1024,"pet":1025,"photograph":1026,"ju":1027,"shown":1028,"kni":1029,"gre":1030,"half":1031,"rides":1032,"preparing":1033,"slice":1034,"seat":1035,"rock":1036,"hic":1037,"AT":1038,"colored":1039,"pulling":1040,"gs":1041,"post":1042,"issors":1043,"jacket":1044,"gray":1045,"turn":1046,"batter":1047,"place":1048,"uni":1049,"dark":1050,"raw":1051,"bridge":1052,"mod":1053,"number":1054,"us":1055,"sleeping":1056,"controll":1057,"enclosure":1058,"ny":1059,"zoo":1060,"scissors":1061,"silver":1062,"four":1063,"bet":1064,"tooth":1065,"hair":1066,"vehic":1067,"tri":1068,"knife":1069,"ist":1070,"ween":1071,"surrounded":1072,"between":1073,"forest":1074,"ex":1075,"aning":1076,"work":1077,"coo":1078,"bread":1079,"donuts":1080,"sha":1081,"lined":1082,"microwave":1083,"meal":1084,"pen":1085,"Many":1086,"showing":1087,"sty":1088,"jo":1089,"spe":1090,"basket":1091,"decorated":1092,"der":1093,"shelf":1094,"ast":1095,"lake":1096,"coming":1097,"sal":1098,"anch":1099,"flower":1100,"walks":1101,"cabinets":1102,"few":1103,"carrots":1104,"ved":1105,"kids":1106,"ot":1107,"uniform":1108,"fork":1109,"je":1110,"Wom":1111,"mouse":1112,"atta":1113,"blan":1114,"scen":1115,"oes":1116,"anges":1117,"iture":1118,"cook":1119,"furn":1120,"bright":1121,"cand":1122,"furniture":1123,"boys":1124,"buses":1125,"branch":1126,"blanket":1127,"ds":1128,"mer":1129,"hu":1130,"tim":1131,"wet":1132,"sta":1133,"waves":1134,"stone":1135,"older":1136,"art":1137,"purple":1138,"ries":1139,"rol":1140,"try":1141,"TV":1142,"have":1143,"pillow":1144,"planes":1145,"gather":1146,"stic":1147,"cloudy":1148,"displayed":1149,"attached":1150,"grey":1151,"throwing":1152,"girls":1153,"oranges":1154,"onto":1155,"colate":1156,"fla":1157,"phones":1158,"monitor":1159,"pas":1160,"lush":1161,"pr":1162,"stat":1163,"leaning":1164,"making":1165,"ily":1166,"van":1167,"ulti":1168,"feed":1169,"inclu":1170,"LE":1171,"part":1172,"meter":1173,"clean":1174,"time":1175,"windows":1176,"crossing":1177,"stick":1178,"chocolate":1179,"helmet":1180,"Woman":1181,"ern":1182,"adult":1183,"skiers":1184,"pick":1185,"inking":1186,"dining":1187,"salad":1188,"painted":1189,"shop":1190,"lamp":1191,"yard":1192,"ctr":1193,"market":1194,"fore":1195,"scene":1196,"Ch":1197,"rocks":1198,"country":1199,"OF":1200,"let":1201,"seen":1202,"thday":1203,"perform":1204,"hitting":1205,"drinking":1206,"aut":1207,"cats":1208,"resting":1209,"tee":1210,"wel":1211,"walls":1212,"ER":1213,"enter":1214,"pat":1215,"towards":1216,"ob":1217,"ere":1218,"iz":1219,"ken":1220,"birthday":1221,"edge":1222,"ix":1223,"electr":1224,"gar":1225,"pol":1226,"stru":1227,"cy":1228,"fle":1229,"blic":1230,"trail":1231,"clear":1232,"boards":1233,"sunny":1234,"nice":1235,"ace":1236,"office":1237,"WI":1238,"mall":1239,"tables":1240,"fruits":1241,"setting":1242,"fries":1243,"pack":1244,"fre":1245,"bikes":1246,"apples":1247,"public":1248,"cing":1249,"shore":1250,"AND":1251,"sof":1252,"books":1253,"someone":1254,"moving":1255,"leaves":1256,"auti":1257,"inten":1258,"ching":1259,"female":1260,"stopped":1261,"ary":1262,"sau":1263,"plastic":1264,"been":1265,"squ":1266,"aching":1267,"ride":1268,"ey":1269,"path":1270,"tomat":1271,"tter":1272,"surfboards":1273,"teeth":1274,"neath":1275,"towel":1276,"town":1277,"enjo":1278,"platform":1279,"just":1280,"mountains":1281,"pped":1282,"tel":1283,"autiful":1284,"working":1285,"AR":1286,"tv":1287,"smile":1288,"Black":1289,"load":1290,"underneath":1291,"donut":1292,"min":1293,"pictures":1294,"topping":1295,"trying":1296,"toothbrush":1297,"bal":1298,"IT":1299,"sid":1300,"sub":1301,"refle":1302,"ety":1303,"bush":1304,"cart":1305,"beautiful":1306,"bor":1307,"tar":1308,"statue":1309,"control":1310,"controller":1311,"shot":1312,"snowboarder":1313,"police":1314,"plant":1315,"cra":1316,"slices":1317,"placed":1318,"Someone":1319,"carri":1320,"Young":1321,"af":1322,"ac":1323,"ally":1324,"skateboarding":1325,"orts":1326,"poin":1327,"right":1328,"shows":1329,"having":1330,"perched":1331,"Small":1332,"cellphone":1333,"eaten":1334,"computers":1335,"pieces":1336,"THERE":1337,"wire":1338,"passing":1339,"multi":1340,"fresh":1341,"wild":1342,"dry":1343,"catcher":1344,"dire":1345,"fam":1346,"whe":1347,"gr":1348,"pep":1349,"surface":1350,"spa":1351,"put":1352,"appl":1353,"sandy":1354,"mb":1355,"mas":1356,"reading":1357,"cooking":1358,"arge":1359,"py":1360,"flat":1361,"TO":1362,"vehicle":1363,"als":1364,"WITH":1365,"Gro":1366,"neck":1367,"spo":1368,"laptops":1369,"cakes":1370,"hotel":1371,"fast":1372,"vases":1373,"mil":1374,"fri":1375,"Large":1376,"doughnut":1377,"cases":1378,"mac":1379,"types":1380,"Group":1381,"brushing":1382,"tiled":1383,"sauce":1384,"applian":1385,"dinner":1386,"ger":1387,"pizzas":1388,"self":1389,"beer":1390,"toppings":1391,"others":1392,"ks":1393,"intendo":1394,"ond":1395,"watches":1396,"trun":1397,"swi":1398,"engine":1399,"iti":1400,"fly":1401,"they":1402,"trains":1403,"pad":1404,"family":1405,"potat":1406,"pitcher":1407,"kind":1408,"ley":1409,"plants":1410,"benches":1411,"mounted":1412,"pret":1413,"take":1414,"arr":1415,"ats":1416,"chick":1417,"ming":1418,"vers":1419,"que":1420,"draw":1421,"ons":1422,"jump":1423,"wheel":1424,"enjoying":1425,"single":1426,"doughnuts":1427,"tance":1428,"see":1429,"curb":1430,"new":1431,"gear":1432,"sail":1433,"bathtub":1434,"wr":1435,"distance":1436,"modern":1437,"trucks":1438,"tarmac":1439,"chicken":1440,"egg":1441,"shoes":1442,"after":1443,"performing":1444,"pretty":1445,"where":1446,"well":1447,"variety":1448,"woods":1449,"dock":1450,"gathered":1451,"graff":1452,"guys":1453,"tricks":1454,"One":1455,"str":1456,"foot":1457,"appliances":1458,"bit":1459,"fenced":1460,"ling":1461,"bowls":1462,"containing":1463,"ional":1464,"flies":1465,"stair":1466,"ions":1467,"kne":1468,"left":1469,"ents":1470,"inter":1471,"tage":1472,"pul":1473,"glo":1474,"rice":1475,"graffiti":1476,"not":1477,"team":1478,"desser":1479,"curtain":1480,"equ":1481,"candles":1482,"ins":1483,"AL":1484,"wn":1485,"match":1486,"cute":1487,"sting":1488,"serving":1489,"cial":1490,"ures":1491,"carriage":1492,"onic":1493,"feeding":1494,"bags":1495,"equip":1496,"concre":1497,"concrete":1498,"feat":1499,"ages":1500,"pasture":1501,"break":1502,"wii":1503,"below":1504,"poles":1505,"bottles":1506,"ance":1507,"passengers":1508,"lls":1509,"railroad":1510,"chool":1511,"less":1512,"rack":1513,"swim":1514,"ines":1515,"including":1516,"center":1517,"ST":1518,"dirty":1519,"ized":1520,"drinks":1521,"steel":1522,"fish":1523,"takes":1524,"RO":1525,"blo":1526,"shaped":1527,"unch":1528,"pillows":1529,"sofa":1530,"fireplace":1531,"school":1532,"ise":1533,"iding":1534,"among":1535,"intage":1536,"boarder":1537,"tran":1538,"striped":1539,"dd":1540,"lves":1541,"step":1542,"was":1543,"clutter":1544,"lder":1545,"pulled":1546,"wra":1547,"alone":1548,"pede":1549,"crowded":1550,"Nintendo":1551,"frid":1552,"electronic":1553,"serve":1554,"nearby":1555,"ich":1556,"served":1557,"beds":1558,"catching":1559,"cream":1560,"fridge":1561,"urch":1562,"clothe":1563,"ery":1564,"LA":1565,"posit":1566,"ear":1567,"painting":1568,"bur":1569,"med":1570,"skateboards":1571,"style":1572,"trunk":1573,"boxes":1574,"obje":1575,"cabinet":1576,"doors":1577,"but":1578,"ames":1579,"container":1580,"stall":1581,"cking":1582,"dishes":1583,"direction":1584,"cattle":1585,"feet":1586,"sinks":1587,"equipment":1588,"toast":1589,"space":1590,"OM":1591,"huge":1592,"ofess":1593,"plays":1594,"polar":1595,"LO":1596,"bs":1597,"cal":1598,"reaching":1599,"away":1600,"which":1601,"sandwiches":1602,"bushes":1603,"EN":1604,"cli":1605,"church":1606,"ural":1607,"cooked":1608,"poses":1609,"Bo":1610,"mess":1611,"sti":1612,"deser":1613,"putting":1614,"fan":1615,"mach":1616,"pire":1617,"floating":1618,"smiles":1619,"cap":1620,"ioned":1621,"atop":1622,"taken":1623,"giant":1624,"suitcases":1625,"sticking":1626,"ates":1627,"vintage":1628,"ater":1629,"both":1630,"lays":1631,"prepares":1632,"tomatoes":1633,"clothes":1634,"arrow":1635,"ofessional":1636,"legs":1637,"gold":1638,"hay":1639,"boarding":1640,"pose":1641,"av":1642,"wed":1643,"bicycles":1644,"sliced":1645,"liner":1646,"vent":1647,"staring":1648,"eling":1649,"mercial":1650,"potatoes":1651,"cement":1652,"spoon":1653,"smo":1654,"CH":1655,"orn":1656,"RA":1657,"ious":1658,"stain":1659,"dev":1660,"vehicles":1661,"blen":1662,"tour":1663,"offic":1664,"sted":1665,"por":1666,"pool":1667,"Stre":1668,"foods":1669,"rench":1670,"ward":1671,"backpack":1672,"ends":1673,"fash":1674,"rist":1675,"multiple":1676,"shorts":1677,"design":1678,"iness":1679,"sou":1680,"reflection":1681,"lone":1682,"Street":1683,"ristmas":1684,"Sk":1685,"ARE":1686,"ical":1687,"fall":1688,"swe":1689,"iny":1690,"stacked":1691,"og":1692,"bak":1693,"cloth":1694,"appe":1695,"rug":1696,"ler":1697,"urin":1698,"lead":1699,"In":1700,"Pers":1701,"same":1702,"airplanes":1703,"surfers":1704,"lid":1705,"tion":1706,"business":1707,"subway":1708,"gri":1709,"cr":1710,"arden":1711,"commercial":1712,"lic":1713,"trash":1714,"ists":1715,"straw":1716,"urry":1717,"pow":1718,"stum":1719,"Person":1720,"As":1721,"swings":1722,"flag":1723,"breakfast":1724,"docked":1725,"outdoors":1726,"ham":1727,"seated":1728,"mother":1729,"umpire":1730,"farm":1731,"garden":1732,"hou":1733,"kitten":1734,"shelves":1735,"dessert":1736,"games":1737,"soup":1738,"sunglasses":1739,"cluttered":1740,"professional":1741,"swimming":1742,"square":1743,"Clo":1744,"hard":1745,"pedestri":1746,"ults":1747,"struction":1748,"vert":1749,"couches":1750,"ortment":1751,"highway":1752,"har":1753,"fun":1754,"hotdog":1755,"ium":1756,"scoo":1757,"ster":1758,"blender":1759,"use":1760,"pepper":1761,"wind":1762,"wedding":1763,"ES":1764,"clocks":1765,"figh":1766,"icing":1767,"say":1768,"hood":1769,"controllers":1770,"drawn":1771,"ctor":1772,"orted":1773,"card":1774,"ship":1775,"drives":1776,"hillside":1777,"cess":1778,"kick":1779,"itary":1780,"free":1781,"oni":1782,"cts":1783,"fra":1784,"gate":1785,"stairs":1786,"ledge":1787,"restroom":1788,"coat":1789,"blow":1790,"rocky":1791,"net":1792,"roof":1793,"temp":1794,"ceiling":1795,"eyes":1796,"if":1797,"len":1798,"wooded":1799,"ings":1800,"shir":1801,"desktop":1802,"facing":1803,"tou":1804,"eats":1805,"appro":1806,"onions":1807,"jumps":1808,"produ":1809,"ches":1810,"race":1811,"cted":1812,"berries":1813,"lawn":1814,"does":1815,"shad":1816,"OU":1817,"urban":1818,"flock":1819,"arrang":1820,"Asian":1821,"nic":1822,"stainless":1823,"sea":1824,"pointing":1825,"sort":1826,"skies":1827,"ative":1828,"bage":1829,"things":1830,"desert":1831,"Gi":1832,"cups":1833,"nap":1834,"arms":1835,"before":1836,"suits":1837,"partment":1838,"sca":1839,"event":1840,"mit":1841,"ung":1842,"ican":1843,"clouds":1844,"sup":1845,"reads":1846,"stret":1847,"Christmas":1848,"fit":1849,"iv":1850,"make":1851,"glove":1852,"HO":1853,"kin":1854,"BO":1855,"Ze":1856,"cir":1857,"steps":1858,"fashioned":1859,"says":1860,"Zebra":1861,"todd":1862,"ane":1863,"Men":1864,"Wh":1865,"compet":1866,"type":1867,"assortment":1868,"cycl":1869,"eggs":1870,"military":1871,"attemp":1872,"rackets":1873,"tied":1874,"arranged":1875,"au":1876,"fig":1877,"neat":1878,"advert":1879,"pra":1880,"pond":1881,"most":1882,"tom":1883,"costum":1884,"ilt":1885,"spr":1886,"chop":1887,"snowboarding":1888,"cage":1889,"monitors":1890,"cture":1891,"floors":1892,"lunch":1893,"Giraff":1894,"pal":1895,"party":1896,"ties":1897,"dra":1898,"french":1899,"landing":1900,"bb":1901,"graze":1902,"picnic":1903,"broken":1904,"decoration":1905,"overlooking":1906,"sides":1907,"construction":1908,"aches":1909,"ET":1910,"kneeling":1911,"used":1912,"MAN":1913,"toddler":1914,"CK":1915,"tes":1916,"White":1917,"mi":1918,"veg":1919,"bottom":1920,"plain":1921,"closed":1922,"leash":1923,"mini":1924,"parti":1925,"must":1926,"mix":1927,"wide":1928,"narrow":1929,"colors":1930,"pots":1931,"steam":1932,"skating":1933,"hi":1934,"star":1935,"adults":1936,"flip":1937,"gies":1938,"rider":1939,"io":1940,"chain":1941,"machine":1942,"loaded":1943,"Vari":1944,"stra":1945,"ump":1946,"what":1947,"bever":1948,"gets":1949,"gen":1950,"ments":1951,"sale":1952,"himself":1953,"trailer":1954,"overhead":1955,"SE":1956,"held":1957,"object":1958,"ripe":1959,"teen":1960,"walkway":1961,"doll":1962,"messy":1963,"chef":1964,"pasta":1965,"appears":1966,"hap":1967,"Five":1968,"vest":1969,"shade":1970,"carpet":1971,"leather":1972,"pants":1973,"lax":1974,"hole":1975,"own":1976,"foreground":1977,"features":1978,"pract":1979,"eled":1980,"THAT":1981,"bite":1982,"short":1983,"smart":1984,"assorted":1985,"model":1986,"fer":1987,"ows":1988,"fancy":1989,"relax":1990,"veggies":1991,"resid":1992,"rope":1993,"colle":1994,"still":1995,"sunset":1996,"speed":1997,"Cat":1998,"cru":1999,"sed":2000,"transit":2001,"ware":2002,"friends":2003,"uses":2004,"signal":2005,"towels":2006,"zed":2007,"shroom":2008,"lines":2009,"IR":2010,"LD":2011,"ence":2012,"tail":2013,"pier":2014,"fully":2015,"mis":2016,"tire":2017,"Base":2018,"shou":2019,"good":2020,"wrapped":2021,"Red":2022,"na":2023,"push":2024,"carrot":2025,"action":2026,"ton":2027,"anti":2028,"bene":2029,"toilets":2030,"turned":2031,"prope":2032,"partially":2033,"beard":2034,"photos":2035,"loading":2036,"wash":2037,"muter":2038,"burger":2039,"device":2040,"ild":2041,"Baseball":2042,"sill":2043,"mushroom":2044,"pepperoni":2045,"clothing":2046,"scooter":2047,"ext":2048,"She":2049,"pastries":2050,"beneath":2051,"PE":2052,"drive":2053,"lies":2054,"Various":2055,"sy":2056,"stor":2057,"giving":2058,"toys":2059,"paddle":2060,"kinds":2061,"propell":2062,"sticks":2063,"waits":2064,"gon":2065,"outfit":2066,"racing":2067,"tomato":2068,"Close":2069,"fighter":2070,"fur":2071,"makes":2072,"palm":2073,"Ad":2074,"lift":2075,"chips":2076,"structure":2077,"contains":2078,"power":2079,"railing":2080,"tea":2081,"paw":2082,"houses":2083,"cast":2084,"opened":2085,"spread":2086,"iers":2087,"pastry":2088,"rests":2089,"saus":2090,"harbor":2091,"sprink":2092,"winter":2093,"val":2094,"craft":2095,"life":2096,"tuce":2097,"mud":2098,"smoke":2099,"nish":2100,"grill":2101,"log":2102,"deck":2103,"petting":2104,"baked":2105,"doorway":2106,"class":2107,"ls":2108,"includes":2109,"lettuce":2110,"BE":2111,"cting":2112,"tered":2113,"potted":2114,"sized":2115,"ier":2116,"ctive":2117,"agull":2118,"island":2119,"sheet":2120,"garage":2121,"..":2122,"PLE":2123,"allow":2124,"ential":2125,"decorative":2126,"peppers":2127,"Air":2128,"war":2129,"leading":2130,"sod":2131,"ray":2132,"pipe":2133,"IC":2134,"tops":2135,"disc":2136,"mound":2137,"comfor":2138,"ggy":2139,"antique":2140,"ned":2141,"follow":2142,"formation":2143,"Pl":2144,"stun":2145,"tive":2146,"vanity":2147,"apartment":2148,"pon":2149,"BA":2150,"den":2151,"ia":2152,"boo":2153,"vement":2154,"ols":2155,"ering":2156,"heads":2157,"bby":2158,"ising":2159,"streets":2160,"papers":2161,"pans":2162,"tensil":2163,"ulp":2164,"prepared":2165,"We":2166,"beans":2167,"containers":2168,"ns":2169,"rural":2170,"upside":2171,"writing":2172,"ible":2173,"utensil":2174,"candle":2175,"Mo":2176,"commuter":2177,"hats":2178,"Child":2179,"KING":2180,"stal":2181,"stack":2182,"nood":2183,"shopping":2184,"sheets":2185,"electric":2186,"milk":2187,"ALL":2188,"bacon":2189,"mug":2190,"produce":2191,"five":2192,"flight":2193,"ige":2194,"ised":2195,"dies":2196,"sculp":2197,"blurry":2198,"ID":2199,"OR":2200,"alongside":2201,"nose":2202,"barn":2203,"bare":2204,"range":2205,"writ":2206,"now":2207,"laid":2208,"juice":2209,"soda":2210,"sw":2211,"return":2212,"pavement":2213,"Ele":2214,"fin":2215,"frosting":2216,"St":2217,"ker":2218,"meters":2219,"groom":2220,"stream":2221,"patio":2222,"YING":2223,"snowboards":2224,"gging":2225,"erial":2226,"lamb":2227,"remotes":2228,"tur":2229,"branches":2230,"touching":2231,"ette":2232,"tent":2233,"smaller":2234,"residential":2235,"directions":2236,"ood":2237,"aged":2238,"rainy":2239,"purse":2240,"brightly":2241,"tiny":2242,"chup":2243,"seagull":2244,"goes":2245,"ketchup":2246,"sailing":2247,"kicking":2248,"lemon":2249,"entr":2250,"sport":2251,"sculpture":2252,"gla":2253,"itself":2254,"climb":2255,"TA":2256,"pping":2257,"zer":2258,"ina":2259,"ital":2260,"ides":2261,"built":2262,"parade":2263,"ired":2264,"wait":2265,"rolling":2266,"leaf":2267,"wetsuit":2268,"urinals":2269,"displaying":2270,"dresser":2271,"eye":2272,"gn":2273,"costume":2274,"scape":2275,"coll":2276,"persons":2277,"competit":2278,"riders":2279,"DO":2280,"ico":2281,"officer":2282,"Cars":2283,"oc":2284,"closeup":2285,"beige":2286,"termin":2287,"mustard":2288,"flags":2289,"rear":2290,"personal":2291,"sna":2292,"enclosed":2293,"si":2294,"deep":2295,"ators":2296,"pup":2297,"butter":2298,"sliding":2299,"ature":2300,"idu":2301,"balls":2302,"platter":2303,"bile":2304,"bucket":2305,"uniforms":2306,"pedestrians":2307,"utensils":2308,"rot":2309,"iron":2310,"decorations":2311,"gas":2312,"greens":2313,"Boy":2314,"mushrooms":2315,"locat":2316,"course":2317,"shoe":2318,"approaching":2319,"written":2320,"leans":2321,"noodles":2322,"throws":2323,"sausage":2324,"PLA":2325,"waters":2326,"mobile":2327,"tless":2328,"gged":2329,"lderly":2330,"GE":2331,"balan":2332,"sweater":2333,"ular":2334,"roadway":2335,"ornate":2336,"suppl":2337,"TING":2338,"WO":2339,"hall":2340,"trays":2341,"PEO":2342,"terminal":2343,"bull":2344,"illa":2345,"ladies":2346,"sel":2347,"ducks":2348,"hangs":2349,"stad":2350,"pickup":2351,"Multi":2352,"View":2353,"IG":2354,"leg":2355,"pulls":2356,"happy":2357,"propeller":2358,"PEOPLE":2359,"pour":2360,"posted":2361,"ora":2362,"growing":2363,"posed":2364,"deli":2365,"beverage":2366,"collection":2367,"iff":2368,"cons":2369,"attempting":2370,"ior":2371,"pine":2372,"only":2373,"paved":2374,"mitt":2375,"Old":2376,"how":2377,"liqu":2378,"crosswalk":2379,"runs":2380,"tured":2381,"passes":2382,"Hor":2383,"ded":2384,"semi":2385,"comple":2386,"fried":2387,"rel":2388,"laugh":2389,"paint":2390,"stadium":2391,"ird":2392,"tong":2393,"como":2394,"Zebras":2395,"flu":2396,"indoor":2397,"lamps":2398,"aking":2399,"nel":2400,"packed":2401,"bank":2402,"tank":2403,"ffy":2404,"ways":2405,"cus":2406,"neatly":2407,"relaxing":2408,"bending":2409,"curled":2410,"ooking":2411,"curtains":2412,"block":2413,"ather":2414,"da":2415,"guit":2416,"teleph":2417,"wagon":2418,"bou":2419,"kers":2420,"tents":2421,"fake":2422,"washer":2423,"supplies":2424,"Girl":2425,"oli":2426,"siting":2427,"indiv":2428,"bride":2429,"news":2430,"pres":2431,"missing":2432,"individu":2433,"Amer":2434,"char":2435,"patter":2436,"comotive":2437,"gan":2438,"jets":2439,"motorcycl":2440,"handle":2441,"em":2442,"aircraft":2443,"SU":2444,"elderly":2445,"ges":2446,"sim":2447,"bunches":2448,"sports":2449,"wheels":2450,"tax":2451,"dro":2452,"wires":2453,"frame":2454,"cele":2455,"goats":2456,"piled":2457,"Gu":2458,"fing":2459,"ices":2460,"falling":2461,"Looking":2462,"ctators":2463,"SK":2464,"rub":2465,"checker":2466,"duck":2467,"performs":2468,"BLE":2469,"roses":2470,"baskets":2471,"haired":2472,"ended":2473,"without":2474,"section":2475,"telephone":2476,"ED":2477,"cla":2478,"toss":2479,"gentle":2480,"oral":2481,"redi":2482,"Kit":2483,"avy":2484,"finish":2485,"ging":2486,"ute":2487,"eds":2488,"locomotive":2489,"separ":2490,"airliner":2491,"talks":2492,"soft":2493,"posite":2494,"ining":2495,"arrange":2496,"practicing":2497,"tiles":2498,"Motor":2499,"fal":2500,"fris":2501,"crou":2502,"jeans":2503,"selfie":2504,"Com":2505,"band":2506,"electronics":2507,"stunt":2508,"Multiple":2509,"celebr":2510,"US":2511,"sold":2512,"motion":2513,"glazed":2514,"bul":2515,"shallow":2516,"corn":2517,"shoulder":2518,"guitar":2519,"Co":2520,"zen":2521,"also":2522,"mirrors":2523,"prote":2524,"Sheep":2525,"asing":2526,"akers":2527,"ARD":2528,"tro":2529,"covering":2530,"note":2531,"landscape":2532,"shirtless":2533,"Eleph":2534,"dim":2535,"fix":2536,"cones":2537,"flown":2538,"steep":2539,"advertise":2540,"\".":2541,"floral":2542,"marble":2543,"toothbrushes":2544,"freezer":2545,"American":2546,"fir":2547,"garbage":2548,"cessor":2549,"redients":2550,"Ben":2551,"seum":2552,"opposite":2553,"museum":2554,"stem":2555,"toaster":2556,"Giraffes":2557,"Children":2558,"TWO":2559,"os":2560,"organ":2561,"selling":2562,"surrounding":2563,"holder":2564,"ERS":2565,"ountain":2566,"sniff":2567,"rows":2568,"travels":2569,"jetliner":2570,"shirts":2571,"els":2572,"patch":2573,"bble":2574,"hits":2575,"bel":2576,"pitching":2577,"tongue":2578,"dead":2579,"ring":2580,"bell":2581,"sprinkles":2582,"layer":2583,"paras":2584,"father":2585,"cool":2586,"habit":2587,"rolls":2588,"Adult":2589,"Guy":2590,"Big":2591,"Sur":2592,"umin":2593,"visible":2594,"asleep":2595,"objects":2596,"fallen":2597,"Lit":2598,"horseback":2599,"press":2600,"prin":2601,"pushing":2602,"headphones":2603,"stuck":2604,"blankets":2605,"SIT":2606,"images":2607,"counters":2608,"hotdogs":2609,"ingredients":2610,"muff":2611,"aked":2612,"competition":2613,"Ro":2614,"my":2615,"pictured":2616,"faces":2617,"mus":2618,"Dog":2619,"onde":2620,"homemade":2621,"string":2622,"pedestrian":2623,"furnish":2624,"arrangement":2625,"buff":2626,"frosted":2627,"puppy":2628,"ied":2629,"mes":2630,"UN":2631,"ient":2632,"ckey":2633,"fluffy":2634,"checkered":2635,"ues":2636,"downhill":2637,"fold":2638,"males":2639,"Cows":2640,"Pic":2641,"alley":2642,"urinal":2643,"strawberries":2644,"climbing":2645,"reaches":2646,"item":2647,"wears":2648,"delic":2649,"entrance":2650,"Ap":2651,"Train":2652,"gl":2653,"jar":2654,"pt":2655,"leap":2656,"pee":2657,"aming":2658,"whole":2659,"featuring":2660,"ROOM":2661,"habitat":2662,"ids":2663,"neon":2664,"cupcakes":2665,"ballo":2666,"STRE":2667,"arch":2668,"foil":2669,"Little":2670,"Blue":2671,"izz":2672,"mult":2673,"ATE":2674,"gathering":2675,"bbing":2676,"oned":2677,"moves":2678,"feeder":2679,"STREET":2680,"ondon":2681,"covers":2682,"position":2683,"pouring":2684,"carries":2685,"conne":2686,"Skate":2687,"mixed":2688,"hibit":2689,"far":2690,"skirt":2691,"stickers":2692,"TOP":2693,"cent":2694,"microphone":2695,"officers":2696,"napkin":2697,"name":2698,"cher":2699,"est":2700,"tin":2701,"olives":2702,"batting":2703,"SITTING":2704,"Snow":2705,"Traff":2706,"atten":2707,"shiny":2708,"condi":2709,"berry":2710,"Traffic":2711,"act":2712,"cri":2713,"It":2714,"trave":2715,"slopes":2716,"Picture":2717,"Stop":2718,"TRA":2719,"ail":2720,"hers":2721,"loung":2722,"skateboarders":2723,"lighting":2724,"blowing":2725,"PL":2726,"fi":2727,"blonde":2728,"rainbow":2729,"exhibit":2730,"enjoy":2731,"gravel":2732,"elf":2733,"basketball":2734,"figur":2735,"To":2736,"ycl":2737,"ili":2738,"cookies":2739,"shadow":2740,"Apple":2741,"dit":2742,"dor":2743,"cargo":2744,"opening":2745,"liquid":2746,"Pizz":2747,"eple":2748,"fountain":2749,"tun":2750,"cleaning":2751,"hills":2752,"checking":2753,"gaz":2754,"BOARD":2755,"first":2756,"SS":2757,"scar":2758,"you":2759,"onion":2760,"brushes":2761,"Ten":2762,"bers":2763,"hose":2764,"THIS":2765,"word":2766,"shape":2767,"controls":2768,"potato":2769,"even":2770,"odd":2771,"moped":2772,"indic":2773,"These":2774,"roller":2775,"spectators":2776,"laughing":2777,"TU":2778,"ahead":2779,"buss":2780,"wings":2781,"snowboarders":2782,"cardboard":2783,"complete":2784,"delicious":2785,"London":2786,"On":2787,"hook":2788,"backs":2789,"beef":2790,"steeple":2791,"numer":2792,"turning":2793,"rolley":2794,"desserts":2795,"wrap":2796,"frisbe":2797,"mel":2798,"vol":2799,"thin":2800,"booth":2801,"Green":2802,"WH":2803,"vy":2804,"adow":2805,"plu":2806,"great":2807,"golden":2808,"someones":2809,"bookshelf":2810,"sad":2811,"tools":2812,"mans":2813,"more":2814,"rusty":2815,"wear":2816,"tress":2817,"catches":2818,"dryer":2819,"located":2820,"condiments":2821,"He":2822,"clay":2823,"pige":2824,"displays":2825,"muddy":2826,"advertisement":2827,"thy":2828,"weather":2829,"flooring":2830,"stud":2831,"guard":2832,"workers":2833,"entertain":2834,"accessor":2835,"newspaper":2836,"pin":2837,"trolley":2838,"tabby":2839,"forward":2840,"bent":2841,"plaid":2842,"seats":2843,"fishing":2844,"travelling":2845,"herself":2846,"Col":2847,"goat":2848,"sugar":2849,"size":2850,"amic":2851,"carts":2852,"indu":2853,"pickle":2854,"Giraffe":2855,"miniature":2856,"TS":2857,"UP":2858,"bly":2859,"ither":2860,"ki":2861,"depic":2862,"spin":2863,"strial":2864,"Brown":2865,"ked":2866,"lane":2867,"pare":2868,"stage":2869,"ron":2870,"ident":2871,"unmade":2872,"rusted":2873,"ague":2874,"cere":2875,"spital":2876,"bars":2877,"anta":2878,"para":2879,"words":2880,"TABLE":2881,"Pizza":2882,"either":2883,"bunk":2884,"driver":2885,"balcon":2886,"crust":2887,"story":2888,"hallway":2889,"thrown":2890,"attire":2891,"convers":2892,"saf":2893,"tries":2894,"gloves":2895,"collar":2896,"biting":2897,"chasing":2898,"lif":2899,"tusk":2900,"meadow":2901,"spray":2902,"strip":2903,"comforter":2904,"Tennis":2905,"ited":2906,"coach":2907,"brary":2908,"grilled":2909,"icolored":2910,"industrial":2911,"Food":2912,"uc":2913,"eting":2914,"sharing":2915,"magn":2916,"helping":2917,"grind":2918,"accessories":2919,"stir":2920,"cafe":2921,"steak":2922,"Ban":2923,"Un":2924,"VER":2925,"ew":2926,"stares":2927,"following":2928,"Bir":2929,"burn":2930,"neigh":2931,"paste":2932,"seems":2933,"calm":2934,"magaz":2935,"qui":2936,"dishwasher":2937,"sleeps":2938,"ITE":2939,"organized":2940,"ano":2941,"hospital":2942,"stoplight":2943,"ceramic":2944,"custo":2945,"interior":2946,"chili":2947,"iled":2948,"chest":2949,"serv":2950,"countryside":2951,"cliff":2952,"designed":2953,"calf":2954,"inese":2955,"tractor":2956,"watering":2957,"STAND":2958,"transport":2959,"En":2960,"six":2961,"almost":2962,"grapes":2963,"teenag":2964,"nuts":2965,"series":2966,"picking":2967,"audi":2968,"nat":2969,"order":2970,"baking":2971,"grocer":2972,"paws":2973,"taxi":2974,"neighbor":2975,"twin":2976,"tasty":2977,"adjust":2978,"heading":2979,"cush":2980,"hugging":2981,"folded":2982,"Lo":2983,"dump":2984,"horns":2985,"bicycl":2986,"balcony":2987,"De":2988,"WOM":2989,"system":2990,"Motorcycle":2991,".\"":2992,"fil":2993,"library":2994,"amongst":2995,"mostly":2996,"LDING":2997,"PLAYING":2998,"Horses":2999,"Bath":3000,"ale":3001,"ddle":3002,"vie":3003,"ument":3004,"cowboy":3005,"cular":3006,"marina":3007,"susp":3008,"jockey":3009,"teams":3010,"circle":3011,"Ye":3012,"sle":3013,"matching":3014,"mattress":3015,"nicely":3016,"bouquet":3017,"multicolored":3018,"aerial":3019,"hip":3020,"allic":3021,"gentleman":3022,"cuts":3023,"ility":3024,"larger":3025,"keys":3026,"pancakes":3027,"Banan":3028,"Yellow":3029,"dig":3030,"isting":3031,"leaving":3032,"mask":3033,"sniffing":3034,"Car":3035,"KE":3036,"thouse":3037,"owner":3038,"funny":3039,"tunnel":3040,"neighborhood":3041,"aband":3042,"rails":3043,"point":3044,"trunks":3045,"cig":3046,"prepare":3047,"connected":3048,"CE":3049,"pri":3050,"rage":3051,"boarders":3052,"ading":3053,"ribb":3054,"formal":3055,"sets":3056,"Bathroom":3057,"FF":3058,"every":3059,"ears":3060,"heart":3061,"licking":3062,"cab":3063,"typing":3064,"scra":3065,"ggles":3066,"metallic":3067,"lookers":3068,"jumbo":3069,"Closeup":3070,"IDE":3071,"Elephants":3072,"buffet":3073,"fixt":3074,"cigar":3075,"AD":3076,"ged":3077,"level":3078,"baggage":3079,"chewing":3080,"pens":3081,"powder":3082,"hamburger":3083,"advertising":3084,"rubber":3085,"natural":3086,"oper":3087,"quets":3088,"railway":3089,"poster":3090,"PIC":3091,"rat":3092,"rit":3093,"son":3094,"warm":3095,"zes":3096,"statues":3097,"AIR":3098,"rose":3099,"beg":3100,"focus":3101,"stool":3102,"bakery":3103,"washing":3104,"driveway":3105,"abandoned":3106,"jers":3107,"resort":3108,"owl":3109,"motorbike":3110,"dusk":3111,"ough":3112,"lly":3113,"cold":3114,"flood":3115,"freshly":3116,"Ve":3117,"mom":3118,"wit":3119,"lear":3120,"heavy":3121,"lightly":3122,"Skiers":3123,"circular":3124,"boots":3125,"audience":3126,"jersey":3127,"NE":3128,"shining":3129,"candy":3130,"foreign":3131,"stretched":3132,"entertainment":3133,"gy":3134,"gress":3135,"devices":3136,"dimly":3137,"Do":3138,"opy":3139,"progress":3140,"lighthouse":3141,"framed":3142,"pony":3143,"TURE":3144,"za":3145,"downtown":3146,"compan":3147,"cupboards":3148,"grand":3149,"WOMAN":3150,"hung":3151,"pical":3152,"propped":3153,"helmets":3154,"OUN":3155,"magnets":3156,"Six":3157,"mass":3158,"ered":3159,"league":3160,"raised":3161,"bikin":3162,"pairs":3163,"VE":3164,"hiding":3165,"scat":3166,"ending":3167,"cano":3168,"Bro":3169,"PAR":3170,"spot":3171,"dot":3172,"cupcake":3173,"racquets":3174,"Women":3175,"tossing":3176,"belt":3177,"busses":3178,"PICTURE":3179,"jam":3180,"nintendo":3181,"adora":3182,"tablet":3183,"backyard":3184,"chees":3185,"worker":3186,"too":3187,"asian":3188,"upon":3189,"amoun":3190,"sailboat":3191,"lounging":3192,"quiet":3193,"zy":3194,"canopy":3195,"stacle":3196,"obstacle":3197,"reflected":3198,"individual":3199,"finger":3200,"STANDING":3201,"Don":3202,"IE":3203,"Par":3204,"vated":3205,"lean":3206,"parrot":3207,"contents":3208,"sunlight":3209,"izes":3210,"friend":3211,"porch":3212,"bearded":3213,"adorable":3214,"aw":3215,"beak":3216,"played":3217,"piano":3218,"illumin":3219,"besides":3220,"chopped":3221,"castle":3222,"AM":3223,"move":3224,"scarf":3225,"Color":3226,"Ass":3227,"come":3228,"lang":3229,"tly":3230,"than":3231,"apron":3232,"dio":3233,"bric":3234,"istic":3235,"separate":3236,"evening":3237,"OW":3238,"fans":3239,"lad":3240,"peeled":3241,"shut":3242,"cop":3243,"colla":3244,"coast":3245,"ried":3246,"skiis":3247,"storage":3248,"process":3249,"unique":3250,"erness":3251,"motorcyclist":3252,"langu":3253,"rec":3254,"ises":3255,"grazes":3256,"silverware":3257,"vanna":3258,"seagulls":3259,"WHITE":3260,"FR":3261,"Li":3262,"dling":3263,"furry":3264,"thum":3265,"pies":3266,"daytime":3267,"saying":3268,"wilderness":3269,"hardwood":3270,"grocery":3271,"scattered":3272,"bund":3273,"onlookers":3274,"heal":3275,"crosses":3276,"golf":3277,"fabric":3278,"Chinese":3279,"squat":3280,"straight":3281,"bla":3282,"thick":3283,"cot":3284,"bats":3285,"angle":3286,"lambs":3287,"furnished":3288,"spinach":3289,"Ba":3290,"Be":3291,"link":3292,"stance":3293,"ounge":3294,"blind":3295,"shaking":3296,"stretching":3297,"balancing":3298,"uzz":3299,"bay":3300,"bikers":3301,"cookie":3302,"finished":3303,"Birds":3304,"usu":3305,"works":3306,"gran":3307,"smoking":3308,"custom":3309,"mill":3310,"logs":3311,"nest":3312,"peeking":3313,"bikini":3314,"collage":3315,"jung":3316,"sizes":3317,"tag":3318,"fauc":3319,"football":3320,"amount":3321,"jungle":3322,"City":3323,"IL":3324,"Stu":3325,"iced":3326,"countertop":3327,"WII":3328,"drawers":3329,"Colorful":3330,"ladder":3331,"WAL":3332,"pod":3333,"selves":3334,"surfs":3335,"goggles":3336,"metro":3337,"headed":3338,"leafy":3339,"suspended":3340,"bill":3341,"anda":3342,"roast":3343,"shing":3344,"talk":3345,"warning":3346,"lemons":3347,"drop":3348,"music":3349,"volley":3350,"fill":3351,"sla":3352,"ena":3353,"pean":3354,"skin":3355,"adorn":3356,"wake":3357,"delivery":3358,"safety":3359,"indoors":3360,"parach":3361,"themselves":3362,"Kitchen":3363,"magazine":3364,"cigarette":3365,"Fre":3366,"WN":3367,"sne":3368,"unk":3369,"grown":3370,"simple":3371,"fed":3372,"ored":3373,"reme":3374,"need":3375,"pickles":3376,"chefs":3377,"turkey":3378,"fixing":3379,"ribbon":3380,"fair":3381,"rece":3382,"comes":3383,"savanna":3384,"ONE":3385,"strange":3386,"fighting":3387,"frisbees":3388,"Di":3389,"love":3390,"bathing":3391,"ught":3392,"tyard":3393,"screens":3394,"acc":3395,"Skateboarder":3396,"really":3397,"pill":3398,"dispen":3399,"courtyard":3400,"haul":3401,"cans":3402,"figure":3403,"muffin":3404,"PERS":3405,"ield":3406,"shar":3407,"pull":3408,"main":3409,"cellphones":3410,"towering":3411,"crane":3412,"Lu":3413,"OD":3414,"cum":3415,"ka":3416,"lounge":3417,"any":3418,"reach":3419,"goal":3420,"shoreline":3421,"classroom":3422,"healthy":3423,"villa":3424,"closet":3425,"packs":3426,"photographs":3427,"Indi":3428,"scooters":3429,"should":3430,"consisting":3431,"balloons":3432,"cereal":3433,"Bus":3434,"Cou":3435,"WAT":3436,"ables":3437,"vegetation":3438,"proje":3439,"monkey":3440,"barri":3441,"trim":3442,"freight":3443,"intere":3444,"button":3445,"sticker":3446,"DOG":3447,"Broccoli":3448,"cone":3449,"seas":3450,"kitty":3451,"stops":3452,"soap":3453,"Boats":3454,"canoe":3455,"IM":3456,"arri":3457,"eter":3458,"cobble":3459,"buns":3460,"shops":3461,"points":3462,"beverages":3463,"snack":3464,"tusks":3465,"Bananas":3466,"keep":3467,"foggy":3468,"speakers":3469,"AS":3470,"BALL":3471,"glow":3472,"slightly":3473,"site":3474,"wards":3475,"designs":3476,"cushion":3477,"GRA":3478,"SM":3479,"oney":3480,"rustic":3481,"shel":3482,"anger":3483,"dge":3484,"kis":3485,"ness":3486,"arena":3487,"alt":3488,"rimp":3489,"puts":3490,"aker":3491,"ashed":3492,"positioned":3493,"softball":3494,"Santa":3495,"Ted":3496,"care":3497,"fry":3498,"lighted":3499,"skyline":3500,"slow":3501,"blond":3502,"meeting":3503,"pedestal":3504,"UT":3505,"had":3506,"lis":3507,"uli":3508,"wading":3509,"these":3510,"cond":3511,"crossed":3512,"knit":3513,"slicing":3514,"toothpaste":3515,"observing":3516,"approaches":3517,"fixtures":3518,"usual":3519,"dispenser":3520,"PERSON":3521,"Po":3522,"cas":3523,"fat":3524,"tight":3525,"peace":3526,"conve":3527,"lining":3528,"paddling":3529,"mble":3530,"cel":3531,"ffed":3532,"grabbing":3533,"sideways":3534,"tening":3535,"waterway":3536,"catchers":3537,"material":3538,"valley":3539,"Kids":3540,"PH":3541,"ws":3542,"ief":3543,"tric":3544,"conversation":3545,"village":3546,"Teddy":3547,"HIS":3548,"Le":3549,"Pair":3550,"wand":3551,"ils":3552,"reflecting":3553,"attempts":3554,"IGH":3555,"leaping":3556,"faucet":3557,"Fresh":3558,"GRO":3559,"Hot":3560,"pump":3561,"tat":3562,"trough":3563,"ured":3564,"ens":3565,"shrimp":3566,"caught":3567,"That":3568,"pigeons":3569,"illuminated":3570,"Different":3571,"spar":3572,"alco":3573,"heard":3574,"dozen":3575,"cock":3576,"ctly":3577,"sole":3578,"exam":3579,"LOO":3580,"HOLDING":3581,"auto":3582,"crib":3583,"slee":3584,"WA":3585,"icop":3586,"deer":3587,"desks":3588,"cord":3589,"numbers":3590,"basin":3591,"snacks":3592,"gant":3593,"ose":3594,"erd":3595,"tape":3596,"sele":3597,"waving":3598,"cauli":3599,"bedspread":3600,"vendor":3601,"themed":3602,"posts":3603,"goods":3604,"Plate":3605,"BATH":3606,"present":3607,"service":3608,"UM":3609,"kay":3610,"attra":3611,"ament":3612,"cucum":3613,"helicop":3614,"OME":3615,"leads":3616,"patterned":3617,"granite":3618,"spl":3619,"urope":3620,"drying":3621,"herding":3622,"knives":3623,"forks":3624,"cauliflower":3625,"Ar":3626,"CLO":3627,"EAT":3628,"dan":3629,"panda":3630,"boog":3631,"rubs":3632,"bies":3633,"plaza":3634,"ference":3635,"daugh":3636,"flooded":3637,"Couple":3638,"SIDE":3639,"tags":3640,"terrain":3641,"RED":3642,"cluster":3643,"drawing":3644,"Can":3645,"French":3646,"Lad":3647,"Sign":3648,"twi":3649,"orting":3650,"second":3651,"tending":3652,"dried":3653,"much":3654,"portra":3655,"boogie":3656,"Flow":3657,"amond":3658,"carto":3659,"LOT":3660,"teenager":3661,"cheesy":3662,"CA":3663,"PHO":3664,"issu":3665,"within":3666,"tasting":3667,"married":3668,"strapped":3669,"storm":3670,"print":3671,"students":3672,"massive":3673,"peanut":3674,"PHOTO":3675,"For":3676,"New":3677,"Or":3678,"hum":3679,"peel":3680,"poss":3681,"elegant":3682,"greenery":3683,"angular":3684,"spoons":3685,"unches":3686,"classic":3687,"tropical":3688,"convey":3689,"helicopter":3690,"HE":3691,"Male":3692,"een":3693,"kins":3694,"spla":3695,"roaming":3696,"labor":3697,"upright":3698,"pocket":3699,"quilt":3700,"diamond":3701,"pattern":3702,"ILE":3703,"Wor":3704,"hal":3705,"ole":3706,"ual":3707,"rect":3708,"raying":3709,"raft":3710,"tablecloth":3711,"overpass":3712,"serves":3713,"spraying":3714,"bald":3715,"sweat":3716,"ctory":3717,"costumes":3718,"Fe":3719,"SN":3720,"bad":3721,"celebrating":3722,"Surfer":3723,"language":3724,"interesting":3725,"ACH":3726,"Bu":3727,"Re":3728,"fts":3729,"unusual":3730,"skater":3731,"lip":3732,"turns":3733,"limb":3734,"gives":3735,"may":3736,"handing":3737,"apan":3738,"stopping":3739,"cellular":3740,"doubles":3741,"aks":3742,"canal":3743,"garnish":3744,"borne":3745,"fashion":3746,"freeway":3747,"IGN":3748,"wrapper":3749,"transportation":3750,"Stuffed":3751,"COU":3752,"text":3753,"factory":3754,"polka":3755,"sailboats":3756,"motorcyclists":3757,"Surf":3758,"figurine":3759,"BY":3760,"Pass":3761,"ostri":3762,"buggy":3763,"human":3764,"drawer":3765,"shades":3766,"adjusting":3767,"BUS":3768,"Long":3769,"TEN":3770,"winding":3771,"console":3772,"conference":3773,"bagel":3774,"hooked":3775,"grinding":3776,"daughter":3777,"laborate":3778,"Europe":3779,"No":3780,"curve":3781,"notebook":3782,"indicating":3783,"cartoon":3784,"sco":3785,"anes":3786,"state":3787,"chro":3788,"weird":3789,"backdrop":3790,"depot":3791,"monument":3792,"silhou":3793,"photographer":3794,"learning":3795,"thumbs":3796,"split":3797,"Afr":3798,"CAT":3799,"cree":3800,"eag":3801,"lie":3802,"mor":3803,"ral":3804,"tid":3805,"tissu":3806,"remod":3807,"rots":3808,"hol":3809,"shap":3810,"kept":3811,"elevated":3812,"float":3813,"blur":3814,"hangar":3815,"exc":3816,"speaking":3817,"cleaned":3818,"extended":3819,"BATHROOM":3820,"Passeng":3821,"Airl":3822,"Photo":3823,"mashed":3824,"ox":3825,"chand":3826,"whip":3827,"snu":3828,"rowing":3829,"festi":3830,"ations":3831,"THER":3832,"cubic":3833,"include":3834,"knee":3835,"UND":3836,"Bl":3837,"RF":3838,"fits":3839,"repair":3840,"airborne":3841,"histor":3842,"oppon":3843,"utility":3844,"flav":3845,"butt":3846,"products":3847,"Plates":3848,"parachute":3849,"kissing":3850,"SNOW":3851,"CAR":3852,"Fru":3853,"naked":3854,"will":3855,"wicker":3856,"plains":3857,"athers":3858,"jackets":3859,"windowsill":3860,"pathway":3861,"acting":3862,"individuals":3863,"numerous":3864,"Lots":3865,"WALKING":3866,"portrait":3867,"nam":3868,"ities":3869,"signals":3870,"dest":3871,"INK":3872,"sporting":3873,"mode":3874,"squatting":3875,"sparse":3876,"Park":3877,"SOME":3878,"apart":3879,"instr":3880,"stroller":3881,"babies":3882,"frying":3883,"shi":3884,"amid":3885,"overcast":3886,"drivers":3887,"carry":3888,"sails":3889,"blood":3890,"ditional":3891,"hauling":3892,"Orange":3893,"PO":3894,"thedr":3895,"sters":3896,"shed":3897,"waff":3898,"headboard":3899,"brief":3900,"worn":3901,"photographed":3902,"burg":3903,"message":3904,"circus":3905,"practice":3906,"begin":3907,"Dou":3908,"Mod":3909,"Slic":3910,"bis":3911,"jars":3912,"ption":3913,"christmas":3914,"ckers":3915,"logo":3916,"vering":3917,"tux":3918,"such":3919,"cloud":3920,"appear":3921,"chained":3922,"chrome":3923,"festival":3924,"thedral":3925,"Brit":3926,"PA":3927,"Pol":3928,"aff":3929,"kno":3930,"nur":3931,"oon":3932,"third":3933,"stable":3934,"ider":3935,"asph":3936,"loaf":3937,"geese":3938,"uncooked":3939,"polit":3940,"puddle":3941,"div":3942,"stools":3943,"REE":3944,"Skier":3945,"Adults":3946,"soldiers":3947,"PARK":3948,"Lady":3949,"tidy":3950,"ELE":3951,"MO":3952,"active":3953,"elaborate":3954,"glid":3955,"shines":3956,"gravy":3957,"carouse":3958,"placing":3959,"kettle":3960,"venue":3961,"Clock":3962,"Horse":3963,"figurines":3964,"depicting":3965,"Double":3966,"LI":3967,"LAR":3968,"Sand":3969,"va":3970,"ino":3971,"seating":3972,"shield":3973,"grab":3974,"ama":3975,"mote":3976,"pug":3977,"backpacks":3978,"marked":3979,"piles":3980,"knees":3981,"SKATE":3982,"digital":3983,"adorned":3984,"carousel":3985,"COM":3986,"GI":3987,"jor":3988,"gest":3989,"disk":3990,"towing":3991,"places":3992,"tube":3993,"barbed":3994,"gaze":3995,"army":3996,"package":3997,"staircase":3998,"medium":3999,"toasted":4000,"scale":4001,"TRAIN":4002,"PLATE":4003,"customers":4004,"sneakers":4005,"LOOKING":4006,"conveyor":4007,"Police":4008,"asphalt":4009,"Che":4010,"NIS":4011,"Sc":4012,"Wood":4013,"rise":4014,"orient":4015,"closely":4016,"stomach":4017,"printer":4018,"tourists":4019,"competing":4020,"Motorcycles":4021,"Living":4022,"oriental":4023,"Japan":4024,"bri":4025,"dam":4026,"youth":4027,"pears":4028,"tex":4029,"skyscra":4030,"dressing":4031,"ANT":4032,"meats":4033,"scenic":4034,"stalls":4035,"returning":4036,"Road":4037,"GRASS":4038,"BLA":4039,"Open":4040,"Pr":4041,"STOP":4042,"ini":4043,"tori":4044,"lobby":4045,"pay":4046,"planter":4047,"keyboards":4048,"stripes":4049,"directly":4050,"warehouse":4051,"claim":4052,"BLACK":4053,"UL":4054,"call":4055,"eli":4056,"pig":4057,"were":4058,"inf":4059,"inspe":4060,"rab":4061,"racks":4062,"labe":4063,"ica":4064,"shrubs":4065,"foli":4066,"stationary":4067,"barbe":4068,"rocking":4069,"farmers":4070,"glish":4071,"English":4072,"powdered":4073,"savannah":4074,"selection":4075,"Canad":4076,"Flowers":4077,"TENNIS":4078,"Bat":4079,"SIGN":4080,"rup":4081,"lips":4082,"towers":4083,"ational":4084,"slide":4085,"help":4086,"extra":4087,"strawberry":4088,"cruise":4089,"shuttle":4090,"British":4091,"foliage":4092,"CO":4093,"Fire":4094,"lace":4095,"rubbing":4096,"cathedral":4097,"roadside":4098,"faced":4099,"viewed":4100,"bookcase":4101,"suite":4102,"trio":4103,"entering":4104,"teenage":4105,"barrier":4106,"opponent":4107,"Al":4108,"At":4109,"BL":4110,"names":4111,"ris":4112,"array":4113,"ede":4114,"bean":4115,"midair":4116,"pointed":4117,"deserted":4118,"crouching":4119,"podium":4120,"Luggage":4121,"WATER":4122,"VING":4123,"Very":4124,"gun":4125,"ky":4126,"law":4127,"lain":4128,"xture":4129,"cable":4130,"macar":4131,"scrat":4132,"shots":4133,"meas":4134,"special":4135,"intently":4136,"harness":4137,"balances":4138,"shoulders":4139,"shapes":4140,"cubicle":4141,"Sandwich":4142,"All":4143,"Ex":4144,"KIT":4145,"PI":4146,"dash":4147,"env":4148,"ened":4149,"ante":4150,"combin":4151,"checks":4152,"maroon":4153,"stores":4154,"electrical":4155,"paintings":4156,"soldier":4157,"Veget":4158,"leaned":4159,"listening":4160,"snugg":4161,"EL":4162,"cious":4163,"rings":4164,"ram":4165,"ork":4166,"necks":4167,"ically":4168,"hear":4169,"skil":4170,"frozen":4171,"runner":4172,"diner":4173,"dusty":4174,"feeds":4175,"crate":4176,"HOR":4177,"chopsticks":4178,"mixture":4179,"balloon":4180,"archite":4181,"sum":4182,"reg":4183,"rew":4184,"chan":4185,"when":4186,"unit":4187,"groups":4188,"outfits":4189,"commode":4190,"fac":4191,"cupboard":4192,"partly":4193,"stepping":4194,"muffins":4195,"Donuts":4196,"texting":4197,"FO":4198,"radio":4199,"mane":4200,"boardwalk":4201,"ummy":4202,"dip":4203,"tif":4204,"barrel":4205,"dug":4206,"newly":4207,"stretches":4208,"BASE":4209,"ironment":4210,"FFE":4211,"rectangular":4212,"tuxed":4213,"macaroni":4214,"Del":4215,"RI":4216,"emer":4217,"spotted":4218,"tw":4219,"ula":4220,"real":4221,"roman":4222,"robe":4223,"parent":4224,"fog":4225,"floats":4226,"spat":4227,"curious":4228,"nightstand":4229,"artistic":4230,"ddled":4231,"tourist":4232,"starting":4233,"syrup":4234,"Snowboarder":4235,"environment":4236,"antelo":4237,"Sm":4238,"cuit":4239,"ni":4240,"tying":4241,"ided":4242,"peering":4243,"sme":4244,"walled":4245,"pajam":4246,"major":4247,"dipping":4248,"cooks":4249,"touch":4250,"Boys":4251,"SURF":4252,"SKI":4253,"bicyclist":4254,"operating":4255,"ostrich":4256,"chandeli":4257,"infant":4258,"spatula":4259,"Pede":4260,"done":4261,"tiger":4262,"though":4263,"lodge":4264,"guest":4265,"refrigerators":4266,"crates":4267,"figures":4268,"flipping":4269,"speeding":4270,"occup":4271,"Baby":4272,"blinds":4273,"African":4274,"excited":4275,"Here":4276,"mboo":4277,"spic":4278,"thru":4279,"ref":4280,"allo":4281,"asse":4282,"needs":4283,"urt":4284,"bamboo":4285,"bump":4286,"celain":4287,"ights":4288,"signage":4289,"grassland":4290,"capped":4291,"younger":4292,"mail":4293,"maker":4294,"bling":4295,"check":4296,"noon":4297,"policeman":4298,"spacious":4299,"sweet":4300,"ferry":4301,"gym":4302,"cobblestone":4303,"Female":4304,"tissue":4305,"LARGE":4306,"skillet":4307,"Pedestri":4308,"Bright":4309,"UR":4310,"fight":4311,"start":4312,"demon":4313,"quick":4314,"else":4315,"engaged":4316,"hitter":4317,"dual":4318,"border":4319,"super":4320,"sprinkled":4321,"SUV":4322,"Compu":4323,"cherry":4324,"viewing":4325,"grandfather":4326,"remodeled":4327,"Modern":4328,"LYING":4329,"ailing":4330,"hut":4331,"lish":4332,"parts":4333,"clearing":4334,"entree":4335,"mountainous":4336,"curved":4337,"artwork":4338,"sofas":4339,"calico":4340,"extreme":4341,"DOWN":4342,"PLAY":4343,"plush":4344,"alcohol":4345,"EATING":4346,"Airlines":4347,"Bunches":4348,"file":4349,"locked":4350,"icip":4351,"cept":4352,"shrubber":4353,"tery":4354,"somewhere":4355,"umn":4356,"ourmet":4357,"stripe":4358,"spots":4359,"caption":4360,"ships":4361,"stunts":4362,"European":4363,"Smiling":4364,"pajamas":4365,"Bic":4366,"Gre":4367,"awaiting":4368,"pets":4369,"tram":4370,"parag":4371,"menu":4372,"jelly":4373,"letter":4374,"balance":4375,"carriages":4376,"pads":4377,"cyclists":4378,"BED":4379,"saddle":4380,"skinny":4381,"glowing":4382,"shrubbery":4383,"Cro":4384,"Older":4385,"Sil":4386,"lers":4387,"ancho":4388,"alarm":4389,"tagged":4390,"movie":4391,"west":4392,"weeds":4393,"map":4394,"towed":4395,"aging":4396,"bigger":4397,"barren":4398,"otto":4399,"otic":4400,"stump":4401,"BOY":4402,"presen":4403,"identical":4404,"Batter":4405,"Hand":4406,"Tow":4407,"cending":4408,"rand":4409,"til":4410,"icap":4411,"unfinished":4412,"bowling":4413,"biker":4414,"appliance":4415,"porcelain":4416,"Inside":4417,"farmer":4418,"hiking":4419,"fingers":4420,"melon":4421,"attractive":4422,"AGE":4423,"Ho":4424,"gaming":4425,"ibly":4426,"junk":4427,"inc":4428,"peas":4429,"wax":4430,"moored":4431,"comb":4432,"tech":4433,"treats":4434,"banner":4435,"cutter":4436,"pitched":4437,"stacks":4438,"wildlife":4439,"wheelchair":4440,"notes":4441,"separated":4442,"cooling":4443,"awning":4444,"Assorted":4445,"dancing":4446,"Lap":4447,"bid":4448,"pily":4449,"traditional":4450,"comm":4451,"treat":4452,"bunny":4453,"engines":4454,"stripped":4455,"ITY":4456,"suburban":4457,"LOW":4458,"pork":4459,"swung":4460,"pineapple":4461,"PLAN":4462,"possibly":4463,"Professional":4464,"Emp":4465,"Herd":4466,"Mar":4467,"cass":4468,"det":4469,"pir":4470,"ric":4471,"plen":4472,"plow":4473,"shine":4474,"ache":4475,"lime":4476,"page":4477,"pact":4478,"handicap":4479,"cords":4480,"penc":4481,"equipped":4482,"Elephant":4483,"Apples":4484,"lifting":4485,"TR":4486,"etti":4487,"holid":4488,"rim":4489,"amer":4490,"teaching":4491,"opens":4492,"engu":4493,"REN":4494,"ovens":4495,"cub":4496,"athlet":4497,"forested":4498,"CHI":4499,"hoodie":4500,"happily":4501,"BEACH":4502,"plugged":4503,"uzzy":4504,"pillar":4505,"celery":4506,"buttons":4507,"chandelier":4508,"Con":4509,"came":4510,"alumin":4511,"mantle":4512,"coats":4513,"pag":4514,"caut":4515,"breast":4516,"breaking":4517,"roads":4518,"bends":4519,"cycles":4520,"handles":4521,"mean":4522,"express":4523,"shake":4524,"crackers":4525,"necktie":4526,"blocks":4527,"crum":4528,"OUT":4529,"pigeon":4530,"hipster":4531,"sharp":4532,"Crowd":4533,"CITY":4534,"WIN":4535,"rode":4536,"unloading":4537,"foam":4538,"oked":4539,"dless":4540,"letting":4541,"garlic":4542,"stained":4543,"windshield":4544,"cards":4545,"cyclist":4546,"silly":4547,"VERY":4548,"billboard":4549,"whipped":4550,"ottoman":4551,"ION":4552,"MEN":4553,"Tour":4554,"nut":4555,"sled":4556,"ude":4557,"zone":4558,"ridding":4559,"grouped":4560,"motel":4561,"waterfall":4562,"outfield":4563,"horiz":4564,"horned":4565,"decked":4566,"steer":4567,"sushi":4568,"jeep":4569,"interacting":4570,"ogurt":4571,"windsurfing":4572,"powered":4573,"crouched":4574,"furnishings":4575,"company":4576,"SMALL":4577,"eagle":4578,"Wooden":4579,"tuxedo":4580,"holiday":4581,"RID":4582,"Sun":4583,"iP":4584,"pengu":4585,"cham":4586,"asy":4587,"local":4588,"situ":4589,"adja":4590,"bulls":4591,"playground":4592,"wallpaper":4593,"hanger":4594,"letters":4595,"mbers":4596,"afternoon":4597,"ddling":4598,"comfortable":4599,"Indian":4600,"GROUP":4601,"blurred":4602,"adjacent":4603,"Cho":4604,"hun":4605,"yogurt":4606,"upper":4607,"upward":4608,"shred":4609,"coke":4610,"poised":4611,"pipes":4612,"descri":4613,"hilly":4614,"slides":4615,"reno":4616,"tiered":4617,"clown":4618,"pitchers":4619,"bloom":4620,"blocking":4621,"ocad":4622,"relish":4623,"Kites":4624,"gliding":4625,"bicyclists":4626,"biscuit":4627,"Computer":4628,"ever":4629,"rons":4630,"theme":4631,"folding":4632,"flowing":4633,"Seven":4634,"driven":4635,"watched":4636,"leslaw":4637,"bris":4638,"socks":4639,"leave":4640,"shaggy":4641,"wheeled":4642,"chickens":4643,"called":4644,"Cattle":4645,"followed":4646,"bullet":4647,"automobile":4648,"halves":4649,"Surfers":4650,"silhouette":4651,"Japanese":4652,"CHILD":4653,"aluminum":4654,"20":4655,"Spe":4656,"acks":4657,"crest":4658,"gourmet":4659,"money":4660,"anc":4661,"andal":4662,"tool":4663,"belong":4664,"peeling":4665,"heels":4666,"coleslaw":4667,"perches":4668,"firetruck":4669,"diving":4670,"provide":4671,"stems":4672,"trip":4673,"directing":4674,"strings":4675,"FOOD":4676,"CLE":4677,"Des":4678,"FOR":4679,"HER":4680,"PING":4681,"mural":4682,"chet":4683,"loye":4684,"unripe":4685,"ilar":4686,"poking":4687,"carn":4688,"surpr":4689,"grasses":4690,"outstretched":4691,"compact":4692,"females":4693,"feathers":4694,"setup":4695,"donkey":4696,"cubs":4697,"panel":4698,"acter":4699,"flatbed":4700,"TOR":4701,"avocad":4702,"mixing":4703,"NEAR":4704,"bricks":4705,"Vegetables":4706,"dugout":4707,"guests":4708,"Laptop":4709,"DI":4710,"Light":4711,"York":4712,"oil":4713,"inflat":4714,"nequ":4715,"holes":4716,"icy":4717,"skates":4718,"toiletries":4719,"utes":4720,"ental":4721,"stocked":4722,"visit":4723,"curren":4724,"pottery":4725,"dinning":4726,"uniformed":4727,"sausages":4728,"character":4729,"similar":4730,"United":4731,"Assortment":4732,"humming":4733,"ELEPH":4734,"Pedestrians":4735,"Half":4736,"Sh":4737,"Table":4738,"UE":4739,"cong":4740,"dated":4741,"mbo":4742,"vate":4743,"vandal":4744,"information":4745,"rap":4746,"pea":4747,"aded":4748,"dolls":4749,"bedding":4750,"backwards":4751,"handbag":4752,"convent":4753,"spro":4754,"portion":4755,"steering":4756,"flowered":4757,"avily":4758,"ornament":4759,"falls":4760,"crouches":4761,"parasail":4762,"wandering":4763,"quickly":4764,"plenty":4765,"pou":4766,"yond":4767,"retr":4768,"alle":4769,"orm":4770,"beyond":4771,"herbs":4772,"compartment":4773,"tort":4774,"dist":4775,"speaker":4776,"rolled":4777,"Oranges":4778,"antelope":4779,"Bicycle":4780,"Empty":4781,"inflatable":4782,"19":4783,"50":4784,"GAM":4785,"SH":4786,"ZZ":4787,"ai":4788,"nav":4789,"sam":4790,"vast":4791,"nearly":4792,"zzly":4793,"skiier":4794,"tug":4795,"ashing":4796,"bites":4797,"stalled":4798,"location":4799,"embra":4800,"parasailing":4801,"cooler":4802,"melted":4803,"Carrots":4804,"accents":4805,"IGHT":4806,"cucumbers":4807,"burgers":4808,"rabbit":4809,"measuring":4810,"paragus":4811,"anchored":4812,"bidet":4813,"PLANE":4814,"situated":4815,"distant":4816,"Tru":4817,"Vintage":4818,"boun":4819,"eight":4820,"change":4821,"china":4822,"raising":4823,"carved":4824,"busines":4825,"dresses":4826,"world":4827,"ramps":4828,"kneels":4829,"CHEN":4830,"chopping":4831,"swan":4832,"layered":4833,"leaps":4834,"slab":4835,"GIRA":4836,"KITCHEN":4837,"caution":4838,"retrie":4839,"Dis":4840,"Meat":4841,"fuzzy":4842,"nuzz":4843,"int":4844,"installed":4845,"legged":4846,"roo":4847,"stones":4848,"mannequ":4849,"unable":4850,"cops":4851,"horn":4852,"appet":4853,"anging":4854,"corral":4855,"social":4856,"TOILE":4857,"interactive":4858,"teenagers":4859,"private":4860,"sleek":4861,"sweatshirt":4862,"barbecu":4863,"PIZZ":4864,"pagne":4865,"vandalized":4866,"Ave":4867,"Avenue":4868,"BU":4869,"FIE":4870,"Mac":4871,"ack":4872,"sour":4873,"threw":4874,"share":4875,"thered":4876,"thats":4877,"uments":4878,"pop":4879,"Animal":4880,"discu":4881,"concer":4882,"haw":4883,"marsh":4884,"ONT":4885,"helps":4886,"styled":4887,"symbo":4888,"liquor":4889,"cabbage":4890,"Parking":4891,"smelling":4892,"demonstr":4893,"discuss":4894,"lung":4895,"wre":4896,"erole":4897,"rema":4898,"alo":4899,"areas":4900,"heavily":4901,"ilet":4902,"could":4903,"achers":4904,"cages":4905,"midst":4906,"camp":4907,"hua":4908,"smiley":4909,"smooth":4910,"portable":4911,"smartphone":4912,"protective":4913,"kayak":4914,"HORSE":4915,"Cross":4916,"tortilla":4917,"PIZZA":4918,"GET":4919,"ZE":4920,"rh":4921,"sat":4922,"incoming":4923,"arn":4924,"reve":4925,"orary":4926,"asparagus":4927,"woo":4928,"whit":4929,"airfield":4930,"bend":4931,"conf":4932,"stored":4933,"soaked":4934,"strike":4935,"meals":4936,"price":4937,"patient":4938,"squash":4939,"carrier":4940,"mixer":4941,"filling":4942,"knitted":4943,"materials":4944,"presentation":4945,"dashboard":4946,"AP":4947,"FE":4948,"Star":4949,"SHO":4950,"WE":4951,"Washing":4952,"cul":4953,"drain":4954,"fu":4955,"late":4956,"lets":4957,"roy":4958,"stating":4959,"chal":4960,"ads":4961,"sewing":4962,"limit":4963,"ghetti":4964,"motorbikes":4965,"quo":4966,"lym":4967,"ggie":4968,"tucked":4969,"barre":4970,"posters":4971,"exit":4972,"squir":4973,"takeoff":4974,"shaded":4975,"pushed":4976,"swans":4977,"activ":4978,"mopeds":4979,"completely":4980,"Decker":4981,"slowly":4982,"mbled":4983,"Passengers":4984,"destin":4985,"instruments":4986,"gazel":4987,"champagne":4988,"TOILET":4989,"FIELD":4990,"DES":4991,"cit":4992,"lete":4993,"rele":4994,"rasp":4995,"tably":4996,"layers":4997,"ury":4998,"shes":4999,"skatepark":5000,"croiss":5001,"biplane":5002,"stew":5003,"club":5004,"huddled":5005,"touches":5006,"gency":5007,"barefoot":5008,"bandan":5009,"parasol":5010,"Vehic":5011,"Fruit":5012,"MOTOR":5013,"BASEBALL":5014,"casserole":5015,"Bear":5016,"Ger":5017,"ake":5018,"crown":5019,"centr":5020,"non":5021,"oval":5022,"stare":5023,"taped":5024,"bug":5025,"training":5026,"contra":5027,"studio":5028,"gular":5029,"mugs":5030,"mustache":5031,"BEAR":5032,"Airplane":5033,"comfortably":5034,"sculptures":5035,"printed":5036,"OUNG":5037,"Signs":5038,"creek":5039,"labeled":5040,"combination":5041,"maneu":5042,"tific":5043,"GAME":5044,"BR":5045,"Bird":5046,"YOUNG":5047,"izing":5048,"then":5049,"ali":5050,"lab":5051,"polo":5052,"fields":5053,"caged":5054,"conver":5055,"perch":5056,"soaring":5057,"prop":5058,"employe":5059,"basil":5060,"exposed":5061,"lifts":5062,"briefcase":5063,"beginning":5064,"Grey":5065,"pirate":5066,"RIDING":5067,"Washington":5068,"Bi":5069,"Buses":5070,"Hap":5071,"Num":5072,"RT":5073,"SINK":5074,"Water":5075,"cin":5076,"fut":5077,"spire":5078,"ared":5079,"beam":5080,"grape":5081,"dec":5082,"perfe":5083,"THREE":5084,"hydrants":5085,"members":5086,"camou":5087,"REEN":5088,"canoes":5089,"landed":5090,"shaving":5091,"saucer":5092,"spaghetti":5093,"napkins":5094,"tires":5095,"volleyball":5096,"CLOCK":5097,"PARKED":5098,"scratching":5099,"surprised":5100,"convention":5101,"lympic":5102,"BB":5103,"Bed":5104,"BRA":5105,"BIR":5106,"hom":5107,"ug":5108,"oncoming":5109,"regular":5110,"bees":5111,"igating":5112,"sex":5113,"paralle":5114,"airline":5115,"picks":5116,"picked":5117,"ime":5118,"crochet":5119,"serious":5120,"colorfully":5121,"dust":5122,"lower":5123,"clearly":5124,"sauces":5125,"featured":5126,"medical":5127,"cabinetry":5128,"stretch":5129,"ival":5130,"draped":5131,"dragon":5132,"numerals":5133,"FRONT":5134,"summer":5135,"BEN":5136,"hour":5137,"ud":5138,"isle":5139,"aler":5140,"ney":5141,"streetlight":5142,"singing":5143,"quar":5144,"peri":5145,"got":5146,"mountainside":5147,"nothing":5148,"camping":5149,"marking":5150,"cheesecake":5151,"grizzly":5152,"chains":5153,"carpeted":5154,"acters":5155,"Scissors":5156,"american":5157,"hawk":5158,"barrels":5159,"Happy":5160,"DR":5161,"Pink":5162,"Rows":5163,"gallo":5164,"san":5165,"santa":5166,"yet":5167,"yarn":5168,"inner":5169,"ank":5170,"aling":5171,"bleachers":5172,"veggie":5173,"airy":5174,"focu":5175,"pia":5176,"cloudless":5177,"times":5178,"flaming":5179,"machines":5180,"relaxes":5181,"Electr":5182,"presents":5183,"celebration":5184,"shelving":5185,"tattoo":5186,"waffles":5187,"Silver":5188,"parallel":5189,"Am":5190,"Way":5191,"brow":5192,"ders":5193,"hur":5194,"ners":5195,"vil":5196,"zard":5197,"rod":5198,"route":5199,"ics":5200,"skull":5201,"plum":5202,"amese":5203,"blueberries":5204,"quite":5205,"gazing":5206,"greeting":5207,"cram":5208,"Inter":5209,"makeup":5210,"consists":5211,"begins":5212,"projector":5213,"season":5214,"barbecue":5215,"10":5216,"BI":5217,"BRE":5218,"DIS":5219,"Fam":5220,"GO":5221,"aim":5222,"vac":5223,"won":5224,"instru":5225,"instruction":5226,"rams":5227,"eties":5228,"grow":5229,"They":5230,"wallet":5231,"undred":5232,"opposing":5233,"stocking":5234,"liners":5235,"brand":5236,"varieties":5237,"preparation":5238,"darkened":5239,"sided":5240,"crafts":5241,"musical":5242,"Toilet":5243,"ceremon":5244,"bundle":5245,"WAY":5246,"BLUE":5247,"Delta":5248,"penguin":5249,"Spectators":5250,"BUI":5251,"tificial":5252,"BENCH":5253,"Har":5254,"Ital":5255,"Lone":5256,"TLE":5257,"UG":5258,"YCLE":5259,"aqu":5260,"dom":5261,"lat":5262,"ore":5263,"tanger":5264,"ustr":5265,"wrest":5266,"recor":5267,"bama":5268,"coin":5269,"amp":5270,"tethered":5271,"tulips":5272,"atory":5273,"crew":5274,"frames":5275,"lens":5276,"doesn":5277,"choppy":5278,"paddles":5279,"colli":5280,"enjoys":5281,"arriving":5282,"torized":5283,"emergency":5284,"carnival":5285,"ZEBRA":5286,"DESK":5287,"BUILDING":5288,"Home":5289,"High":5290,"TE":5291,"TER":5292,"dome":5293,"fine":5294,"sword":5295,"slip":5296,"wise":5297,"invest":5298,"ene":5299,"seven":5300,"bubble":5301,"strewn":5302,"sanding":5303,"countertops":5304,"bookshelves":5305,"camper":5306,"ARING":5307,"wheeler":5308,"extends":5309,"follows":5310,"Plane":5311,"characters":5312,"belly":5313,"buffalo":5314,"stirring":5315,"burning":5316,"glides":5317,"Animals":5318,"BBQ":5319,"DY":5320,"OVER":5321,"Olympic":5322,"Obama":5323,"Tall":5324,"filed":5325,"honey":5326,"mou":5327,"pant":5328,"spi":5329,"oft":5330,"oms":5331,"wool":5332,"peers":5333,"gradu":5334,"cola":5335,"somewhat":5336,"trainer":5337,"telling":5338,"entry":5339,"bron":5340,"travelers":5341,"curly":5342,"curvy":5343,"sque":5344,"tarp":5345,"crashing":5346,"lonely":5347,"butterfly":5348,"Girls":5349,"taxis":5350,"dorm":5351,"kicks":5352,"scoop":5353,"damaged":5354,"CT":5355,"Du":5356,"FI":5357,"GLA":5358,"GIR":5359,"dum":5360,"gad":5361,"gated":5362,"lor":5363,"ranch":5364,"sip":5365,"vine":5366,"pelic":5367,"friz":5368,"moon":5369,"bushel":5370,"give":5371,"skiiers":5372,"jumped":5373,"cameras":5374,"rounding":5375,"bins":5376,"decorating":5377,"ONG":5378,"storefront":5379,"ixed":5380,"questri":5381,"Box":5382,"official":5383,"CKS":5384,"steamed":5385,"college":5386,"tails":5387,"Airplanes":5388,"buckets":5389,"balanced":5390,"ILING":5391,"cucumber":5392,"COURT":5393,"refere":5394,"extremely":5395,"rodeo":5396,"sprouts":5397,"businesses":5398,"vacant":5399,"Dark":5400,"Mil":5401,"flush":5402,"vo":5403,"arched":5404,"artificial":5405,"rese":5406,"omelet":5407,"cozy":5408,"lux":5409,"motorized":5410,"rugs":5411,"cause":5412,"overlooks":5413,"drum":5414,"ques":5415,"shoo":5416,"brocolli":5417,"nighttime":5418,"merged":5419,"carton":5420,"strong":5421,"medic":5422,"LOTS":5423,"vests":5424,"propellers":5425,"sniffs":5426,"mesh":5427,"dotted":5428,"nestled":5429,"random":5430,"German":5431,"BIRD":5432,"GIRL":5433,"OP":5434,"Pro":5435,"gin":5436,"kiss":5437,"miss":5438,"overs":5439,"tide":5440,"robot":5441,"best":5442,"ilies":5443,"limes":5444,"trek":5445,"flore":5446,"plaque":5447,"tique":5448,"stead":5449,"removed":5450,"striking":5451,"know":5452,"knacks":5453,"exiting":5454,"deserts":5455,"spring":5456,"turquo":5457,"olive":5458,"warming":5459,"accident":5460,"morning":5461,"historical":5462,"flavored":5463,"Canadian":5464,"architecture":5465,"occupied":5466,"turquoise":5467,"Beach":5468,"DE":5469,"MA":5470,"PUT":5471,"Su":5472,"XT":5473,"gth":5474,"tic":5475,"zip":5476,"lego":5477,"changing":5478,"rather":5479,"idated":5480,"sells":5481,"parents":5482,"grabs":5483,"smother":5484,"ambul":5485,"watermelon":5486,"imate":5487,"windy":5488,"winds":5489,"zzle":5490,"lapidated":5491,"handed":5492,"kiteboarding":5493,"paneled":5494,"athlete":5495,"microwaves":5496,"metery":5497,"submerged":5498,"directional":5499,"ific":5500,"BACK":5501,"pours":5502,"Commuter":5503,"protest":5504,"attention":5505,"project":5506,"eteria":5507,"Sliced":5508,"Slices":5509,"politan":5510,"spices":5511,"homes":5512,"GLASS":5513,"smothered":5514,"Bar":5515,"Cla":5516,"GREEN":5517,"ago":5518,"find":5519,"found":5520,"mate":5521,"sure":5522,"sight":5523,"ara":5524,"tock":5525,"ister":5526,"enth":5527,"stars":5528,"escal":5529,"ridge":5530,"pired":5531,"Antique":5532,"lapse":5533,"tains":5534,"aper":5535,"underwear":5536,"pregn":5537,"noses":5538,"meet":5539,"mechan":5540,"passed":5541,"cuddling":5542,"marker":5543,"Fris":5544,"LAP":5545,"early":5546,"Book":5547,"lent":5548,"Stat":5549,"rotten":5550,"bulld":5551,"lounges":5552,"depicts":5553,"everywhere":5554,"trict":5555,"Force":5556,"garnished":5557,"nursing":5558,"shredded":5559,"avocado":5560,"referee":5561,"Graff":5562,"HAND":5563,"cry":5564,"easy":5565,"rink":5566,"rising":5567,"rises":5568,"racer":5569,"unching":5570,"rooms":5571,"grain":5572,"ridden":5573,"force":5574,"web":5575,"skills":5576,"debris":5577,"sandwhich":5578,"trey":5579,"batters":5580,"particip":5581,"trails":5582,"accompan":5583,"blows":5584,"ified":5585,"compete":5586,"speeds":5587,"clad":5588,"NEXT":5589,"slaw":5590,"splash":5591,"historic":5592,"skyscrapers":5593,"facility":5594,"hummingbird":5595,"raspberries":5596,"Fri":5597,"Mex":5598,"Pur":5599,"SAND":5600,"craw":5601,"dance":5602,"feteria":5603,"hone":5604,"lan":5605,"navy":5606,"erous":5607,"today":5608,"radi":5609,"pled":5610,"trailing":5611,"cemetery":5612,"ripen":5613,"cafeteria":5614,"department":5615,"angry":5616,"mirrored":5617,"plated":5618,"aint":5619,"mark":5620,"bricked":5621,"intense":5622,"TOGE":5623,"milking":5624,"wrapping":5625,"kittens":5626,"ICE":5627,"stalk":5628,"competitive":5629,"gentlemen":5630,"Commercial":5631,"indicates":5632,"kiwi":5633,"safari":5634,"lifted":5635,"burnt":5636,"digging":5637,"OUND":5638,"bumper":5639,"Tourists":5640,"belongings":5641,"undreds":5642,"pregnant":5643,"Glass":5644,"Mother":5645,"Ori":5646,"Out":5647,"Soc":5648,"dar":5649,"gone":5650,"hid":5651,"oam":5652,"yach":5653,"ston":5654,"boot":5655,"wok":5656,"beat":5657,"lli":5658,"buying":5659,"busted":5660,"carving":5661,"wines":5662,"backhand":5663,"torn":5664,"condu":5665,"tip":5666,"tired":5667,"ticket":5668,"ished":5669,"wetsuits":5670,"flage":5671,"shady":5672,"pushes":5673,"Airways":5674,"everything":5675,"milling":5676,"CAKE":5677,"snuggling":5678,"expression":5679,"embracing":5680,"rhino":5681,"camouflage":5682,"Graffiti":5683,"TOGETHER":5684,"Pa":5685,"Side":5686,"Teen":5687,"You":5688,"eff":5689,"equestri":5690,"lion":5691,"rig":5692,"ares":5693,"ased":5694,"ately":5695,"bucks":5696,"condit":5697,"dilapidated":5698,"linens":5699,"guiding":5700,"curity":5701,"paperwork":5702,"knick":5703,"ultimate":5704,"mouths":5705,"autumn":5706,"eyed":5707,"born":5708,"cracked":5709,"wireless":5710,"pulated":5711,"STU":5712,"length":5713,"bagels":5714,"student":5715,"shelter":5716,"UMBRE":5717,"splashing":5718,"Blurry":5719,"knocked":5720,"RENT":5721,"appetiz":5722,"medicine":5723,"Purple":5724,"BRO":5725,"FLO":5726,"FLYING":5727,"JUM":5728,"Mon":5729,"WER":5730,"lanes":5731,"mur":5732,"sli":5733,"your":5734,"ofoam":5735,"res":5736,"ropes":5737,"sts":5738,"ald":5739,"already":5740,"alog":5741,"chat":5742,"raises":5743,"idly":5744,"alls":5745,"beers":5746,"admir":5747,"seed":5748,"tabletop":5749,"gram":5750,"live":5751,"rus":5752,"rought":5753,"littered":5754,"pretending":5755,"vending":5756,"arian":5757,"processor":5758,"vane":5759,"blocked":5760,"transporting":5761,"CHAIR":5762,"function":5763,"West":5764,"deliver":5765,"dais":5766,"lovely":5767,"amidst":5768,"skyscraper":5769,"inspecting":5770,"commun":5771,"smoothie":5772,"WEARING":5773,"gazelle":5774,"sexy":5775,"Italian":5776,"escalator":5777,"BAN":5778,"Cor":5779,"Eight":5780,"LLA":5781,"Tra":5782,"bru":5783,"gates":5784,"lite":5785,"rofoam":5786,"troll":5787,"vity":5788,"yo":5789,"intric":5790,"pel":5791,"seeds":5792,"velo":5793,"flan":5794,"moss":5795,"pale":5796,"sandals":5797,"goose":5798,"vestock":5799,"span":5800,"decorate":5801,"marine":5802,"bottled":5803,"raining":5804,"Wild":5805,"lands":5806,"deckered":5807,"except":5808,"job":5809,"Chick":5810,"policemen":5811,"necklace":5812,"seeing":5813,"clip":5814,"arrows":5815,"shadows":5816,"washroom":5817,"rotting":5818,"Cola":5819,"archway":5820,"cherries":5821,"attending":5822,"magazines":5823,"metropolitan":5824,"pillars":5825,"GROUND":5826,"examining":5827,"LIVING":5828,"FFERENT":5829,"lettering":5830,"athletic":5831,"describe":5832,"DIFFERENT":5833,"chalk":5834,"destination":5835,"Vehicles":5836,"Family":5837,"ambulance":5838,"Frisbees":5839,"crystal":5840,"Soccer":5841,"admiring":5842,"ABLE":5843,"Bre":5844,"Jet":5845,"Sing":5846,"Sta":5847,"War":5848,"crow":5849,"ech":5850,"faded":5851,"gown":5852,"kra":5853,"oak":5854,"sound":5855,"ually":5856,"vi":5857,"ero":5858,"ofu":5859,"retail":5860,"edges":5861,"bells":5862,"hovering":5863,"security":5864,"docks":5865,"waste":5866,"grouping":5867,"otherwise":5868,"weed":5869,"angled":5870,"platters":5871,"holders":5872,"boxing":5873,"memor":5874,"spir":5875,"triple":5876,"exotic":5877,"squares":5878,"captured":5879,"napping":5880,"returns":5881,"SKY":5882,"Uni":5883,"jockeys":5884,"Dogs":5885,"bundled":5886,"pumpkins":5887,"incline":5888,"ELEPHANT":5889,"remains":5890,"squirrel":5891,"bronze":5892,"Fed":5893,"FRO":5894,"HAS":5895,"Is":5896,"La":5897,"LIT":5898,"Pu":5899,"Pan":5900,"Pie":5901,"SHE":5902,"Um":5903,"dled":5904,"label":5905,"neut":5906,"hovers":5907,"cact":5908,"caboo":5909,"backed":5910,"walked":5911,"stoplights":5912,"daylight":5913,"forming":5914,"pita":5915,"usi":5916,"AROUND":5917,"gerator":5918,"earth":5919,"calcul":5920,"trashcan":5921,"approach":5922,"washed":5923,"octop":5924,"puppies":5925,"WOOD":5926,"Trains":5927,"attend":5928,"grinds":5929,"adjusts":5930,"thumb":5931,"PHONE":5932,"Passenger":5933,"namon":5934,"waffle":5935,"presented":5936,"GIRAFFE":5937,"Military":5938,"accompanied":5939,"UMBRELLA":5940,"CD":5941,"Cup":5942,"Jo":5943,"Me":5944,"Player":5945,"Ser":5946,"Ste":5947,"fist":5948,"var":5949,"record":5950,"roam":5951,"chu":5952,"orch":5953,"ascending":5954,"heater":5955,"airlines":5956,"pilot":5957,"rust":5958,"teal":5959,"agon":5960,"formally":5961,"contest":5962,"emporary":5963,"televisions":5964,"barric":5965,"duff":5966,"basic":5967,"hairy":5968,"mascot":5969,"flips":5970,"owners":5971,"dense":5972,"barely":5973,"sectional":5974,"Coca":5975,"Room":5976,"Banana":5977,"fixture":5978,"reclining":5979,"goalie":5980,"IMAGE":5981,"twilight":5982,"Canada":5983,"Altered":5984,"SKIING":5985,"tilted":5986,"horizon":5987,"visitors":5988,"mannequin":5989,"wonder":5990,"frizbee":5991,"enthusi":5992,"Friends":5993,"radiator":5994,"caboose":5995,"Mc":5996,"OLD":5997,"WING":5998,"aisle":5999,"ek":6000,"mama":6001,"oid":6002,"rum":6003,"tofu":6004,"anim":6005,"itude":6006,"wiping":6007,"enorm":6008,"lable":6009,"ould":6010,"whis":6011,"ades":6012,"buy":6013,"dots":6014,"amuse":6015,"frog":6016,"shell":6017,"inder":6018,"litter":6019,"goers":6020,"biking":6021,"server":6022,"sunflowers":6023,"akfast":6024,"cane":6025,"reflects":6026,"stairway":6027,"calves":6028,"gener":6029,"extending":6030,"swit":6031,"oddly":6032,"Eng":6033,"Decor":6034,"Beautiful":6035,"roasted":6036,"recei":6037,"examines":6038,"Fruits":6039,"divided":6040,"fighters":6041,"pencils":6042,"TRU":6043,"cinnamon":6044,"alert":6045,"tangerines":6046,"OPEN":6047,"Mexican":6048,"hidden":6049,"JUMPING":6050,"Breakfast":6051,"kraut":6052,"enormous":6053,"12":6054,"Cow":6055,"Gold":6056,"Pot":6057,"Up":6058,"Win":6059,"bie":6060,"ci":6061,"dad":6062,"hedge":6063,"vio":6064,"analog":6065,"stere":6066,"chin":6067,"chase":6068,"radishes":6069,"raging":6070,"ory":6071,"because":6072,"airstrip":6073,"grave":6074,"pherd":6075,"waling":6076,"mock":6077,"anted":6078,"kits":6079,"waterfront":6080,"beached":6081,"typical":6082,"surfboarding":6083,"hazy":6084,"pane":6085,"issor":6086,"jug":6087,"exer":6088,"scenery":6089,"candies":6090,"partments":6091,"shopped":6092,"packages":6093,"packaged":6094,"seem":6095,"burrit":6096,"avai":6097,"claw":6098,"advertisements":6099,"hooks":6100,"taxiing":6101,"everyone":6102,"VEGET":6103,"recliner":6104,"SMILING":6105,"Polar":6106,"named":6107,"COMPUT":6108,"Chocolate":6109,"citrus":6110,"galloping":6111,"ceremony":6112,"equestrian":6113,"amusement":6114,"VEGETABLE":6115,"11":6116,"CRO":6117,"Ru":6118,"Sa":6119,"mers":6120,"ng":6121,"spark":6122,"would":6123,"thread":6124,"wig":6125,"laund":6126,"ordin":6127,"hoop":6128,"arella":6129,"bably":6130,"ply":6131,"iles":6132,"snap":6133,"foal":6134,"licks":6135,"tles":6136,"defen":6137,"angling":6138,"readies":6139,"formed":6140,"monster":6141,"markers":6142,"ipod":6143,"ISBE":6144,"expan":6145,"shaved":6146,"huddle":6147,"vanilla":6148,"patrons":6149,"ITS":6150,"swims":6151,"wrist":6152,"capti":6153,"appearing":6154,"seafood":6155,"partial":6156,"spinning":6157,"FRISBE":6158,"barriers":6159,"pumpkin":6160,"Workers":6161,"creepy":6162,"peacock":6163,"bouncing":6164,"symbol":6165,"Numerous":6166,"futon":6167,"focused":6168,"cramped":6169,"neutral":6170,"available":6171,"EP":6172,"FUL":6173,"Ha":6174,"HIGH":6175,"MP":6176,"Night":6177,"Pep":6178,"South":6179,"dors":6180,"danger":6181,"hundreds":6182,"ipe":6183,"vic":6184,"vation":6185,"ined":6186,"ofa":6187,"recre":6188,"tourn":6189,"ense":6190,"owls":6191,"idgerator":6192,"lock":6193,"coal":6194,"personnel":6195,"populated":6196,"caps":6197,"zzarella":6198,"motorcy":6199,"laps":6200,"district":6201,"master":6202,"entire":6203,"courts":6204,"colum":6205,"Seagull":6206,"THING":6207,"views":6208,"vendors":6209,"contemporary":6210,"removing":6211,"tanker":6212,"workstation":6213,"artic":6214,"flash":6215,"packing":6216,"positions":6217,"burner":6218,"BOAT":6219,"dragging":6220,"toned":6221,"stormy":6222,"climbs":6223,"complex":6224,"charging":6225,"ginger":6226,"Cooked":6227,"troph":6228,"peeks":6229,"conversing":6230,"burners":6231,"sleigh":6232,"Back":6233,"fedora":6234,"World":6235,"UNDER":6236,"sparsely":6237,"instrument":6238,"recording":6239,"trolly":6240,"enthusiast":6241,"stereo":6242,"exerc":6243,"expanse":6244,"captivity":6245,"tournament":6246,"Bowl":6247,"Ma":6248,"MIR":6249,"OK":6250,"Ou":6251,"Past":6252,"Rail":6253,"Si":6254,"fting":6255,"gor":6256,"gang":6257,"gull":6258,"mm":6259,"inery":6260,"ison":6261,"stay":6262,"chini":6263,"raquet":6264,"ettes":6265,"sity":6266,"upwards":6267,"peach":6268,"sidecar":6269,"foo":6270,"mozzarella":6271,"lized":6272,"And":6273,"fell":6274,"handled":6275,"scissor":6276,"chews":6277,"tier":6278,"probably":6279,"marching":6280,"strips":6281,"struct":6282,"structed":6283,"reflective":6284,"famous":6285,"Groups":6286,"ornam":6287,"windmill":6288,"hooded":6289,"drapes":6290,"practices":6291,"alloween":6292,"DOW":6293,"delivering":6294,"dropping":6295,"finishing":6296,"pressing":6297,"ucchini":6298,"moment":6299,"casual":6300,"Lego":6301,"dozens":6302,"rispy":6303,"architect":6304,"hunched":6305,"renovated":6306,"evergreen":6307,"ancient":6308,"DISPLAY":6309,"FIRE":6310,"florets":6311,"FROM":6312,"octopus":6313,"CYCLE":6314,"Go":6315,"LL":6316,"OTHER":6317,"Pla":6318,"Squ":6319,"YEL":6320,"might":6321,"mice":6322,"vet":6323,"reins":6324,"isher":6325,"wired":6326,"omy":6327,"ckled":6328,"ples":6329,"standard":6330,"peak":6331,"pling":6332,"buds":6333,"poor":6334,"snowsuit":6335,"mosa":6336,"baseman":6337,"weight":6338,"import":6339,"gift":6340,"plantains":6341,"overgrown":6342,"cityscape":6343,"mag":6344,"browns":6345,"bib":6346,"fencing":6347,"engaging":6348,"solar":6349,"guide":6350,"spreads":6351,"proper":6352,"refridgerator":6353,"mono":6354,"ANIM":6355,"ishment":6356,"breads":6357,"speech":6358,"salon":6359,"flowery":6360,"jewel":6361,"hug":6362,"garb":6363,"settings":6364,"spaces":6365,"wheelie":6366,"businessman":6367,"hammer":6368,"attempt":6369,"Variety":6370,"ponies":6371,"sections":6372,"numeral":6373,"languages":6374,"WALK":6375,"Art":6376,"beanie":6377,"detail":6378,"handicapped":6379,"WINDOW":6380,"currently":6381,"concert":6382,"bandana":6383,"markings":6384,"gadgets":6385,"resemble":6386,"crawling":6387,"conductor":6388,"cactus":6389,"YELLOW":6390,"Baked":6391,"Clu":6392,"COR":6393,"Over":6394,"Pit":6395,"SC":6396,"bom":6397,"fet":6398,"frown":6399,"national":6400,"zucchini":6401,"rees":6402,"retro":6403,"rous":6404,"almon":6405,"altered":6406,"lders":6407,"idle":6408,"pear":6409,"parrots":6410,"cole":6411,"waist":6412,"motes":6413,"compartments":6414,"descending":6415,"concentr":6416,"underground":6417,"vegetarian":6418,"safe":6419,"sunlit":6420,"sunshine":6421,"slop":6422,"stuffing":6423,"marks":6424,"salmon":6425,"autifully":6426,"carried":6427,"wilde":6428,"ALS":6429,"ROR":6430,"machinery":6431,"cloths":6432,"aneous":6433,"warns":6434,"grooming":6435,"Toy":6436,"Birthday":6437,"Door":6438,"blades":6439,"reception":6440,"affixed":6441,"presenting":6442,"poured":6443,"Truck":6444,"patiently":6445,"grapefruit":6446,"ugly":6447,"flamingos":6448,"instructions":6449,"ZEBRAS":6450,"slippers":6451,"trekking":6452,"Chicken":6453,"laundry":6454,"Outside":6455,"ornaments":6456,"important":6457,"SLO":6458,"VD":6459,"awaits":6460,"bone":6461,"loft":6462,"nature":6463,"ust":6464,"vies":6465,"vans":6466,"theater":6467,"oman":6468,"irgin":6469,"hop":6470,"tact":6471,"trak":6472,"added":6473,"fron":6474,"grove":6475,"cocon":6476,"foraging":6477,"livestock":6478,"tures":6479,"shells":6480,"showroom":6481,"banquet":6482,"bunt":6483,"goble":6484,"herded":6485,"clut":6486,"known":6487,"haircut":6488,"marketplace":6489,"queen":6490,"buried":6491,"CHING":6492,"BOW":6493,"hift":6494,"umption":6495,"residence":6496,"noodle":6497,"TAKING":6498,"consumption":6499,"tossed":6500,"attended":6501,"film":6502,"levels":6503,"tatto":6504,"pencil":6505,"BIKE":6506,"bulldog":6507,"daisies":6508,"calculator":6509,"TRUCK":6510,"MIRROR":6511,"mosaic":6512,"AY":6513,"BIG":6514,"COW":6515,"Gr":6516,"Halloween":6517,"PER":6518,"Row":6519,"San":6520,"Sail":6521,"cif":6522,"dding":6523,"vd":6524,"wedge":6525,"zo":6526,"ener":6527,"omas":6528,"chment":6529,"taco":6530,"skat":6531,"sell":6532,"downward":6533,"unders":6534,"pokes":6535,"antic":6536,"elev":6537,"overlook":6538,"lapping":6539,"sesame":6540,"diaper":6541,"diagon":6542,"linen":6543,"agie":6544,"slanted":6545,"INSIDE":6546,"broth":6547,"Somebody":6548,"prov":6549,"barge":6550,"bridle":6551,"spewing":6552,"flowering":6553,"China":6554,"patri":6555,"fleet":6556,"substance":6557,"crab":6558,"bloss":6559,"clothed":6560,"vertical":6561,"support":6562,"nasty":6563,"exter":6564,"makeshift":6565,"zens":6566,"depicted":6567,"cushions":6568,"filthy":6569,"Dozens":6570,"needle":6571,"trimmed":6572,"carefully":6573,"peacefully":6574,"destroy":6575,"western":6576,"blooming":6577,"biscuits":6578,"croissant":6579,"FLOOR":6580,"Single":6581,"Public":6582,"00":6583,"Dough":6584,"GU":6585,"Gra":6586,"dairy":6587,"esta":6588,"plo":6589,"pend":6590,"tone":6591,"yummy":6592,"instead":6593,"enough":6594,"hoagie":6595,"peaches":6596,"layed":6597,"boarded":6598,"snowing":6599,"goof":6600,"fences":6601,"trans":6602,"proce":6603,"panora":6604,"worked":6605,"shack":6606,"squats":6607,"Boat":6608,"grilling":6609,"housing":6610,"product":6611,"HOT":6612,"leashes":6613,"charger":6614,"customer":6615,"ratul":6616,"blazer":6617,"Army":6618,"glider":6619,"cables":6620,"snuggled":6621,"channel":6622,"supermarket":6623,"Hands":6624,"camel":6625,"crocheted":6626,"stockings":6627,"BROWN":6628,"Umbrella":6629,"COMPUTER":6630,"establ":6631,"King":6632,"Main":6633,"bbling":6634,"mber":6635,"nine":6636,"oy":6637,"ports":6638,"rally":6639,"som":6640,"era":6641,"itting":6642,"root":6643,"stro":6644,"chinese":6645,"laden":6646,"lob":6647,"beautifully":6648,"hore":6649,"hockey":6650,"peaking":6651,"bathe":6652,"moto":6653,"cave":6654,"casting":6655,"hash":6656,"overturned":6657,"demo":6658,"year":6659,"stoves":6660,"headlights":6661,"headband":6662,"presid":6663,"viewer":6664,"sidewalks":6665,"spon":6666,"proud":6667,"mates":6668,"household":6669,"bark":6670,"barber":6671,"landsca":6672,"stylized":6673,"speaks":6674,"salt":6675,"patrol":6676,"median":6677,"iously":6678,"SEVER":6679,"TAIN":6680,"SUIT":6681,"cently":6682,"weathered":6683,"coaster":6684,"Building":6685,"oxen":6686,"flavors":6687,"SKATEBOARD":6688,"combing":6689,"iPhone":6690,"rapids":6691,"nuzzling":6692,"quarters":6693,"GOING":6694,"instructor":6695,"lanter":6696,"yacht":6697,"STUFF":6698,"LITTLE":6699,"FRISBEE":6700,"structures":6701,"architectural":6702,"wildebee":6703,"destroyed":6704,"SEVERAL":6705,"Bread":6706,"Broadway":6707,"Dirt":6708,"Hu":6709,"Nor":6710,"NER":6711,"Sam":6712,"Te":6713,"Vic":6714,"aboard":6715,"cers":6716,"dun":6717,"fto":6718,"hirt":6719,"mal":6720,"nas":6721,"sigh":6722,"sorts":6723,"tit":6724,"inning":6725,"ret":6726,"took":6727,"alpine":6728,"irts":6729,"loves":6730,"woven":6731,"host":6732,"plun":6733,"ffice":6734,"rier":6735,"signing":6736,"tell":6737,"motorboat":6738,"angles":6739,"prey":6740,"taller":6741,"arium":6742,"highchair":6743,"Front":6744,"halfway":6745,"stylish":6746,"lamppost":6747,"access":6748,"captive":6749,"Ski":6750,"hamburgers":6751,"teens":6752,"resident":6753,"teapot":6754,"BABY":6755,"consum":6756,"studying":6757,"wander":6758,"sleeve":6759,"Photograph":6760,"political":6761,"assemb":6762,"ornamental":6763,"lunging":6764,"Starbucks":6765,"activities":6766,"intricate":6767,"columns":6768,"Siamese":6769,"Square":6770,"Doorway":6771,"tattoos":6772,"exterior":6773,"30":6774,"BAT":6775,"East":6776,"Met":6777,"NO":6778,"Ta":6779,"TREE":6780,"VIE":6781,"aves":6782,"broad":6783,"hides":6784,"mage":6785,"nia":6786,"rd":6787,"sive":6788,"those":6789,"isted":6790,"stages":6791,"almat":6792,"alia":6793,"las":6794,"coated":6795,"wai":6796,"fol":6797,"pauses":6798,"amel":6799,"constructed":6800,"contact":6801,"ggling":6802,"IND":6803,"vender":6804,"tips":6805,"nook":6806,"certain":6807,"expired":6808,"styles":6809,"salsa":6810,"forehead":6811,"controlled":6812,"docking":6813,"ROAD":6814,"cranes":6815,"OUSE":6816,"mitts":6817,"Well":6818,"groomed":6819,"turtle":6820,"tosses":6821,"receive":6822,"CARS":6823,"affection":6824,"gesture":6825,"twent":6826,"athletes":6827,"horizont":6828,"Bicycles":6829,"huahua":6830,"wooly":6831,"hurdle":6832,"Interior":6833,"pantry":6834,"pelican":6835,"shooting":6836,"Oriental":6837,"murky":6838,"England":6839,"burrito":6840,"patriotic":6841,"almatian":6842,"18":6843,"Cats":6844,"Cute":6845,"Cake":6846,"DVD":6847,"His":6848,"Hel":6849,"Mountain":6850,"Nice":6851,"OCE":6852,"Players":6853,"RV":6854,"Roman":6855,"SING":6856,"Those":6857,"Tables":6858,"diced":6859,"native":6860,"oat":6861,"orous":6862,"pong":6863,"repl":6864,"races":6865,"pleas":6866,"taste":6867,"unused":6868,"sepia":6869,"shark":6870,"pood":6871,"fornia":6872,"loose":6873,"paying":6874,"Ange":6875,"backseat":6876,"plank":6877,"toilette":6878,"brass":6879,"fireman":6880,"diffic":6881,"crowds":6882,"protru":6883,"mats":6884,"paneling":6885,"hello":6886,"salads":6887,"OFF":6888,"observe":6889,"sauer":6890,"spapers":6891,"swift":6892,"pretze":6893,"wrong":6894,"interstate":6895,"hammock":6896,"lender":6897,"strap":6898,"Airport":6899,"boulders":6900,"handlebars":6901,"frisby":6902,"TRACKS":6903,"cheeses":6904,"Busy":6905,"fryer":6906,"Sandwiches":6907,"hearts":6908,"curiously":6909,"contraption":6910,"maneuver":6911,"perfect":6912,"Bedroom":6913,"Electronic":6914,"aquarium":6915,"Statue":6916,"recreational":6917,"BOWL":6918,"elevator":6919,"assembly":6920,"OCEAN":6921,"Bas":6922,"Fla":6923,"LF":6924,"LY":6925,"President":6926,"Suit":6927,"Vase":6928,"bases":6929,"dangling":6930,"gathers":6931,"hound":6932,"knot":6933,"pum":6934,"vas":6935,"wrought":6936,"ona":6937,"arts":6938,"lefto":6939,"robes":6940,"boiled":6941,"iddle":6942,"standup":6943,"pective":6944,"icer":6945,"bust":6946,"doctor":6947,"wavy":6948,"mos":6949,"rowboat":6950,"mens":6951,"blueberry":6952,"tory":6953,"opard":6954,"clocktower":6955,"mainten":6956,"throughout":6957,"crop":6958,"quaint":6959,"bows":6960,"column":6961,"INE":6962,"checked":6963,"bring":6964,"sung":6965,"spreading":6966,"brushed":6967,"sleepy":6968,"surroundings":6969,"jured":6970,"greet":6971,"modified":6972,"auty":6973,"welve":6974,"trailers":6975,"crazy":6976,"gloomy":6977,"butcher":6978,"IRT":6979,"misses":6980,"Skateboarders":6981,"Tooth":6982,"ribbons":6983,"fairly":6984,"maintain":6985,"arrive":6986,"League":6987,"SOMETHING":6988,"divider":6989,"assembled":6990,"demonstration":6991,"MOTORCYCLE":6992,"employee":6993,"investigating":6994,"Pieces":6995,"animated":6996,"Seagulls":6997,"underside":6998,"plunger":6999,"maintenance":7000,"Cut":7001,"Cali":7002,"Mini":7003,"Navy":7004,"PC":7005,"Que":7006,"RUN":7007,"VES":7008,"award":7009,"bon":7010,"ize":7011,"tions":7012,"trotting":7013,"inal":7014,"ann":7015,"arching":7016,"lev":7017,"leopard":7018,"wil":7019,"dol":7020,"playfully":7021,"ami":7022,"amen":7023,"tends":7024,"combo":7025,"backside":7026,"teach":7027,"depar":7028,"perfor":7029,"okia":7030,"billow":7031,"THEIR":7032,"steal":7033,"rounded":7034,"whose":7035,"suc":7036,"meatball":7037,"graphic":7038,"WICH":7039,"minimal":7040,"paddock":7041,"cris":7042,"Asia":7043,"ceilings":7044,"BOOK":7045,"stract":7046,"models":7047,"lifeguard":7048,"stalks":7049,"streamers":7050,"glaze":7051,"eyeglasses":7052,"tongs":7053,"dale":7054,"patterns":7055,"prints":7056,"operated":7057,"learn":7058,"blade":7059,"kayaks":7060,"COMING":7061,"COLO":7062,"bordered":7063,"crumbs":7064,"lunges":7065,"employees":7066,"Amtrak":7067,"wrestling":7068,"graduation":7069,"Claus":7070,"SANDWICH":7071,"Outdoor":7072,"condition":7073,"appetizers":7074,"community":7075,"magnet":7076,"VIEW":7077,"poodle":7078,"difficult":7079,"sauerkraut":7080,"California":7081,"Bowls":7082,"CON":7083,"Farm":7084,"Fish":7085,"Ham":7086,"Image":7087,"Mer":7088,"Res":7089,"Sw":7090,"Shot":7091,"STO":7092,"bits":7093,"cc":7094,"cant":7095,"emo":7096,"gall":7097,"jection":7098,"scou":7099,"sund":7100,"vines":7101,"via":7102,"injured":7103,"recently":7104,"stroll":7105,"cha":7106,"launch":7107,"etted":7108,"mance":7109,"wheat":7110,"beauty":7111,"peer":7112,"peels":7113,"unoccupied":7114,"unknown":7115,"height":7116,"skele":7117,"skew":7118,"bake":7119,"perspective":7120,"anticip":7121,"cape":7122,"cabs":7123,"outdated":7124,"gifts":7125,"feast":7126,"del":7127,"shepherd":7128,"brownies":7129,"conven":7130,"hitched":7131,"novel":7132,"nolog":7133,"boxed":7134,"visor":7135,"lighter":7136,"leafle":7137,"nightstands":7138,"canvas":7139,"pitches":7140,"outhouse":7141,"gau":7142,"juicer":7143,"ATV":7144,"triangle":7145,"jestic":7146,"blank":7147,"staff":7148,"states":7149,"partit":7150,"bushy":7151,"TOWER":7152,"arring":7153,"newspapers":7154,"sweep":7155,"OUTS":7156,"starts":7157,"laughs":7158,"fixed":7159,"Snowboarders":7160,"India":7161,"twig":7162,"SOMEONE":7163,"foamy":7164,"Desk":7165,"discussing":7166,"squee":7167,"mechanical":7168,"BANAN":7169,"McDon":7170,"VEGETABLES":7171,"Pitcher":7172,"establishment":7173,"Victori":7174,"replica":7175,"performance":7176,"leafless":7177,"BM":7178,"Ce":7179,"Elderly":7180,"Father":7181,"Kid":7182,"Kreme":7183,"Vol":7184,"WOR":7185,"ah":7186,"bing":7187,"gle":7188,"ience":7189,"nets":7190,"zom":7191,"think":7192,"respe":7193,"isco":7194,"strain":7195,"oring":7196,"igious":7197,"icular":7198,"airliners":7199,"coupe":7200,"tens":7201,"pops":7202,"caramel":7203,"parks":7204,"lizard":7205,"packet":7206,"common":7207,"overalls":7208,"desc":7209,"fellow":7210,"feather":7211,"shears":7212,"boating":7213,"batch":7214,"quil":7215,"scent":7216,"rundown":7217,"cellaneous":7218,"shovel":7219,"THRO":7220,"Something":7221,"projection":7222,"herds":7223,"contem":7224,"panting":7225,"abund":7226,"cheeseburger":7227,"meatballs":7228,"microphones":7229,"styrofoam":7230,"prof":7231,"welcome":7232,"obsc":7233,"planted":7234,"newborn":7235,"bitten":7236,"feature":7237,"AREA":7238,"crying":7239,"blown":7240,"cycling":7241,"propellor":7242,"allowed":7243,"States":7244,"ironing":7245,"alleyway":7246,"groceries":7247,"AIRPLANE":7248,"companion":7249,"recipe":7250,"keeper":7251,"CLOSE":7252,"twigs":7253,"COUPLE":7254,"Chef":7255,"Cheese":7256,"labels":7257,"region":7258,"PLAYER":7259,"Hotel":7260,"technolog":7261,"Market":7262,"congratul":7263,"navig":7264,"wreath":7265,"converted":7266,"hours":7267,"UGH":7268,"ripened":7269,"chatting":7270,"flanked":7271,"memorial":7272,"spiral":7273,"trophy":7274,"jewelry":7275,"oatmeal":7276,"Austr":7277,"Bot":7278,"Cu":7279,"Chic":7280,"Dri":7281,"Dinner":7282,"DAY":7283,"KS":7284,"Krispy":7285,"PT":7286,"Sto":7287,"Smo":7288,"TI":7289,"TRE":7290,"TED":7291,"Ur":7292,"VA":7293,"What":7294,"Wine":7295,"WALL":7296,"YARD":7297,"bound":7298,"floo":7299,"gig":7300,"oar":7301,"pound":7302,"vice":7303,"vidu":7304,"invol":7305,"thers":7306,"arches":7307,"resc":7308,"repairs":7309,"stit":7310,"last":7311,"bored":7312,"beads":7313,"unks":7314,"seper":7315,"atee":7316,"pared":7317,"streetlights":7318,"coaches":7319,"tend":7320,"forrest":7321,"pular":7322,"zzled":7323,"tem":7324,"couples":7325,"ently":7326,"livingroom":7327,"soars":7328,"spraw":7329,"program":7330,"cuddle":7331,"curls":7332,"ANTS":7333,"ips":7334,"pancake":7335,"least":7336,"ians":7337,"ishes":7338,"juven":7339,"husky":7340,"helmeted":7341,"submarine":7342,"acts":7343,"direct":7344,"grate":7345,"swir":7346,"curbside":7347,"centerpiece":7348,"freely":7349,"nails":7350,"discs":7351,"ORAN":7352,"Station":7353,"rearview":7354,"pineapples":7355,"pressed":7356,"burned":7357,"scrambled":7358,"pensive":7359,"cottage":7360,"roasting":7361,"Individu":7362,"peaceful":7363,"tricycle":7364,"COUCH":7365,"eager":7366,"navigating":7367,"revealing":7368,"releasing":7369,"participating":7370,"effe":7371,"Corner":7372,"FedEx":7373,"Golden":7374,"goofy":7375,"twenty":7376,"swiftly":7377,"Basket":7378,"OUTSIDE":7379,"Chicago":7380,"floored":7381,"Ca":7382,"FLOW":7383,"HY":7384,"Mic":7385,"Nokia":7386,"Office":7387,"Rest":7388,"SES":7389,"Time":7390,"cred":7391,"gum":7392,"ran":7393,"wants":7394,"yield":7395,"yawning":7396,"ander":7397,"bearing":7398,"urious":7399,"seal":7400,"iel":7401,"playful":7402,"parlor":7403,"cob":7404,"ams":7405,"flour":7406,"pilots":7407,"antly":7408,"bedside":7409,"fest":7410,"uters":7411,"utter":7412,"shearing":7413,"majestic":7414,"banners":7415,"coral":7416,"Thomas":7417,"scri":7418,"lydes":7419,"facial":7420,"agle":7421,"looked":7422,"slal":7423,"saur":7424,"sunflower":7425,"tible":7426,"stovetop":7427,"canned":7428,"surrounds":7429,"fours":7430,"exha":7431,"packaging":7432,"wedges":7433,"sweets":7434,"flipped":7435,"waterski":7436,"drops":7437,"celebratory":7438,"buliding":7439,"messing":7440,"indicate":7441,"booths":7442,"saddled":7443,"quiche":7444,"OUNTAIN":7445,"awk":7446,"beaks":7447,"WATCHING":7448,"bison":7449,"gestures":7450,"barbeque":7451,"SURFING":7452,"renovation":7453,"retriever":7454,"discussion":7455,"seasoning":7456,"Ducks":7457,"oversized":7458,"Teenag":7459,"varying":7460,"barricade":7461,"details":7462,"almonds":7463,"folks":7464,"Bunch":7465,"Dun":7466,"Every":7467,"Lunch":7468,"OO":7469,"Sty":7470,"Wall":7471,"ease":7472,"gers":7473,"iner":7474,"chunks":7475,"rais":7476,"cky":7477,"irie":7478,"uphill":7479,"unt":7480,"adding":7481,"peoples":7482,"popular":7483,"snowman":7484,"pudding":7485,"imple":7486,"kitchenette":7487,"chihuahua":7488,"oping":7489,"brownie":7490,"aprons":7491,"goth":7492,"goatee":7493,"vessel":7494,"mount":7495,"preforming":7496,"cheek":7497,"sunrise":7498,"memo":7499,"promin":7500,"monk":7501,"raincoat":7502,"abstract":7503,"France":7504,"ickey":7505,"controlling":7506,"expo":7507,"platforms":7508,"directs":7509,"flatbread":7510,"matches":7511,"avids":7512,"rooftop":7513,"arranging":7514,"toddlers":7515,"locations":7516,"fixes":7517,"bbles":7518,"parasols":7519,"pinned":7520,"tusked":7521,"CELL":7522,"Stud":7523,"seasoned":7524,"repairing":7525,"CHILDREN":7526,"activity":7527,"croissants":7528,"CTION":7529,"coconut":7530,"diagonal":7531,"GUY":7532,"Umbrellas":7533,"horizontal":7534,"rescue":7535,"Micro":7536,"avidson":7537,"CUT":7538,"Few":7539,"LAND":7540,"Ne":7541,"Pat":7542,"Span":7543,"ae":7544,"blu":7545,"glar":7546,"gummy":7547,"lt":7548,"tas":7549,"wis":7550,"ances":7551,"ancy":7552,"erie":7553,"arti":7554,"roped":7555,"lazy":7556,"mantel":7557,"whine":7558,"skirts":7559,"ieval":7560,"bud":7561,"shrub":7562,"pher":7563,"ruler":7564,"given":7565,"tors":7566,"glassware":7567,"childs":7568,"handling":7569,"handler":7570,"mp3":7571,"rung":7572,"offers":7573,"kiteboard":7574,"tipped":7575,"vish":7576,"dino":7577,"tanks":7578,"ATION":7579,"hairdryer":7580,"workspace":7581,"LED":7582,"forehand":7583,"crash":7584,"pointy":7585,"grano":7586,"mason":7587,"masks":7588,"transp":7589,"LAYING":7590,"LADY":7591,"Boston":7592,"license":7593,"hamster":7594,"OUR":7595,"costumed":7596,"dolly":7597,"dollar":7598,"cruising":7599,"denim":7600,"ORT":7601,"related":7602,"religious":7603,"celebrate":7604,"USA":7605,"Benches":7606,"century":7607,"Pictures":7608,"sprayed":7609,"dumpster":7610,"bundt":7611,"sneaker":7612,"needles":7613,"tightly":7614,"cockpit":7615,"attraction":7616,"stately":7617,"SIGNS":7618,"Tower":7619,"Holly":7620,"ancisco":7621,"convertible":7622,"beams":7623,"Boxes":7624,"luxury":7625,"Sub":7626,"vibr":7627,"wonderful":7628,"Window":7629,"defensive":7630,"Pasta":7631,"frowning":7632,"Doughnuts":7633,"Suitcases":7634,"skeleton":7635,"TREES":7636,"VASE":7637,"juvenile":7638,"slalom":7639,"granola":7640,"Bra":7641,"CER":7642,"FA":7643,"Nine":7644,"PRO":7645,"SO":7646,"Sou":7647,"Tray":7648,"TALL":7649,"Virgin":7650,"await":7651,"dre":7652,"date":7653,"fes":7654,"fern":7655,"fif":7656,"grid":7657,"galley":7658,"ith":7659,"mow":7660,"nch":7661,"nie":7662,"nick":7663,"norm":7664,"pins":7665,"sen":7666,"sion":7667,"tones":7668,"vor":7669,"yak":7670,"lavender":7671,"iders":7672,"mani":7673,"locks":7674,"blem":7675,"advan":7676,"doily":7677,"tshirt":7678,"ilia":7679,"movies":7680,"capit":7681,"torted":7682,"tells":7683,"disgu":7684,"ulated":7685,"icebox":7686,"crooked":7687,"dives":7688,"eachother":7689,"scrub":7690,"sales":7691,"plating":7692,"velvet":7693,"cuto":7694,"Francisco":7695,"barb":7696,"choo":7697,"purses":7698,"photographing":7699,"halfpipe":7700,"better":7701,"tripod":7702,"triangular":7703,"hugs":7704,"minutes":7705,"cracker":7706,"wildflowers":7707,"swimmers":7708,"ifying":7709,"straigh":7710,"ferris":7711,"nowhere":7712,"leafs":7713,"gnar":7714,"iffel":7715,"Kitty":7716,"Motorcyclists":7717,"filming":7718,"KEPT":7719,"bundles":7720,"ILL":7721,"peanuts":7722,"parachutes":7723,"knitting":7724,"score":7725,"silhouetted":7726,"Construction":7727,"automobiles":7728,"Desser":7729,"socializing":7730,"symbols":7731,"browsing":7732,"Harley":7733,"mouses":7734,"drums":7735,"spanning":7736,"duffel":7737,"switch":7738,"Hawai":7739,"ANIMALS":7740,"demolish":7741,"Samsung":7742,"Queen":7743,"Spanish":7744,"dinosaur":7745,"normal":7746,"Coffee":7747,"COUN":7748,"Kite":7749,"Line":7750,"ME":7751,"Middle":7752,"MOUNTAIN":7753,"NING":7754,"Sl":7755,"School":7756,"TAL":7757,"VW":7758,"Wal":7759,"casing":7760,"punch":7761,"rared":7762,"wrench":7763,"anten":7764,"rocket":7765,"starring":7766,"lavish":7767,"lded":7768,"orium":7769,"manic":7770,"pless":7771,"whom":7772,"peo":7773,"versity":7774,"searching":7775,"grows":7776,"ripped":7777,"smok":7778,"umber":7779,"undy":7780,"wag":7781,"waking":7782,"basement":7783,"pub":7784,"bedded":7785,"testing":7786,"bento":7787,"deal":7788,"handstand":7789,"handmade":7790,"battle":7791,"banks":7792,"headset":7793,"angel":7794,"soil":7795,"hatch":7796,"REST":7797,"dingy":7798,"racers":7799,"cannot":7800,"interse":7801,"numbered":7802,"exe":7803,"shakes":7804,"penny":7805,"spec":7806,"cleaner":7807,"loads":7808,"version":7809,"wraps":7810,"medieval":7811,"END":7812,"messages":7813,"rugby":7814,"audit":7815,"prairie":7816,"misty":7817,"miscellaneous":7818,"sodas":7819,"Planes":7820,"siamese":7821,"duckling":7822,"Guys":7823,"attentive":7824,"melons":7825,"WHILE":7826,"ordered":7827,"ADE":7828,"PARKING":7829,"ension":7830,"Ford":7831,"Orn":7832,"burgundy":7833,"gazebo":7834,"facade":7835,"WINE":7836,"iPod":7837,"current":7838,"sampling":7839,"Trucks":7840,"mannequins":7841,"DRANT":7842,"SHEEP":7843,"receiving":7844,"dangerous":7845,"Clutter":7846,"amenities":7847,"Victorian":7848,"gigantic":7849,"sprawled":7850,"festive":7851,"lydesdale":7852,"Dunkin":7853,"transported":7854,"demolished":7855,"auditorium":7856,"Action":7857,"Cap":7858,"DOU":7859,"Down":7860,"GA":7861,"HA":7862,"LIGHT":7863,"Part":7864,"Rain":7865,"Shel":7866,"TY":7867,"Tree":7868,"Top":7869,"ailed":7870,"ien":7871,"iphone":7872,"mbling":7873,"olding":7874,"sate":7875,"twelve":7876,"uting":7877,"wades":7878,"inos":7879,"ony":7880,"onward":7881,"arid":7882,"tots":7883,"toli":7884,"envelo":7885,"ala":7886,"always":7887,"chases":7888,"chased":7889,"raz":7890,"laces":7891,"irtless":7892,"holic":7893,"upscale":7894,"pecking":7895,"skim":7896,"buoy":7897,"womans":7898,"gras":7899,"coca":7900,"terrier":7901,"sidelines":7902,"smen":7903,"amph":7904,"compon":7905,"overview":7906,"detour":7907,"chip":7908,"dispens":7909,"handrail":7910,"scru":7911,"agna":7912,"hilltop":7913,"stationed":7914,"member":7915,"olate":7916,"donkeys":7917,"READ":7918,"contin":7919,"potty":7920,"diners":7921,"purchase":7922,"petted":7923,"experi":7924,"speckled":7925,"jean":7926,"Church":7927,"observes":7928,"planters":7929,"flys":7930,"sailors":7931,"globe":7932,"breaks":7933,"swimsuit":7934,"medal":7935,"lids":7936,"cran":7937,"carded":7938,"naps":7939,"charter":7940,"USH":7941,"Only":7942,"plug":7943,"guards":7944,"ordering":7945,"circles":7946,"mattresses":7947,"obstacles":7948,"Pots":7949,"casually":7950,"Freshly":7951,"alcoholic":7952,"clustered":7953,"CASE":7954,"HERE":7955,"limbs":7956,"ostriches":7957,"nibbling":7958,"grasslands":7959,"Shirtless":7960,"Display":7961,"rooster":7962,"marshmall":7963,"APPLE":7964,"aiming":7965,"missed":7966,"bruss":7967,"Decorative":7968,"ordinary":7969,"proceed":7970,"president":7971,"Dirty":7972,"loveseat":7973,"announ":7974,"profile":7975,"credit":7976,"gothic":7977,"Shelves":7978,"Au":7979,"Both":7980,"BUN":7981,"CUP":7982,"House":7983,"HIM":7984,"KES":7985,"PS":7986,"Pre":7987,"Rd":7988,"Sox":7989,"Tele":7990,"Twin":7991,"Todd":7992,"aero":7993,"bout":7994,"effic":7995,"fired":7996,"hig":7997,"munching":7998,"nes":7999,"sley":8000,"tons":8001,"tater":8002,"inse":8003,"arth":8004,"reign":8005,"toll":8006,"ism":8007,"ishe":8008,"edible":8009,"laz":8010,"ckling":8011,"orig":8012,"etc":8013,"looms":8014,"tingu":8015,"build":8016,"parsley":8017,"ffolding":8018,"somebody":8019,"ribs":8020,"poo":8021,"poll":8022,"puffy":8023,"eatery":8024,"zzi":8025,"sings":8026,"concept":8027,"illustr":8028,"diet":8029,"goog":8030,"stock":8031,"plac":8032,"Sepia":8033,"slat":8034,"rent":8035,"guides":8036,"visiting":8037,"RES":8038,"cuzzi":8039,"rains":8040,"petals":8041,"dering":8042,"profess":8043,"LES":8044,"patches":8045,"tomatic":8046,"minton":8047,"stairwell":8048,"ALONG":8049,"baker":8050,"stered":8051,"freez":8052,"seaweed":8053,"ETS":8054,"sprinkle":8055,"booze":8056,"snake":8057,"celebrates":8058,"ditch":8059,"melting":8060,"cliffs":8061,"Love":8062,"hips":8063,"friendly":8064,"shutters":8065,"linked":8066,"trimming":8067,"arrives":8068,"autograph":8069,"badminton":8070,"pigs":8071,"inspects":8072,"Silhou":8073,"source":8074,"concerned":8075,"woolly":8076,"royal":8077,"Bike":8078,"Electric":8079,"luxurious":8080,"GLASSES":8081,"intensely":8082,"Travel":8083,"Cupcakes":8084,"exercise":8085,"wildebeest":8086,"maintained":8087,"teacher":8088,"success":8089,"McDonald":8090,"technology":8091,"HYDRANT":8092,"waterskiing":8093,"awkward":8094,"Hollywood":8095,"wagons":8096,"satell":8097,"toliet":8098,"isheye":8099,"13":8100,"5th":8101,"Ara":8102,"CES":8103,"Davidson":8104,"Egg":8105,"FOUR":8106,"HIND":8107,"Mu":8108,"Mouse":8109,"NY":8110,"Pal":8111,"PIE":8112,"SA":8113,"Tom":8114,"Town":8115,"Vases":8116,"ZING":8117,"ave":8118,"dalmatian":8119,"gir":8120,"gain":8121,"jal":8122,"kha":8123,"pm":8124,"turban":8125,"tHERE":8126,"yed":8127,"zones":8128,"infield":8129,"armo":8130,"isn":8131,"isine":8132,"rom":8133,"witha":8134,"strolling":8135,"alter":8136,"launching":8137,"esus":8138,"beagle":8139,"holing":8140,"peep":8141,"ards":8142,"unident":8143,"adm":8144,"seclu":8145,"ode":8146,"parat":8147,"grains":8148,"Their":8149,"focal":8150,"moved":8151,"picket":8152,"pus":8153,"desolate":8154,"discarded":8155,"sheared":8156,"sands":8157,"fireworks":8158,"dips":8159,"scre":8160,"shoot":8161,"looker":8162,"slats":8163,"cheer":8164,"sloped":8165,"spilled":8166,"rushing":8167,"THEM":8168,"rounds":8169,"panels":8170,"homeless":8171,"riverbank":8172,"ively":8173,"restaurants":8174,"dude":8175,"creative":8176,"placemat":8177,"istine":8178,"pristine":8179,"crashed":8180,"crashes":8181,"mingly":8182,"sailor":8183,"curtained":8184,"creamy":8185,"CHE":8186,"blenders":8187,"fitted":8188,"ivy":8189,"automatic":8190,"palace":8191,"steaming":8192,"BEHIND":8193,"Most":8194,"ORS":8195,"State":8196,"silo":8197,"boulder":8198,"embedded":8199,"protect":8200,"Rock":8201,"tinfoil":8202,"TUB":8203,"suspend":8204,"cotton":8205,"billboards":8206,"receip":8207,"seaside":8208,"keeping":8209,"altitude":8210,"HEAD":8211,"pockets":8212,"tissues":8213,"youths":8214,"rabilia":8215,"combined":8216,"tilting":8217,"ELEPHANTS":8218,"perfectly":8219,"plums":8220,"aqua":8221,"bubbles":8222,"sipping":8223,"bushels":8224,"CROSS":8225,"SLOPE":8226,"panoramic":8227,"lobster":8228,"proudly":8229,"landscaping":8230,"Hello":8231,"protruding":8232,"departing":8233,"BMW":8234,"abundance":8235,"temple":8236,"Restaur":8237,"memorabilia":8238,"vibrant":8239,"Hawaiian":8240,"Ath":8241,"Bag":8242,"Bridge":8243,"Chair":8244,"DRI":8245,"Eiffel":8246,"Fans":8247,"FEN":8248,"Fancy":8249,"Her":8250,"HAT":8251,"KITE":8252,"Pen":8253,"Pac":8254,"PES":8255,"SP":8256,"Steam":8257,"Tri":8258,"UST":8259,"did":8260,"ike":8261,"lun":8262,"song":8263,"uneat":8264,"wan":8265,"infront":8266,"install":8267,"thi":8268,"regate":8269,"topless":8270,"stab":8271,"oming":8272,"outs":8273,"lost":8274,"beets":8275,"igan":8276,"pews":8277,"unattended":8278,"heating":8279,"tender":8280,"cation":8281,"lick":8282,"pace":8283,"pawing":8284,"surfa":8285,"outlet":8286,"giene":8287,"plans":8288,"skill":8289,"feild":8290,"dispo":8291,"picturesque":8292,"trench":8293,"handheld":8294,"apen":8295,"appointed":8296,"apparent":8297,"apparat":8298,"dia":8299,"countries":8300,"offering":8301,"oks":8302,"coln":8303,"Sea":8304,"elbow":8305,"english":8306,"spending":8307,"berty":8308,"cuddled":8309,"barking":8310,"jetliners":8311,"cedes":8312,"creature":8313,"jack":8314,"based":8315,"juggling":8316,"usband":8317,"workshop":8318,"join":8319,"cooker":8320,"sticky":8321,"ernal":8322,"saucers":8323,"ITING":8324,"german":8325,"seemingly":8326,"strand":8327,"gripping":8328,"Personal":8329,"Closed":8330,"shipping":8331,"drawings":8332,"iosk":8333,"antiques":8334,"external":8335,"formations":8336,"collie":8337,"guitars":8338,"notebooks":8339,"yclists":8340,"gazes":8341,"converse":8342,"sprays":8343,"serviced":8344,"warmly":8345,"FRU":8346,"faucets":8347,"interested":8348,"keeps":8349,"cocktail":8350,"lipstick":8351,"BUSY":8352,"bloody":8353,"POSING":8354,"PASS":8355,"LIKE":8356,"amazing":8357,"HORSES":8358,"Delic":8359,"mailbox":8360,"congregate":8361,"nuzzle":8362,"reveals":8363,"bandanna":8364,"BRIGHT":8365,"investig":8366,"pelicans":8367,"chalkboard":8368,"FULL":8369,"concentrating":8370,"North":8371,"lasagna":8372,"pleasant":8373,"levard":8374,"partition":8375,"Cell":8376,"raisins":8377,"Cluttered":8378,"razor":8379,"Toddler":8380,"reigns":8381,"secluded":8382,"uneaten":8383,"Cal":8384,"CAN":8385,"Center":8386,"Fer":8387,"Grand":8388,"Lin":8389,"LONG":8390,"PU":8391,"Per":8392,"Ret":8393,"Sleep":8394,"TIE":8395,"aver":8396,"acro":8397,"cd":8398,"cities":8399,"cider":8400,"deter":8401,"dental":8402,"fas":8403,"kiosk":8404,"lled":8405,"nude":8406,"ppy":8407,"slender":8408,"went":8409,"wade":8410,"thora":8411,"onlooker":8412,"restored":8413,"ror":8414,"strung":8415,"charm":8416,"lapel":8417,"ord":8418,"boar":8419,"plethora":8420,"unopened":8421,"heat":8422,"ader":8423,"sequ":8424,"moose":8425,"motif":8426,"teh":8427,"ght":8428,"walker":8429,"years":8430,"peroni":8431,"days":8432,"colt":8433,"favor":8434,"study":8435,"tial":8436,"stuffs":8437,"guided":8438,"leaking":8439,"canes":8440,"creating":8441,"jail":8442,"jacuzzi":8443,"armchair":8444,"battery":8445,"batteries":8446,"extingu":8447,"breaded":8448,"joy":8449,"attachment":8450,"scenes":8451,"artist":8452,"balding":8453,"crack":8454,"crafting":8455,"families":8456,"spotless":8457,"takeout":8458,"centered":8459,"Sky":8460,"temporary":8461,"advertises":8462,"chops":8463,"minivan":8464,"happen":8465,"collect":8466,"piercing":8467,"streaming":8468,"turf":8469,"turkeys":8470,"completing":8471,"notepad":8472,"Bench":8473,"glide":8474,"wrappers":8475,"Colle":8476,"collared":8477,"jerseys":8478,"hungry":8479,"copper":8480,"fatig":8481,"possible":8482,"Africa":8483,"remodeling":8484,"hearty":8485,"emerging":8486,"Chopped":8487,"avocados":8488,"fuel":8489,"Bikes":8490,"domed":8491,"Monument":8492,"Uniformed":8493,"rumpled":8494,"violin":8495,"gorilla":8496,"gulls":8497,"poorly":8498,"fronts":8499,"goblets":8500,"Grilled":8501,"skaters":8502,"lantern":8503,"pumps":8504,"leftover":8505,"dolph":8506,"billowing":8507,"THROUGH":8508,"Drive":8509,"Smoke":8510,"ORANGE":8511,"eagerly":8512,"FLOWERS":8513,"Teenagers":8514,"exposure":8515,"Subway":8516,"antenna":8517,"ducklings":8518,"Ornate":8519,"dispensers":8520,"profession":8521,"jalapen":8522,"admire":8523,"suspenders":8524,"Restaurant":8525,"favorite":8526,"Av":8527,"BIC":8528,"Even":8529,"EACH":8530,"Gate":8531,"GING":8532,"GES":8533,"Gray":8534,"Ri":8535,"Rice":8536,"Set":8537,"Wind":8538,"binder":8539,"cade":8540,"dic":8541,"eas":8542,"mad":8543,"mul":8544,"pome":8545,"sche":8546,"tiling":8547,"tights":8548,"vig":8549,"wth":8550,"want":8551,"inser":8552,"ana":8553,"atre":8554,"atoes":8555,"lecture":8556,"reco":8557,"wife":8558,"chim":8559,"chute":8560,"ramid":8561,"lav":8562,"escor":8563,"manu":8564,"mangoes":8565,"manual":8566,"aside":8567,"hope":8568,"tale":8569,"tagging":8570,"thermom":8571,"ffle":8572,"streetcar":8573,"heron":8574,"signed":8575,"pavil":8576,"winery":8577,"overflowing":8578,"motorists":8579,"options":8580,"sheering":8581,"brace":8582,"brador":8583,"skylight":8584,"fact":8585,"hygiene":8586,"saw":8587,"dressers":8588,"mature":8589,"strikes":8590,"sug":8591,"created":8592,"ishing":8593,"petit":8594,"spect":8595,"attacking":8596,"flames":8597,"prices":8598,"cyl":8599,"mint":8600,"onda":8601,"verse":8602,"ROUND":8603,"unchu":8604,"earphones":8605,"media":8606,"capture":8607,"avoid":8608,"pepperon":8609,"BOT":8610,"signaling":8611,"nail":8612,"railings":8613,"BEA":8614,"BEING":8615,"wares":8616,"waiter":8617,"ornately":8618,"arrangements":8619,"Coke":8620,"fixings":8621,"muscle":8622,"TRAY":8623,"tuna":8624,"guarding":8625,"parake":8626,"Union":8627,"cigarettes":8628,"coastline":8629,"procession":8630,"shares":8631,"DOGS":8632,"seashore":8633,"GRAZING":8634,"rectangle":8635,"nurse":8636,"antelopes":8637,"detailed":8638,"SHIRT":8639,"appetizing":8640,"demonstrating":8641,"confused":8642,"BRUSH":8643,"peripher":8644,"BACKGROUND":8645,"LAPTOP":8646,"sliver":8647,"mossy":8648,"attendant":8649,"Meal":8650,"orchard":8651,"footed":8652,"CORNER":8653,"Resid":8654,"Volks":8655,"exhaust":8656,"Students":8657,"dreary":8658,"Slice":8659,"marshmallows":8660,"brussel":8661,"placid":8662,"satellite":8663,"Arabic":8664,"apparatus":8665,"pomegran":8666,"25":8667,"40":8668,"60":8669,"Cont":8670,"Clean":8671,"Clydesdale":8672,"Dad":8673,"Day":8674,"Ge":8675,"HN":8676,"KID":8677,"Muse":8678,"Mickey":8679,"Pige":8680,"Sink":8681,"Scot":8682,"Sitting":8683,"Ter":8684,"VEN":8685,"brun":8686,"dant":8687,"dvd":8688,"evil":8689,"fy":8690,"fisheye":8691,"hedges":8692,"husband":8693,"jun":8694,"nun":8695,"oars":8696,"scro":8697,"uary":8698,"ys":8699,"inv":8700,"once":8701,"onna":8702,"remodel":8703,"iser":8704,"sten":8705,"stark":8706,"chunk":8707,"lava":8708,"outer":8709,"ckoo":8710,"asc":8711,"gears":8712,"hog":8713,"llie":8714,"uristic":8715,"pliers":8716,"shaker":8717,"iler":8718,"rivers":8719,"redible":8720,"snowmobile":8721,"mop":8722,"reek":8723,"paired":8724,"pacif":8725,"puff":8726,"test":8727,"develo":8728,"confin":8729,"litary":8730,"scallo":8731,"cowboys":8732,"stoop":8733,"dries":8734,"assisting":8735,"cheering":8736,"brings":8737,"differently":8738,"broke":8739,"ario":8740,"Someones":8741,"spider":8742,"crowding":8743,"passage":8744,"passanger":8745,"cuisine":8746,"curl":8747,"stries":8748,"closure":8749,"due":8750,"modest":8751,"exchanging":8752,"shaw":8753,"jogging":8754,"pyramid":8755,"flatscreen":8756,"TOO":8757,"interact":8758,"designated":8759,"windsurfer":8760,"ESS":8761,"netting":8762,"scaffolding":8763,"mitive":8764,"dramat":8765,"straps":8766,"occas":8767,"PLACE":8768,"bought":8769,"checkerboard":8770,"finishes":8771,"Competit":8772,"protesting":8773,"multitude":8774,"connecting":8775,"TRACK":8776,"priva":8777,"primitive":8778,"FFES":8779,"Paris":8780,"adorns":8781,"WAVE":8782,"kayaking":8783,"maybe":8784,"flavor":8785,"knobs":8786,"elaborately":8787,"guns":8788,"Vegetable":8789,"spice":8790,"Brightly":8791,"incredible":8792,"commuters":8793,"Sunlight":8794,"penguins":8795,"sample":8796,"GIRAFFES":8797,"tattooed":8798,"duffle":8799,"Southwest":8800,"Goats":8801,"Plastic":8802,"Plaza":8803,"bomber":8804,"clutching":8805,"provides":8806,"Flag":8807,"Swiss":8808,"quilted":8809,"Bottles":8810,"prominent":8811,"senior":8812,"COUNTER":8813,"TALKING":8814,"manicured":8815,"Television":8816,"lazily":8817,"Silhouette":8818,"FENCE":8819,"fatigues":8820,"scheme":8821,"chimney":8822,"Museum":8823,"privacy":8824,"3D":8825,"4th":8826,"Ala":8827,"Bou":8828,"Bur":8829,"Dr":8830,"DLE":8831,"Fried":8832,"GG":8833,"Gla":8834,"IAN":8835,"Jack":8836,"Lights":8837,"MET":8838,"Not":8839,"Piles":8840,"Round":8841,"Seat":8842,"Trees":8843,"Tran":8844,"UTS":8845,"bones":8846,"dummy":8847,"glue":8848,"gay":8849,"london":8850,"nor":8851,"nunchu":8852,"pard":8853,"pamph":8854,"sin":8855,"slight":8856,"south":8857,"yon":8858,"inals":8859,"erature":8860,"attic":8861,"anding":8862,"toes":8863,"isters":8864,"wid":8865,"align":8866,"omet":8867,"rafts":8868,"irs":8869,"allows":8870,"whale":8871,"beet":8872,"hoses":8873,"tacle":8874,"uncovered":8875,"bale":8876,"veled":8877,"sham":8878,"odils":8879,"coins":8880,"closing":8881,"reddish":8882,"flated":8883,"hero":8884,"caring":8885,"mot":8886,"likes":8887,"pause":8888,"winning":8889,"bathrooms":8890,"dyed":8891,"ctic":8892,"ctuary":8893,"skii":8894,"distorted":8895,"maple":8896,"birdhouse":8897,"bowtie":8898,"sheeps":8899,"INTO":8900,"sloping":8901,"bookcases":8902,"camo":8903,"campus":8904,"traveler":8905,"cubes":8906,"remove":8907,"barred":8908,"chocol":8909,"basins":8910,"photography":8911,"jud":8912,"judge":8913,"flame":8914,"squin":8915,"accent":8916,"wrink":8917,"eggplant":8918,"teammate":8919,"teammates":8920,"clips":8921,"vertically":8922,"CKET":8923,"SELF":8924,"haps":8925,"carpeting":8926,"washes":8927,"casts":8928,"swamp":8929,"lemonade":8930,"DOOR":8931,"dawn":8932,"embank":8933,"rubble":8934,"princess":8935,"peek":8936,"magnifying":8937,"calmly":8938,"End":8939,"filth":8940,"filmed":8941,"reclines":8942,"blading":8943,"usually":8944,"fills":8945,"needed":8946,"projected":8947,"WAVES":8948,"Flower":8949,"Remote":8950,"Blonde":8951,"RFUL":8952,"Parked":8953,"PAPER":8954,"nurses":8955,"vacation":8956,"gesturing":8957,"damage":8958,"thought":8959,"gymnas":8960,"Crowds":8961,"congreg":8962,"whites":8963,"gazelles":8964,"central":8965,"futuristic":8966,"sanctuary":8967,"growth":8968,"orean":8969,"CHAIRS":8970,"Pancakes":8971,"chubby":8972,"Pepsi":8973,"article":8974,"sponge":8975,"COLORFUL":8976,"obscured":8977,"Chefs":8978,"cuddles":8979,"easel":8980,"components":8981,"Eggs":8982,"thicket":8983,"surfaces":8984,"apparently":8985,"Delicious":8986,"Lincoln":8987,"acrobat":8988,"extinguisher":8989,"BICYCLE":8990,"thermometer":8991,"pavilion":8992,"pepperonis":8993,"BEAUT":8994,"Residential":8995,"pacifier":8996,"occasion":8997,"gymnasium":8998,"350":8999,"47":9000,"55":9001,"BAR":9002,"Bears":9003,"Cour":9004,"Cau":9005,"Centr":9006,"Dod":9007,"DIN":9008,"IFUL":9009,"MAR":9010,"MID":9011,"MEAT":9012,"PORT":9013,"Sal":9014,"SLE":9015,"Shop":9016,"Tim":9017,"acam":9018,"broom":9019,"bass":9020,"crush":9021,"clapping":9022,"dying":9023,"filing":9024,"fisher":9025,"gutter":9026,"hn":9027,"hate":9028,"lou":9029,"mam":9030,"pand":9031,"sking":9032,"sick":9033,"sons":9034,"tins":9035,"wer":9036,"onial":9037,"eria":9038,"react":9039,"reacts":9040,"thes":9041,"ented":9042,"alou":9043,"charge":9044,"lago":9045,"ladle":9046,"idling":9047,"manner":9048,"loving":9049,"loaves":9050,"allig":9051,"upcoming":9052,"upstairs":9053,"peaks":9054,"icated":9055,"uncut":9056,"unloaded":9057,"verted":9058,"adds":9059,"additional":9060,"bales":9061,"iest":9062,"frigerator":9063,"grace":9064,"ilts":9065,"closer":9066,"ridor":9067,"lugg":9068,"fox":9069,"reeze":9070,"urely":9071,"calen":9072,"baseballs":9073,"impress":9074,"tled":9075,"depart":9076,"lasso":9077,"crock":9078,"crops":9079,"ays":9080,"underwater":9081,"flops":9082,"floppy":9083,"perching":9084,"surfboarder":9085,"corridor":9086,"diff":9087,"offspring":9088,"drizzled":9089,"blouse":9090,"sack":9091,"lotion":9092,"sock":9093,"solitary":9094,"hanged":9095,"mex":9096,"wineglass":9097,"cling":9098,"cube":9099,"cuckoo":9100,"highly":9101,"barrow":9102,"create":9103,"creme":9104,"pesto":9105,"knifes":9106,"ATING":9107,"hairbrush":9108,"explain":9109,"explo":9110,"merry":9111,"artis":9112,"flashing":9113,"statute":9114,"shoppers":9115,"polished":9116,"intent":9117,"squad":9118,"padded":9119,"lingerie":9120,"servings":9121,"toasting":9122,"captures":9123,"suppor":9124,"ivil":9125,"BOX":9126,"SED":9127,"speedboat":9128,"bulb":9129,"protecting":9130,"organiz":9131,"entertaining":9132,"WOMEN":9133,"Cargo":9134,"coastal":9135,"FRI":9136,"hauls":9137,"Business":9138,"alcove":9139,"SIDEWALK":9140,"Ladies":9141,"mayo":9142,"mayonna":9143,"inspect":9144,"harnessed":9145,"twisted":9146,"plowing":9147,"rapid":9148,"embrace":9149,"retrieving":9150,"remaining":9151,"FEE":9152,"latest":9153,"destinations":9154,"Vehicle":9155,"quarter":9156,"spilling":9157,"flushing":9158,"BIRDS":9159,"legos":9160,"Statues":9161,"appetizer":9162,"Jockey":9163,"resembles":9164,"goblet":9165,"COWS":9166,"blossom":9167,"pretzels":9168,"RUNNING":9169,"crisp":9170,"Mercedes":9171,"delta":9172,"convenience":9173,"zombie":9174,"effect":9175,"Styrofoam":9176,"cutout":9177,"straightening":9178,"Dessert":9179,"aeroplane":9180,"receipt":9181,"Bags":9182,"DRIVING":9183,"Pacific":9184,"fascin":9185,"confined":9186,"chocolates":9187,"embankment":9188,"BEAUTIFUL":9189,"Central":9190,"acamole":9191,"lagoon":9192,"mayonnaise":9193,"3rd":9194,"Aerial":9195,"Bride":9196,"BES":9197,"Class":9198,"CGI":9199,"Darth":9200,"Flock":9201,"HIC":9202,"HOUSE":9203,"Jesus":9204,"LING":9205,"LUG":9206,"MOUSE":9207,"NG":9208,"Native":9209,"Pain":9210,"Stra":9211,"Sold":9212,"SER":9213,"Show":9214,"Will":9215,"Winter":9216,"agg":9217,"ajar":9218,"bil":9219,"dread":9220,"ewe":9221,"eks":9222,"fond":9223,"gap":9224,"ghost":9225,"hil":9226,"ko":9227,"mand":9228,"nd":9229,"nin":9230,"tangled":9231,"vul":9232,"records":9233,"toe":9234,"chow":9235,"lazing":9236,"orders":9237,"etrack":9238,"ida":9239,"mango":9240,"nect":9241,"geous":9242,"hoo":9243,"updated":9244,"peps":9245,"unpaved":9246,"verdant":9247,"bulding":9248,"bucking":9249,"shor":9250,"parchment":9251,"airshow":9252,"grafit":9253,"coordin":9254,"smashed":9255,"walnuts":9256,"ached":9257,"snoo":9258,"ighter":9259,"snowstorm":9260,"lacks":9261,"ford":9262,"forty":9263,"surve":9264,"rowboats":9265,"youngster":9266,"gira":9267,"pizzeria":9268,"breed":9269,"dye":9270,"skiies":9271,"overn":9272,"decent":9273,"grounds":9274,"chicks":9275,"disem":9276,"disorganized":9277,"maid":9278,"appare":9279,"underpass":9280,"coverings":9281,"photoshopped":9282,"firemen":9283,"suited":9284,"cork":9285,"cordless":9286,"scan":9287,"goo":9288,"plash":9289,"mounting":9290,"drift":9291,"dripping":9292,"hydro":9293,"rackett":9294,"chew":9295,"jumper":9296,"tubes":9297,"rendering":9298,"brocco":9299,"longboard":9300,"refriger":9301,"portions":9302,"marin":9303,"march":9304,"tubs":9305,"paints":9306,"dune":9307,"lowers":9308,"lowered":9309,"bridges":9310,"joining":9311,"forklift":9312,"timer":9313,"patty":9314,"reflect":9315,"grated":9316,"grins":9317,"engineer":9318,"quest":9319,"newer":9320,"blended":9321,"touched":9322,"hiker":9323,"straddling":9324,"dollhouse":9325,"swam":9326,"competitor":9327,"butterflies":9328,"daff":9329,"America":9330,"emblem":9331,"crouch":9332,"protected":9333,"organic":9334,"presso":9335,"BOARDS":9336,"BOARDING":9337,"WHE":9338,"hipsters":9339,"VEHIC":9340,"squatted":9341,"ASA":9342,"LOOKS":9343,"WAITING":9344,"selecting":9345,"sweaters":9346,"badge":9347,"textured":9348,"Blvd":9349,"Scene":9350,"measure":9351,"MENT":9352,"description":9353,"pouch":9354,"1950":9355,"samples":9356,"wreck":9357,"rhinos":9358,"citiz":9359,"maneuvers":9360,"spires":9361,"decals":9362,"plumbing":9363,"BIKES":9364,"scooping":9365,"Clause":9366,"Books":9367,"Pastries":9368,"conditions":9369,"generated":9370,"cially":9371,"motorcyle":9372,"bathed":9373,"titled":9374,"bringing":9375,"magnetic":9376,"scout":9377,"Baskets":9378,"Microwave":9379,"glaring":9380,"khaki":9381,"recogn":9382,"lavatory":9383,"KIDS":9384,"width":9385,"pepsi":9386,"apparel":9387,"15":9388,"6th":9389,"Bare":9390,"CR":9391,"Cand":9392,"Card":9393,"Cast":9394,"Clear":9395,"Dire":9396,"DON":9397,"EPING":9398,"Full":9399,"Gri":9400,"HAN":9401,"Hey":9402,"HIT":9403,"Mas":9404,"May":9405,"Mess":9406,"Mich":9407,"Mixed":9408,"MADE":9409,"PINK":9410,"Place":9411,"QU":9412,"Swe":9413,"Stain":9414,"Spr":9415,"SET":9416,"Tex":9417,"Tiny":9418,"UK":9419,"Vader":9420,"Wide":9421,"afr":9422,"avenue":9423,"dut":9424,"eu":9425,"eth":9426,"earr":9427,"gry":9428,"jour":9429,"kk":9430,"lon":9431,"mist":9432,"oats":9433,"ponto":9434,"quit":9435,"sable":9436,"yer":9437,"iners":9438,"tho":9439,"ono":9440,"leis":9441,"ita":9442,"theatre":9443,"isk":9444,"isha":9445,"chess":9446,"rag":9447,"lage":9448,"espresso":9449,"boiling":9450,"irst":9451,"losing":9452,"beast":9453,"begging":9454,"ups":9455,"uphol":9456,"heel":9457,"heated":9458,"heeled":9459,"baord":9460,"plus":9461,"bum":9462,"gross":9463,"rip":9464,"smir":9465,"doggy":9466,"picker":9467,"lim":9468,"signpost":9469,"paign":9470,"foodstuffs":9471,"backward":9472,"describ":9473,"decal":9474,"frolicking":9475,"brake":9476,"pedal":9477,"handful":9478,"appre":9479,"floss":9480,"cellar":9481,"stories":9482,"bunched":9483,"preserve":9484,"forms":9485,"tuck":9486,"solid":9487,"broid":9488,"brother":9489,"hazard":9490,"urns":9491,"monkeys":9492,"matched":9493,"herder":9494,"roundabout":9495,"cust":9496,"decorates":9497,"racetrack":9498,"contained":9499,"sucking":9500,"screened":9501,"moder":9502,"joke":9503,"joined":9504,"speak":9505,"attach":9506,"merch":9507,"humans":9508,"Char":9509,"patties":9510,"fastened":9511,"internet":9512,"STATION":9513,"dders":9514,"CHED":9515,"reflections":9516,"Inters":9517,"grips":9518,"Clocks":9519,"cardinal":9520,"Giant":9521,"mitting":9522,"pallet":9523,"drab":9524,"drags":9525,"vegtables":9526,"hike":9527,"nailed":9528,"stork":9529,"gondo":9530,"Plated":9531,"supply":9532,"dropped":9533,"protection":9534,"Roy":9535,"scary":9536,"scarves":9537,"rollerblading":9538,"backsplash":9539,"kiwis":9540,"tractors":9541,"audio":9542,"hippo":9543,"priate":9544,"scrap":9545,"ADUL":9546,"canopies":9547,"quietly":9548,"cased":9549,"examine":9550,"sleeves":9551,"Refle":9552,"Refrigerator":9553,"scope":9554,"apartments":9555,"shift":9556,"brim":9557,"COL":9558,"Express":9559,"KITES":9560,"excitedly":9561,"Pedestrian":9562,"Towels":9563,"Contain":9564,"Crowded":9565,"squirting":9566,"alike":9567,"gotten":9568,"sanit":9569,"ankle":9570,"seasonings":9571,"Homemade":9572,"Highway":9573,"Olympics":9574,"omelette":9575,"Glasses":9576,"WOODEN":9577,"Service":9578,"victory":9579,"Railroad":9580,"Overhead":9581,"SLOPES":9582,"blossoms":9583,"dunes":9584,"accessible":9585,"Skiier":9586,"orously":9587,"pretzel":9588,"doctors":9589,"wilted":9590,"conditioner":9591,"cantalou":9592,"gallery":9593,"gauges":9594,"sweeping":9595,"strainer":9596,"contemplating":9597,"Australia":9598,"TEDDY":9599,"Everyone":9600,"implements":9601,"ferns":9602,"intersecting":9603,"DOUG":9604,"HAVING":9605,"grasping":9606,"Chairs":9607,"River":9608,"spectator":9609,"BOTTLE":9610,"brunette":9611,"inviting":9612,"Alask":9613,"SLEEPING":9614,"grafitti":9615,"daffodils":9616,"earrings":9617,"describing":9618,"cantaloupe":9619,"70":9620,"Bay":9621,"Bill":9622,"Coun":9623,"CTR":9624,"CCER":9625,"DING":9626,"El":9627,"Free":9628,"Gar":9629,"GAGE":9630,"Hy":9631,"Honda":9632,"Key":9633,"LID":9634,"LINE":9635,"Mom":9636,"MAT":9637,"Ocean":9638,"Odd":9639,"PD":9640,"Play":9641,"So":9642,"Sony":9643,"Vi":9644,"ZOO":9645,"bard":9646,"breeze":9647,"cash":9648,"dwar":9649,"east":9650,"font":9651,"fted":9652,"fthan":9653,"govern":9654,"hide":9655,"japan":9656,"kim":9657,"kale":9658,"lions":9659,"mn":9660,"mim":9661,"mut":9662,"virt":9663,"ata":9664,"ato":9665,"tot":9666,"touring":9667,"wih":9668,"wipes":9669,"stables":9670,"boom":9671,"bodies":9672,"lolli":9673,"geomet":9674,"bead":9675,"tack":9676,"igu":9677,"unhappy":9678,"unpacked":9679,"untidy":9680,"skying":9681,"ssian":9682,"urfing":9683,"travers":9684,"seg":9685,"sees":9686,"grasp":9687,"cosm":9688,"cocks":9689,"phere":9690,"rifle":9691,"tented":9692,"bye":9693,"herb":9694,"parka":9695,"blackberry":9696,"pages":9697,"watery":9698,"ruins":9699,"pucc":9700,"menus":9701,"torso":9702,"overstuffed":9703,"fection":9704,"pics":9705,"walkers":9706,"sheer":9707,"sheered":9708,"ulted":9709,"indian":9710,"chairlift":9711,"showcasing":9712,"rested":9713,"session":9714,"perpend":9715,"firefighter":9716,"county":9717,"runners":9718,"pretends":9719,"tally":9720,"soaking":9721,"tian":9722,"trink":9723,"guacamole":9724,"coloring":9725,"muzzle":9726,"brushy":9727,"hangings":9728,"montage":9729,"cameraman":9730,"steers":9731,"jetway":9732,"armed":9733,"lowering":9734,"battered":9735,"fourth":9736,"expensive":9737,"penned":9738,"cookware":9739,"merchand":9740,"hula":9741,"particular":9742,"performer":9743,"observed":9744,"siding":9745,"accord":9746,"inspired":9747,"clipping":9748,"Ing":9749,"grima":9750,"appropriate":9751,"lunchbox":9752,"teenaged":9753,"PED":9754,"writer":9755,"swiss":9756,"embroid":9757,"claws":9758,"glare":9759,"tinted":9760,"condiment":9761,"steeples":9762,"chests":9763,"servation":9764,"AIRPORT":9765,"bikinis":9766,"Liberty":9767,"health":9768,"accented":9769,"shared":9770,"sharpen":9771,"Lufthan":9772,"anything":9773,"buttoned":9774,"cobbled":9775,"shelve":9776,"kisses":9777,"Hotdogs":9778,"conveyer":9779,"badly":9780,"knob":9781,"dividers":9782,"ELECTR":9783,"actively":9784,"specialty":9785,"RICK":9786,"SKIES":9787,"files":9788,"upperware":9789,"bristles":9790,"FORM":9791,"businessmen":9792,"wrecked":9793,"GETTING":9794,"SHOWER":9795,"fudge":9796,"release":9797,"buggies":9798,"maneuvering":9799,"DRIN":9800,"ville":9801,"crammed":9802,"domin":9803,"shoots":9804,"GIRLS":9805,"MALE":9806,"rhinocer":9807,"Labrador":9808,"Decorated":9809,"CROW":9810,"monorail":9811,"motocross":9812,"lanterns":9813,"Huge":9814,"Angeles":9815,"Toothbrushes":9816,"skewers":9817,"BANANA":9818,"BANANAS":9819,"SOCCER":9820,"Soup":9821,"capitol":9822,"disgusting":9823,"cranberry":9824,"higher":9825,"illustration":9826,"slatted":9827,"disposable":9828,"jalapenos":9829,"Pigeons":9830,"TOOTH":9831,"aligned":9832,"MIDDLE":9833,"luggages":9834,"calendar":9835,"LUGGAGE":9836,"fondant":9837,"nectar":9838,"HANGING":9839,"Messy":9840,"ethnic":9841,"appreci":9842,"Intersection":9843,"Royal":9844,"DOUGHN":9845,"cosmet":9846,"puccino":9847,"perpendicular":9848,"merchandise":9849,"accordion":9850,"Lufthansa":9851,",.":9852,"35":9853,"Bal":9854,"Bull":9855,"BIN":9856,"Bunk":9857,"DS":9858,"DU":9859,"EX":9860,"FUN":9861,"Fore":9862,"Hat":9863,"Hum":9864,"HOME":9865,"II":9866,"IP":9867,"If":9868,"Ite":9869,"Korean":9870,"LICE":9871,"MS":9872,"Mad":9873,"National":9874,"Nike":9875,"Por":9876,"PRE":9877,"Poo":9878,"Panda":9879,"Qu":9880,"RU":9881,"Raw":9882,"Str":9883,"SWING":9884,"Tw":9885,"Tur":9886,"Tok":9887,"Wa":9888,"Wat":9889,"Wars":9890,"cof":9891,"civil":9892,"die":9893,"ee":9894,"jou":9895,"lilies":9896,"mont":9897,"pred":9898,"punk":9899,"tand":9900,"tart":9901,"ux":9902,"vable":9903,"xim":9904,"ya":9905,"york":9906,"inno":9907,"anke":9908,"anks":9909,"thor":9910,"attered":9911,"recess":9912,"tos":9913,"rods":9914,"engra":9915,"stam":9916,"alds":9917,"omin":9918,"ict":9919,"icle":9920,"unload":9921,"add":9922,"ado":9923,"sever":9924,"frit":9925,"vein":9926,"sher":9927,"shit":9928,"shund":9929,"shorn":9930,"paring":9931,"parmes":9932,"rich":9933,"smear":9934,"achshund":9935,"dogg":9936,"snout":9937,"cara":9938,"fronted":9939,"surg":9940,"cay":9941,"bathers":9942,"puzzle":9943,"wea":9944,"overweight":9945,"defaced":9946,"chill":9947,"glassed":9948,"birth":9949,"handlers":9950,"content":9951,"showcase":9952,"undergoing":9953,"firefighters":9954,"scular":9955,"screw":9956,"stood":9957,"colander":9958,"colonial":9959,"THRE":9960,"prep":9961,"sling":9962,"soon":9963,"solo":9964,"pastel":9965,"broch":9966,"stations":9967,"bookstore":9968,"keychain":9969,"mule":9970,"muscular":9971,"wineglasses":9972,"doubledecker":9973,"cuum":9974,"curving":9975,"videogame":9976,"choose":9977,"kness":9978,"duct":9979,"dusted":9980,"jugs":9981,"usage":9982,"exper":9983,"penn":9984,"timate":9985,"flakes":9986,"forefront":9987,"performed":9988,"erected":9989,"izable":9990,"garment":9991,"target":9992,"actors":9993,"grinning":9994,"TOY":9995,"hotels":9996,"wheeling":9997,"graffit":9998,"interest":9999,"lesson":10000,"swimmer":10001,"butting":10002,"climate":10003,"cappuccino":10004,"wedged":10005,"RAMP":10006,"devil":10007,"straws":10008,"Clothes":10009,"sealed":10010,"fitting":10011,"chopper":10012,"draft":10013,"hikers":10014,"further":10015,"allowing":10016,"mounds":10017,"ALLY":10018,"streams":10019,"buttered":10020,"SUR":10021,"simul":10022,"sectioned":10023,"separating":10024,"protesters":10025,"marbled":10026,"PLAT":10027,"Pizzas":10028,"sugared":10029,"Under":10030,"Enter":10031,"orderly":10032,"Dead":10033,"filter":10034,"filtered":10035,"KEY":10036,"witting":10037,"fabrics":10038,"Beer":10039,"skinned":10040,"mainly":10041,"IGHTS":10042,"tattered":10043,"elegantly":10044,"Airliner":10045,"Blur":10046,"vacuum":10047,"Roadway":10048,"selections":10049,"Atl":10050,"tuxedos":10051,"Great":10052,"plowed":10053,"crumble":10054,"shredding":10055,"bounces":10056,"eighteen":10057,"marshy":10058,"reveal":10059,"confetti":10060,"raspberry":10061,"flamingo":10062,"tangerine":10063,"finely":10064,"dumping":10065,"gadget":10066,"officials":10067,"zipper":10068,"bulldo":10069,"yachts":10070,"Western":10071,"yoga":10072,"attendants":10073,"John":10074,"orchids":10075,"graveyard":10076,"Sailboats":10077,"panorama":10078,"Buildings":10079,"Metro":10080,"Metal":10081,"Miniature":10082,"sundae":10083,"novelty":10084,"respective":10085,"Store":10086,"Urinals":10087,"seperate":10088,"Individuals":10089,"CUTTING":10090,"Windows":10091,"Trays":10092,"mowed":10093,"smokes":10094,"species":10095,"insect":10096,"Sleeping":10097,"sequence":10098,"manufact":10099,"suggest":10100,"Glazed":10101,"nunchuck":10102,"crushed":10103,"alligator":10104,"mexican":10105,"aggress":10106,"marinara":10107,"swampy":10108,"Stainless":10109,"Texas":10110,"Containers":10111,"government":10112,"Ingredients":10113,"DRINKING":10114,"CROWD":10115,"Items":10116,"Pooh":10117,"Tokyo":10118,"parmesan":10119,"!\"":10120,"\",":10121,".,":10122,"Are":10123,"Brick":10124,"COF":10125,"CAM":10126,"CUR":10127,"Dairy":10128,"Dishes":10129,"Flo":10130,"Foo":10131,"Flat":10132,"First":10133,"Greek":10134,"HU":10135,"Hol":10136,"Ir":10137,"Je":10138,"Ju":10139,"Jacks":10140,"KET":10141,"LIN":10142,"Los":10143,"Mat":10144,"Med":10145,"Mont":10146,"Mult":10147,"Mot":10148,"Mario":10149,"Neat":10150,"NICE":10151,"Pet":10152,"Port":10153,"Paper":10154,"Ra":10155,"RYING":10156,"Sho":10157,"Sup":10158,"Sports":10159,"Tv":10160,"Ul":10161,"Van":10162,"Yanke":10163,"bour":10164,"brought":10165,"cds":10166,"cresting":10167,"cents":10168,"dand":10169,"ecle":10170,"egre":10171,"flea":10172,"flapping":10173,"hump":10174,"iable":10175,"kang":10176,"kill":10177,"mation":10178,"oles":10179,"pom":10180,"rare":10181,"rine":10182,"slot":10183,"sorting":10184,"uble":10185,"vag":10186,"inn":10187,"inity":10188,"anime":10189,"inger":10190,"onts":10191,"aru":10192,"aroo":10193,"refresh":10194,"totally":10195,"isol":10196,"enfor":10197,"stle":10198,"omed":10199,"bol":10200,"asking":10201,"ership":10202,"standers":10203,"arded":10204,"ician":10205,"una":10206,"unte":10207,"units":10208,"unripened":10209,"ssy":10210,"trade":10211,"adilla":10212,"sels":10213,"ateur":10214,"plings":10215,"cep":10216,"copy":10217,"territ":10218,"umph":10219,"nears":10220,"folder":10221,"movement":10222,"forth":10223,"loop":10224,"clement":10225,"ruff":10226,"rugged":10227,"outskirts":10228,"Angry":10229,"imposed":10230,"backing":10231,"torto":10232,"planks":10233,"teaches":10234,"overhang":10235,"grounded":10236,"chipped":10237,"llows":10238,"util":10239,"frothy":10240,"braces":10241,"inders":10242,"enters":10243,"firetrucks":10244,"dial":10245,"scu":10246,"scare":10247,"vessels":10248,"pretend":10249,"cheon":10250,"teddybear":10251,"stucco":10252,"saver":10253,"engage":10254,"hitch":10255,"spout":10256,"spins":10257,"refronts":10258,"clump":10259,"REF":10260,"REMO":10261,"paperback":10262,"ANS":10263,"childrens":10264,"videos":10265,"panini":10266,"ISS":10267,"abby":10268,"clusters":10269,"canyon":10270,"choices":10271,"creation":10272,"purpose":10273,"ials":10274,"armor":10275,"bridal":10276,"posting":10277,"expl":10278,"mousepad":10279,"priest":10280,"Chi":10281,"paths":10282,"minor":10283,"subur":10284,"TOW":10285,"spool":10286,"itious":10287,"flyers":10288,"draws":10289,"write":10290,"ALF":10291,"RAIL":10292,"ESE":10293,"ctors":10294,"roofed":10295,"Giants":10296,"typewriter":10297,"mild":10298,"relaxed":10299,"Advert":10300,"wintery":10301,"BAG":10302,"Moto":10303,"diesel":10304,"daily":10305,"telephones":10306,"charcoal":10307,"TRAFF":10308,"exhibition":10309,"Toast":10310,"indicator":10311,"Head":10312,"sugary":10313,"paraph":10314,"balconies":10315,"cushioned":10316,"Locomotive":10317,"bicycling":10318,"Dell":10319,"ponytail":10320,"musician":10321,"fairy":10322,"listen":10323,"twir":10324,"Work":10325,"halter":10326,"halved":10327,"Surfboards":10328,"CARRYING":10329,"amaha":10330,"Chev":10331,"damp":10332,"COVE":10333,"register":10334,"artistically":10335,"techni":10336,"hunting":10337,"evergreens":10338,"belongs":10339,"parasailers":10340,"retrieve":10341,"socialize":10342,"Macbook":10343,"popcorn":10344,"Number":10345,"camouflag":10346,"period":10347,"rodent":10348,"aims":10349,"aimed":10350,"spiky":10351,"sightseeing":10352,"araunt":10353,"Orioles":10354,"carvings":10355,"Teenage":10356,"bruised":10357,"Piece":10358,"switching":10359,"Polaroid":10360,"Savanna":10361,"snapshot":10362,"motorcyl":10363,"BOATS":10364,"enthusiastically":10365,"ANIMAL":10366,"Artistic":10367,"feta":10368,"concentrates":10369,"energy":10370,"tacos":10371,"consumed":10372,"STORE":10373,"anticipation":10374,"packets":10375,"navigates":10376,"Austral":10377,"Individual":10378,"dealership":10379,"execut":10380,"attentively":10381,"iency":10382,"efficiency":10383,"armoire":10384,"wanting":10385,"skillfully":10386,"determin":10387,"easily":10388,"muscles":10389,"peripherals":10390,"junction":10391,"dramatic":10392,"Court":10393,"Dodgers":10394,"pandas":10395,"explaining":10396,"artisan":10397,"Soldiers":10398,"shorter":10399,"hydrogen":10400,"question":10401,"african":10402,"upholstered":10403,"Reflection":10404,"Alaska":10405,"rhinoceros":10406,"Foreign":10407,"SURROUND":10408,"Blurred":10409,"COFFEE":10410,"Jackson":10411,"kangaroo":10412,"TRAFFIC":10413,"1st":10414,"24":10415,"54":10416,"66":10417,"AB":10418,"Ari":10419,"Ber":10420,"Bul":10421,"DC":10422,"Dan":10423,"Dude":10424,"Drink":10425,"Fighter":10426,"GPS":10427,"HAIR":10428,"Lane":10429,"Lake":10430,"LIGHTS":10431,"Min":10432,"MOU":10433,"Nood":10434,"NASA":10435,"Oak":10436,"Pi":10437,"Pile":10438,"Pick":10439,"RY":10440,"Rue":10441,"Rear":10442,"Tu":10443,"TIM":10444,"Why":10445,"Yamaha":10446,"az":10447,"aled":10448,"bli":10449,"cil":10450,"europe":10451,"emitting":10452,"god":10453,"gently":10454,"huts":10455,"knight":10456,"lumber":10457,"slacks":10458,"viv":10459,"virgin":10460,"wro":10461,"wti":10462,"intr":10463,"inary":10464,"inverted":10465,"thinking":10466,"often":10467,"returned":10468,"rola":10469,"stry":10470,"stals":10471,"stamp":10472,"ality":10473,"alot":10474,"chief":10475,"raf":10476,"orph":10477,"bold":10478,"ason":10479,"loom":10480,"locker":10481,"locking":10482,"never":10483,"gested":10484,"geisha":10485,"arding":10486,"unke":10487,"unpeeled":10488,"unison":10489,"heights":10490,"sses":10491,"address":10492,"sec":10493,"bulent":10494,"buidling":10495,"thatched":10496,"terrace":10497,"tential":10498,"flick":10499,"carves":10500,"snowshoes":10501,"mold":10502,"mohawk":10503,"lier":10504,"limo":10505,"pail":10506,"cleans":10507,"capa":10508,"causing":10509,"eleven":10510,"comfy":10511,"gilded":10512,"ghan":10513,"overloaded":10514,"chilli":10515,"llama":10516,"ongous":10517,"entrees":10518,"yelling":10519,"mpt":10520,"banister":10521,"anged":10522,"quant":10523,"restaraunt":10524,"illy":10525,"corpor":10526,"dipped":10527,"bunting":10528,"storefronts":10529,"reader":10530,"shocked":10531,"blong":10532,"dirtbike":10533,"serene":10534,"venture":10535,"spare":10536,"campaign":10537,"cessing":10538,"olor":10539,"passport":10540,"longer":10541,"curry":10542,"mart":10543,"potter":10544,"bodysuit":10545,"bartender":10546,"meatloaf":10547,"ONIC":10548,"duce":10549,"slicer":10550,"greasy":10551,"turnips":10552,"university":10553,"toothpicks":10554,"hairless":10555,"spelled":10556,"anchor":10557,"attaching":10558,"partner":10559,"ernalia":10560,"garland":10561,"flex":10562,"squid":10563,"ARS":10564,"crafted":10565,"wildly":10566,"mingle":10567,"interviewed":10568,"gloved":10569,"STRI":10570,"ENG":10571,"RAIN":10572,"gardening":10573,"hardware":10574,"temperature":10575,"ifiable":10576,"shading":10577,"seaplane":10578,"While":10579,"MANY":10580,"leashed":10581,"collecting":10582,"sedan":10583,"goodies":10584,"extend":10585,"Shepard":10586,"turbulent":10587,"gnome":10588,"DOING":10589,"oci":10590,"waterside":10591,"Motorcyclist":10592,"USING":10593,"stemmed":10594,"patchwork":10595,"bbled":10596,"presses":10597,"UNI":10598,"connect":10599,"estate":10600,"actual":10601,"shadowy":10602,"Onlookers":10603,"plugs":10604,"suspension":10605,"prior":10606,"prize":10607,"amounts":10608,"Parti":10609,"illuminate":10610,"Library":10611,"bills":10612,"wakeboarding":10613,"strangely":10614,"glows":10615,"wanders":10616,"splashes":10617,"snuggles":10618,"POST":10619,"Model":10620,"Policemen":10621,"calls":10622,"summit":10623,"occupy":10624,"refu":10625,"saddles":10626,"outfielder":10627,"sprout":10628,"parasailer":10629,"Disney":10630,"roosters":10631,"tortillas":10632,"confusing":10633,"quote":10634,"alien":10635,"DRINK":10636,"focusing":10637,"skulls":10638,"ceremonial":10639,"recorder":10640,"resembling":10641,"DECOR":10642,"ification":10643,"HANDS":10644,"darkness":10645,"stony":10646,"slim":10647,"delivered":10648,"Wildlife":10649,"University":10650,"UMBRELLAS":10651,"Russian":10652,"MP3":10653,"Railway":10654,"gorgeous":10655,"windmills":10656,"SCISS":10657,"sloppy":10658,"proceeds":10659,"landscaped":10660,"SUITCASE":10661,"wildebeests":10662,"affectionate":10663,"Angels":10664,"STOVE":10665,"anticipating":10666,"feasting":10667,"respected":10668,"descends":10669,"congratulations":10670,"navigate":10671,"involved":10672,"peopel":10673,"READY":10674,"BUNCH":10675,"Prepared":10676,"autographs":10677,"Travelers":10678,"PIECE":10679,"luncheon":10680,"FRUIT":10681,"vigorously":10682,"Scott":10683,"scallops":10684,"Boulevard":10685,"congregating":10686,"squadron":10687,"Jockeys":10688,"Willi":10689,"thorough":10690,"custard":10691,"gondola":10692,"Viet":10693,"virtual":10694,"geometric":10695,"embroidered":10696,"ELECTRONIC":10697,"coffe":10698,"smeared":10699,"surgical":10700,"Foot":10701,"HUGE":10702,"Motion":10703,"dandel":10704,"enforcement":10705,"territory":10706,"paraphernalia":10707,"COVERED":10708,"camouflaged":10709,"Savannah":10710,"MOUTH":10711,"wtih":10712,"SCISSORS":10713,"747":10714,"AST":10715,"BS":10716,"Bund":10717,"BRICK":10718,"Cur":10719,"Dalmatian":10720,"DRES":10721,"EY":10722,"FL":10723,"Flu":10724,"FAM":10725,"FUR":10726,"Fuzzy":10727,"From":10728,"Good":10729,"Gourmet":10730,"HT":10731,"Hill":10732,"HILL":10733,"JUST":10734,"Mag":10735,"Mob":10736,"MESS":10737,"Narrow":10738,"OL":10739,"OVEN":10740,"Pow":10741,"PET":10742,"Run":10743,"Spl":10744,"Sum":10745,"Sim":10746,"aid":10747,"cad":10748,"cia":10749,"crows":10750,"dwe":10751,"dachshund":10752,"hon":10753,"hen":10754,"iing":10755,"iwth":10756,"kabo":10757,"mare":10758,"nour":10759,"nip":10760,"ollie":10761,"oblong":10762,"pc":10763,"pate":10764,"plot":10765,"rv":10766,"rily":10767,"ritious":10768,"sage":10769,"slush":10770,"sister":10771,"tch":10772,"user":10773,"yd":10774,"inscri":10775,"inclosure":10776,"onder":10777,"atures":10778,"itam":10779,"itating":10780,"requ":10781,"respon":10782,"tote":10783,"ision":10784,"isley":10785,"withe":10786,"widow":10787,"role":10788,"rolet":10789,"strolls":10790,"stilts":10791,"aloft":10792,"changed":10793,"rafting":10794,"lakes":10795,"ouses":10796,"esy":10797,"orial":10798,"lop":10799,"sities":10800,"neces":10801,"hover":10802,"hoping":10803,"tapes":10804,"tailed":10805,"uplic":10806,"ication":10807,"unic":10808,"unseen":10809,"united":10810,"unbuttoned":10811,"hea":10812,"heap":10813,"bagu":10814,"doc":10815,"docum":10816,"veil":10817,"shu":10818,"shakers":10819,"shinning":10820,"thermos":10821,"rible":10822,"rims":10823,"ample":10824,"amateur":10825,"tened":10826,"undra":10827,"wagen":10828,"popping":10829,"fliers":10830,"trainers":10831,"surboard":10832,"antas":10833,"paid":10834,"pausing":10835,"paisley":10836,"rusting":10837,"outcro":10838,"inks":10839,"Another":10840,"compl":10841,"commu":10842,"greenish":10843,"overhand":10844,"feel":10845,"toiled":10846,"lapsed":10847,"ops":10848,"utting":10849,"frolic":10850,"disrepair":10851,"ulum":10852,"windowed":10853,"treed":10854,"handsome":10855,"handwritten":10856,"confection":10857,"congested":10858,"underbrush":10859,"bann":10860,"bangs":10861,"ckets":10862,"angrily":10863,"restur":10864,"perhaps":10865,"fires":10866,"corned":10867,"Thai":10868,"differ":10869,"sci":10870,"winged":10871,"cowgirl":10872,"offered":10873,"Semi":10874,"former":10875,"sheepdog":10876,"chel":10877,"mountaintop":10878,"enger":10879,"sery":10880,"sunken":10881,"tiara":10882,"gushing":10883,"means":10884,"props":10885,"propping":10886,"proxim":10887,"monks":10888,"cuting":10889,"ipad":10890,"canad":10891,"knights":10892,"dusting":10893,"juicy":10894,"postcard":10895,"exact":10896,"ject":10897,"staying":10898,"prison":10899,"erect":10900,"struggling":10901,"cleared":10902,"towns":10903,"grits":10904,"butts":10905,"calzone":10906,"clipped":10907,"messily":10908,"captain":10909,"avo":10910,"blend":10911,"blending":10912,"tours":10913,"criss":10914,"freeze":10915,"roofs":10916,"producing":10917,"supports":10918,"ivory":10919,"autom":10920,"bbq":10921,"CKING":10922,"Catcher":10923,"crucif":10924,"Shepherd":10925,"systems":10926,"outfitted":10927,"BASK":10928,"milkshake":10929,"writes":10930,"Stone":10931,"waitress":10932,"terminals":10933,"ducky":10934,"clas":10935,"Kitten":10936,"utella":10937,"falcon":10938,"protector":10939,"trooper":10940,"trouble":10941,"TUR":10942,"identification":10943,"stirred":10944,"Life":10945,"Bearded":10946,"ILY":10947,"Freight":10948,"anyone":10949,"arrived":10950,"cobblestones":10951,"CABIN":10952,"humongous":10953,"Worker":10954,"Bush":10955,"exciting":10956,"opponents":10957,"CARRI":10958,"PAIN":10959,"nursery":10960,"vaulted":10961,"calling":10962,"BLIC":10963,"twisting":10964,"realistic":10965,"smell":10966,"Bicyclists":10967,"BOYS":10968,"crumpled":10969,"Sunset":10970,"iPad":10971,"clowns":10972,"blooms":10973,"Deser":10974,"HERD":10975,"naval":10976,"nuzzles":10977,"roots":10978,"MacBook":10979,"satin":10980,"satchel":10981,"contrasting":10982,"deciding":10983,"shavings":10984,"seriously":10985,"ankles":10986,"International":10987,"instructing":10988,"moust":10989,"entryway":10990,"voy":10991,"quesadilla":10992,"Paul":10993,"intricately":10994,"Stack":10995,"WOODS":10996,"CDs":10997,"Members":10998,"barricades":10999,"Winnie":11000,"sparkling":11001,"Pepperoni":11002,"flashlight":11003,"trophies":11004,"enthusiasts":11005,"exercising":11006,"property":11007,"properly":11008,"transparent":11009,"Team":11010,"Tax":11011,"leftovers":11012,"chaise":11013,"squeezed":11014,"zombies":11015,"descend":11016,"Urban":11017,"tasks":11018,"Walk":11019,"envelope":11020,"scruffy":11021,"APPLES":11022,"nesses":11023,"peeping":11024,"unidentifiable":11025,"Athlete":11026,"diapers":11027,"Calico":11028,"PUBLIC":11029,"dolphin":11030,"professionals":11031,"Transit":11032,"acrobatic":11033,"BESIDE":11034,"Painting":11035,"recognizable":11036,"Castle":11037,"Sweet":11038,"pontoon":11039,"leisurely":11040,"merchant":11041,"ADULT":11042,"japanese":11043,"kimono":11044,"trinkets":11045,"tandem":11046,"doggie":11047,"bulldozer":11048,"Ultimate":11049,"eclectic":11050,"egret":11051,"ruffled":11052,"REMOTE":11053,"Chevrolet":11054,"Australian":11055,"SURROUNDED":11056,"ABOUT":11057,"wrote":11058,"intrigu":11059,"unkempt":11060,"flickr":11061,"Partially":11062,"DRESSED":11063,"Fluffy":11064,"FAMILY":11065,"Split":11066,"necessities":11067,"outcropping":11068,"proximity":11069,"automated":11070,"'.":11071,",\"":11072,"14":11073,"2nd":11074,"45":11075,"53":11076,"CL":11077,"Cr":11078,"Cre":11079,"DER":11080,"DEN":11081,"Ext":11082,"Fil":11083,"Fif":11084,"Flor":11085,"Get":11086,"Garden":11087,"Ice":11088,"Low":11089,"Let":11090,"MI":11091,"ML":11092,"My":11093,"Mir":11094,"Moun":11095,"NA":11096,"NI":11097,"NIGHT":11098,"Phill":11099,"Parm":11100,"PAIR":11101,"PUL":11102,"PUR":11103,"Rout":11104,"Ripe":11105,"SI":11106,"Sha":11107,"Stri":11108,"SPE":11109,"Shad":11110,"Tor":11111,"Turn":11112,"Vis":11113,"Wonder":11114,"Year":11115,"ax":11116,"aes":11117,"casian":11118,"dv":11119,"dren":11120,"eing":11121,"fou":11122,"fic":11123,"fowl":11124,"gna":11125,"han":11126,"iMac":11127,"list":11128,"mile":11129,"mash":11130,"munches":11131,"nud":11132,"ota":11133,"obel":11134,"rie":11135,"rind":11136,"viny":11137,"yaks":11138,"zu":11139,"inches":11140,"ancing":11141,"thigh":11142,"eral":11143,"atri":11144,"atmos":11145,"itol":11146,"remark":11147,"repaired":11148,"eno":11149,"stur":11150,"stride":11151,"stery":11152,"album":11153,"ramen":11154,"rapped":11155,"lac":11156,"ladders":11157,"outing":11158,"esan":11159,"esome":11160,"escape":11161,"etah":11162,"bob":11163,"ashore":11164,"wolf":11165,"beth":11166,"become":11167,"hoof":11168,"tab":11169,"upset":11170,"peal":11171,"icons":11172,"union":11173,"unusually":11174,"hey":11175,"hell":11176,"bles":11177,"bleed":11178,"adjoining":11179,"search":11180,"dove":11181,"shattered":11182,"shrine":11183,"thern":11184,"streak":11185,"cos":11186,"cove":11187,"phra":11188,"coup":11189,"umbre":11190,"umpet":11191,"umpy":11192,"poop":11193,"potential":11194,"fling":11195,"foyer":11196,"piers":11197,"pills":11198,"liament":11199,"antily":11200,"baseline":11201,"weigh":11202,"youngsters":11203,"comic":11204,"combs":11205,"comical":11206,"imag":11207,"impro":11208,"imeter":11209,"breath":11210,"overly":11211,"defin":11212,"deplo":11213,"deflated":11214,"distin":11215,"walkie":11216,"bracele":11217,"pedals":11218,"compute":11219,"icecream":11220,"trestle":11221,"contrails":11222,"angers":11223,"quality":11224,"science":11225,"offer":11226,"readying":11227,"okes":11228,"ctional":11229,"headlight":11230,"headdress":11231,"faux":11232,"angels":11233,"associ":11234,"shirted":11235,"slate":11236,"cheetah":11237,"servers":11238,"sunbathing":11239,"timore":11240,"trumpet":11241,"gula":11242,"bese":11243,"campers":11244,"processing":11245,"mating":11246,"rollers":11247,"emptied":11248,"ANA":11249,"removes":11250,"dinette":11251,"canisters":11252,"jetty":11253,"meaty":11254,"ONES":11255,"ultural":11256,"graphics":11257,"mouthwash":11258,"crepe":11259,"photographers":11260,"expans":11261,"derby":11262,"saluting":11263,"hued":11264,"hugged":11265,"artfully":11266,"TVs":11267,"flashes":11268,"performers":11269,"observation":11270,"izer":11271,"saute":11272,"ARM":11273,"minar":11274,"neckties":11275,"necklaces":11276,"wheelbarrow":11277,"notice":11278,"ROW":11279,"transports":11280,"pedestals":11281,"messed":11282,"mache":11283,"spoonful":11284,"stains":11285,"porter":11286,"hamper":11287,"farmland":11288,"harnesses":11289,"cardigan":11290,"cessary":11291,"atively":11292,"springs":11293,"pallets":11294,"drag":11295,"SEAT":11296,"crusted":11297,"cruises":11298,"mismatched":11299,"extension":11300,"teacup":11301,"comfort":11302,"puppet":11303,"orama":11304,"empire":11305,"simply":11306,"taxider":11307,"bulbs":11308,"corners":11309,"belie":11310,"Roses":11311,"connection":11312,"cricket":11313,"traveled":11314,"dition":11315,"volunte":11316,"mansion":11317,"Heavy":11318,"guardrail":11319,"pinstripe":11320,"trolleys":11321,"stirs":11322,"burns":11323,"primar":11324,"powdery":11325,"operates":11326,"warmer":11327,"flooding":11328,"Broken":11329,"Donut":11330,"cotta":11331,"links":11332,"blinders":11333,"blindfolded":11334,"mills":11335,"reached":11336,"listens":11337,"dancers":11338,"daughters":11339,"silhouettes":11340,"logos":11341,"gliders":11342,"payphone":11343,"scratch":11344,"scratches":11345,"bumping":11346,"demonic":11347,"Computers":11348,"BEDROOM":11349,"anchovies":11350,"breasts":11351,"crumbling":11352,"nutritious":11353,"Chop":11354,"surprise":11355,"visitor":11356,"rapidly":11357,"peacocks":11358,"tugboat":11359,"District":11360,"campground":11361,"APPE":11362,"SHOWING":11363,"contrast":11364,"BEARS":11365,"Bikers":11366,"Harry":11367,"domestic":11368,"panties":11369,"graduates":11370,"dumplings":11371,"Produce":11372,"zipped":11373,"finds":11374,"BANK":11375,"labelled":11376,"Series":11377,"chugs":11378,"sparkler":11379,"plywood":11380,"vicinity":11381,"articles":11382,"Pastry":11383,"SCREEN":11384,"fetch":11385,"coconuts":11386,"zooms":11387,"providing":11388,"sombr":11389,"BATTER":11390,"NOT":11391,"crispy":11392,"Hammer":11393,"convenient":11394,"WORK":11395,"WORKING":11396,"Custo":11397,"involving":11398,"stitut":11399,"seperated":11400,"griddle":11401,"Capitol":11402,"Auto":11403,"HIMSELF":11404,"origami":11405,"awkwardly":11406,"CHEESE":11407,"Penn":11408,"PASSING":11409,"investigates":11410,"Ferris":11411,"College":11412,"mulch":11413,"cylinder":11414,"parakeets":11415,"pomegranate":11416,"Seattle":11417,"pamphlets":11418,"squinting":11419,"wrinkled":11420,"Caucasian":11421,"impressive":11422,"supporting":11423,"Classic":11424,"dreadlocks":11425,"vultures":11426,"snoozing":11427,"VEHICLES":11428,"duty":11429,"Keyboard":11430,"traversing":11431,"grasps":11432,"Baltimore":11433,"yawn":11434,"engraved":11435,"graffitti":11436,"Multicolored":11437,"isolated":11438,"exploring":11439,"TIME":11440,"rafters":11441,"uplicate":11442,"baguette":11443,"resturant":11444,"moustache":11445,"Florida":11446,"Parmesan":11447,"Route":11448,"obelisk":11449,"vinyl":11450,"atmosphere":11451,"remarkable":11452,"bracelets":11453,"expansive":11454,"22":11455,"80":11456,"Af":11457,"Bel":11458,"Best":11459,"BRID":11460,"Cong":11461,"Cyclists":11462,"Clou":11463,"Dra":11464,"Dining":11465,"Eli":11466,"Elaborate":11467,"Fl":11468,"Flying":11469,"Fast":11470,"GR":11471,"Guit":11472,"Game":11473,"JO":11474,"Jets":11475,"LM":11476,"Lou":11477,"Lam":11478,"Mal":11479,"Mill":11480,"Miss":11481,"MIC":11482,"Offic":11483,"PR":11484,"Pack":11485,"SIL":11486,"Saint":11487,"Simple":11488,"Tan":11489,"Tiled":11490,"URE":11491,"Zoo":11492,"ael":11493,"ctable":11494,"dent":11495,"dging":11496,"ev":11497,"fier":11498,"fied":11499,"gour":11500,"hes":11501,"ives":11502,"krispy":11503,"lily":11504,"lery":11505,"mun":11506,"mind":11507,"mies":11508,"miles":11509,"nad":11510,"obese":11511,"pines":11512,"sor":11513,"slu":11514,"splayed":11515,"tum":11516,"tundra":11517,"une":11518,"vations":11519,"warms":11520,"init":11521,"ince":11522,"inlet":11523,"anage":11524,"thre":11525,"onlooking":11526,"arcade":11527,"atv":11528,"lei":11529,"retain":11530,"report":11531,"reeds":11532,"remain":11533,"recycling":11534,"wizard":11535,"wiener":11536,"enclose":11537,"encased":11538,"alga":11539,"almation":11540,"rabb":11541,"rami":11542,"ravio":11543,"owing":11544,"etched":11545,"boad":11546,"sitt":11547,"sittin":11548,"neg":11549,"necessary":11550,"pleased":11551,"why":11552,"tacks":11553,"arest":11554,"pecks":11555,"icles":11556,"icolor":11557,"topper":11558,"vern":11559,"ssels":11560,"llis":11561,"urine":11562,"adole":11563,"adventure":11564,"secu":11565,"seminar":11566,"bakes":11567,"plump":11568,"streaks":11569,"grade":11570,"couver":11571,"tended":11572,"cater":11573,"catering":11574,"bystanders":11575,"fielder":11576,"footh":11577,"mothers":11578,"trained":11579,"rowers":11580,"blacktop":11581,"rules":11582,"caked":11583,"bathrobe":11584,"eless":11585,"composite":11586,"zzling":11587,"greenhouse":11588,"descent":11589,"feeling":11590,"dear":11591,"deco":11592,"delight":11593,"ultra":11594,"peddling":11595,"mages":11596,"tows":11597,"truly":11598,"convoy":11599,"yellowish":11600,"cropped":11601,"crotch":11602,"apr":11603,"underway":11604,"birdcage":11605,"restric":11606,"closest":11607,"perimeter":11608,"ills":11609,"firehydrant":11610,"bowing":11611,"corre":11612,"dive":11613,"dials":11614,"scall":11615,"flows":11616,"lightning":11617,"linole":11618,"plastered":11619,"THINK":11620,"drizzle":11621,"abled":11622,"agu":11623,"cutlery":11624,"bler":11625,"INST":11626,"elk":11627,"tucks":11628,"tugging":11629,"plater":11630,"ressed":11631,"pastrami":11632,"tiful":11633,"mein":11634,"donation":11635,"mons":11636,"curio":11637,"marque":11638,"tricky":11639,"highlighted":11640,"houseboat":11641,"choice":11642,"suckling":11643,"susten":11644,"ONS":11645,"With":11646,"issance":11647,"creates":11648,"purchasing":11649,"purchased":11650,"grease":11651,"ATM":11652,"modeled":11653,"expe":11654,"exits":11655,"exchange":11656,"dered":11657,"salami":11658,"attack":11659,"mering":11660,"stake":11661,"flask":11662,"catsup":11663,"welcoming":11664,"ERY":11665,"patrolling":11666,"struggles":11667,"WILD":11668,"tvs":11669,"crabs":11670,"accep":11671,"grates":11672,"grater":11673,"macbook":11674,"arranges":11675,"wheelchairs":11676,"knelt":11677,"intertwin":11678,"wiimote":11679,"LAMP":11680,"clothesline":11681,"avid":11682,"smoggy":11683,"CHOO":11684,"RACKET":11685,"pools":11686,"designer":11687,"urinating":11688,"grip":11689,"harve":11690,"funky":11691,"praying":11692,"sprin":11693,"dollars":11694,"ferret":11695,"cruiser":11696,"doorways":11697,"Plants":11698,"booster":11699,"Standing":11700,"delivers":11701,"consist":11702,"handlebar":11703,"taxing":11704,"EDING":11705,"Commode":11706,"Cook":11707,"protein":11708,"trots":11709,"myster":11710,"Picnic":11711,"actually":11712,"PLIAN":11713,"fiving":11714,"fountains":11715,"sprayer":11716,"films":11717,"learns":11718,"spotlight":11719,"PICTURES":11720,"awesome":11721,"illuminates":11722,"scarfs":11723,"uniquely":11724,"slam":11725,"Lucky":11726,"ASH":11727,"listed":11728,"LOOK":11729,"tapestry":11730,"splits":11731,"CLOU":11732,"portraits":11733,"humorous":11734,"possess":11735,"Budd":11736,"texts":11737,"BUSES":11738,"briefcases":11739,"affe":11740,"nibbles":11741,"chandeliers":11742,"PLAYERS":11743,"tilts":11744,"waxing":11745,"technic":11746,"Employe":11747,"expressing":11748,"holidays":11749,"wallpapered":11750,"bulletin":11751,"carnations":11752,"similarly":11753,"conventional":11754,"APPLIAN":11755,"challen":11756,"released":11757,"thentic":11758,"Families":11759,"latt":11760,"slipper":11761,"scoops":11762,"vineyard":11763,"oversize":11764,"website":11765,"participate":11766,"flannel":11767,"SHELF":11768,"orchid":11769,"whisk":11770,"whiskey":11771,"Potter":11772,"Potted":11773,"Major":11774,"diagonally":11775,"pendulum":11776,"STUFFED":11777,"consuming":11778,"sleeveless":11779,"affectionately":11780,"artsy":11781,"bustling":11782,"RUNWAY":11783,"BOOKS":11784,"Fishing":11785,"gallon":11786,"task":11787,"advantage":11788,"capital":11789,"barbwire":11790,"choosing":11791,"MEAL":11792,"executing":11793,"Downhill":11794,"proceeding":11795,"efficient":11796,"successful":11797,"Mushroom":11798,"Palm":11799,"Tomatoes":11800,"unidentified":11801,"CROSSING":11802,"Trio":11803,"stranded":11804,"investigate":11805,"average":11806,"charming":11807,"collectible":11808,"inserted":11809,"bracelet":11810,"Volkswagen":11811,"Contin":11812,"ascends":11813,"riverside":11814,"shawl":11815,"shampoo":11816,"DINNER":11817,"fisherman":11818,"FRIEND":11819,"fascinating":11820,"koala":11821,"girafee":11822,"scanner":11823,"broccolli":11824,"citizens":11825,"HITTING":11826,"Michigan":11827,"quito":11828,"attachments":11829,"weaving":11830,"arugula":11831,"scuba":11832,"european":11833,"orphanage":11834,"Vietnam":11835,"Mobile":11836,"MESSY":11837,"document":11838,"documents":11839,"crucifix":11840,"dvds":11841,"drenched":11842,"deployed":11843,"Louis":11844,"algae":11845,"rabbits":11846,"ravioli":11847,"secured":11848,"linoleum":11849,"sustenance":11850,"Employees":11851,".;":11852,"34th":11853,"Ac":11854,"ABO":11855,"BER":11856,"Bald":11857,"Blender":11858,"CRE":11859,"CING":11860,"Camer":11861,"Det":11862,"DIRT":11863,"FT":11864,"FRE":11865,"Face":11866,"Fake":11867,"Goth":11868,"How":11869,"Hanging":11870,"Hundreds":11871,"HALF":11872,"IES":11873,"JE":11874,"Just":11875,"Ka":11876,"Ker":11877,"Las":11878,"Mr":11879,"Mus":11880,"MOD":11881,"NIT":11882,"Ore":11883,"PAN":11884,"Rider":11885,"Rode":11886,"SW":11887,"Shor":11888,"Stor":11889,"Scoo":11890,"SPO":11891,"Ty":11892,"Tro":11893,"Ven":11894,"Vend":11895,"VAR":11896,"Wed":11897,"Wil":11898,"code":11899,"dele":11900,"dull":11901,"dine":11902,"data":11903,"ef":11904,"ely":11905,"elder":11906,"flaps":11907,"gher":11908,"juts":11909,"kilt":11910,"nt":11911,"nach":11912,"pf":11913,"ptian":11914,"raring":11915,"ranger":11916,"swo":11917,"swa":11918,"sical":11919,"tches":11920,"trot":11921,"uled":11922,"wound":11923,"institut":11924,"thirt":11925,"lex":11926,"represent":11927,"reason":11928,"toms":11929,"toiler":11930,"wiped":11931,"ening":11932,"enced":11933,"staged":11934,"chap":11935,"edited":11936,"launches":11937,"orge":11938,"eteen":11939,"boars":11940,"manue":11941,"manhole":11942,"asto":11943,"ascent":11944,"loved":11945,"lockers":11946,"sites":11947,"nesting":11948,"nels":11949,"nearest":11950,"gee":11951,"gelat":11952,"whim":11953,"tagon":11954,"standstill":11955,"igr":11956,"igers":11957,"peperoni":11958,"unlit":11959,"unbaked":11960,"unfurnished":11961,"uncommon":11962,"itely":11963,"urally":11964,"urfer":11965,"advis":11966,"bugs":11967,"tablets":11968,"coco":11969,"ilation":11970,"Thee":11971,"sideline":11972,"walnut":11973,"downwards":11974,"largest":11975,"poly":11976,"nearing":11977,"nister":11978,"piping":11979,"lived":11980,"lilac":11981,"antro":11982,"blackberries":11983,"pac":11984,"ruck":11985,"outlined":11986,"outward":11987,"compass":11988,"comically":11989,"zzard":11990,"backsides":11991,"woody":11992,"woodland":11993,"tether":11994,"overcoat":11995,"femin":11996,"felt":11997,"death":11998,"chilly":11999,"utto":12000,"utili":12001,"dismantle":12002,"disabled":12003,"mast":12004,"entre":12005,"handbags":12006,"crout":12007,"opener":12008,"trucked":12009,"crosse":12010,"crossroads":12011,"crossbones":12012,"suites":12013,"corded":12014,"Through":12015,"Thames":12016,"scrun":12017,"courthouse":12018,"goti":12019,"lyn":12020,"oker":12021,"vespa":12022,"bia":12023,"ager":12024,"Pelic":12025,"assists":12026,"chested":12027,"chester":12028,"brit":12029,"jumble":12030,"sundown":12031,"ously":12032,"tives":12033,"cupo":12034,"bookbag":12035,"spons":12036,"prosci":12037,"mules":12038,"RESS":12039,"steet":12040,"bino":12041,"cubby":12042,"curling":12043,"lightening":12044,"martin":12045,"telescope":12046,"bages":12047,"kitesurfing":12048,"IST":12049,"icking":12050,"barbers":12051,"choke":12052,"ladybug":12053,"silk":12054,"helped":12055,"ultaneous":12056,"likely":12057,"crepes":12058,"armrest":12059,"peson":12060,"ATED":12061,"enclosures":12062,"toothpick":12063,"vehicular":12064,"joint":12065,"spear":12066,"spell":12067,"astro":12068,"astron":12069,"merging":12070,"huddling":12071,"greyhound":12072,"pastor":12073,"markets":12074,"ERA":12075,"polish":12076,"subject":12077,"borders":12078,"afghan":12079,"grating":12080,"grumpy":12081,"applying":12082,"selfies":12083,"flyer":12084,"padding":12085,"footprints":12086,"kneel":12087,"international":12088,"graffitied":12089,"STEP":12090,"tranquil":12091,"fridges":12092,"ENT":12093,"CHO":12094,"wardrobe":12095,"soul":12096,"bakers":12097,"appealing":12098,"leader":12099,"windsurfers":12100,"kickstand":12101,"auction":12102,"authentic":12103,"bbly":12104,"ETY":12105,"testors":12106,"mixes":12107,"mixers":12108,"starbucks":12109,"SEE":12110,"stillness":12111,"crude":12112,"tailgate":12113,"goodbye":12114,"navel":12115,"powerful":12116,"sprinkling":12117,"classical":12118,"stunning":12119,"Motel":12120,"collide":12121,"relatively":12122,"comotives":12123,"fluid":12124,"boulevard":12125,"embell":12126,"SUN":12127,"SURE":12128,"simultaneous":12129,"EDDING":12130,"Coast":12131,"Cooks":12132,"firs":12133,"folders":12134,"Appl":12135,"Skateboard":12136,"tint":12137,"ails":12138,"fives":12139,"enjoyed":12140,"Toile":12141,"yclist":12142,"shadowed":12143,"BOARDER":12144,"scared":12145,"accessory":12146,"grinder":12147,"Unusual":12148,"services":12149,"Look":12150,"cabbages":12151,"operator":12152,"gyptian":12153,"VEG":12154,"Parents":12155,"Parliament":12156,"awful":12157,"Livestock":12158,"ILLED":12159,"wakeboard":12160,"soaps":12161,"careful":12162,"convex":12163,"mbles":12164,"cellent":12165,"EATEN":12166,"Organ":12167,"Busses":12168,"fashionable":12169,"Photos":12170,"POLICE":12171,"PAST":12172,"PASTU":12173,"knoll":12174,"dividing":12175,"kettles":12176,"COMM":12177,"Sculp":12178,"pigtails":12179,"extravag":12180,"Alley":12181,"BLT":12182,"scratched":12183,"newlywed":12184,"RIVER":12185,"twist":12186,"SKIER":12187,"assembling":12188,"mailboxes":12189,"superimposed":12190,"hutch":12191,"paragl":12192,"Hospital":12193,"awnings":12194,"detailing":12195,"rimmed":12196,"sledding":12197,"2012":12198,"parasails":12199,"FEW":12200,"SHOT":12201,"crowns":12202,"browse":12203,"DISH":12204,"Italy":12205,"wrestler":12206,"TEE":12207,"graduate":12208,"sips":12209,"robotic":12210,"mechanic":12211,"lanyard":12212,"ripening":12213,"tickets":12214,"daisy":12215,"communic":12216,"clipboard":12217,"Stacks":12218,"memory":12219,"Umpire":12220,"whiskers":12221,"burritos":12222,"Sausage":12223,"sparklers":12224,"entirely":12225,"articulated":12226,"Legos":12227,"bomb":12228,"almond":12229,"clutches":12230,"zoomed":12231,"stroke":12232,"lobsters":12233,"DVDs":12234,"Histor":12235,"Nicely":12236,"OFFICE":12237,"wilting":12238,"departure":12239,"sweeper":12240,"Desktop":12241,"squeezing":12242,"wreaths":12243,"GUYS":12244,"LANDING":12245,"glares":12246,"Southern":12247,"fifth":12248,"advanced":12249,"MOUNTAINS":12250,"announcing":12251,"pooh":12252,"googly":12253,"successfully":12254,"NYPD":12255,"Palace":12256,"girra":12257,"screaming":12258,"Athlet":12259,"FRUITS":12260,"Retrie":12261,"happening":12262,"Collection":12263,"admires":12264,"parakeet":12265,"pomegranates":12266,"motional":12267,"Times":12268,"mamma":12269,"diffrent":12270,"clinging":12271,"organization":12272,"Straw":12273,"nineteen":12274,"coordinating":12275,"gooey":12276,"WHERE":12277,"Directional":12278,"Grizzly":12279,"Spring":12280,"smirk":12281,"lollipop":12282,"cosmetics":12283,"jousting":12284,"innocent":12285,"adobe":12286,"sheriff":12287,"chillin":12288,"brochures":12289,"expert":12290,"simulator":12291,"crumbled":12292,"aggressively":12293,"Vancouver":12294,"Yankees":12295,"scarecrow":12296,"determined":12297,"Noodles":12298,"UNIFORM":12299,"avoiding":12300,"BASKET":12301,"CARRIAGE":12302,"Crates":12303,"Fifth":12304,"MLB":12305,"Mirror":12306,"Mounted":12307,"atrium":12308,"taxidermy":12309,"sombrero":12310,"BRIDGE":12311,"Clouds":12312,"Eliza":12313,"Guitar":12314,"Malays":12315,"MICRO":12316,"fierce":12317,"scallions":12318,"marquee":12319,"mysterious":12320,"FRIENDS":12321,"ABOVE":12322,"Gothic":12323,"Rodeo":12324,"Short":12325,"VARI":12326,"Wedding":12327,"dismantled":12328,"prosciutto":12329,"PASTURE":12330,"16":12331,"29":12332,"90":12333,"AUR":12334,"Blo":12335,"Ball":12336,"Bru":12337,"But":12338,"BUT":12339,"Butter":12340,"Cer":12341,"Cir":12342,"Cru":12343,"CRA":12344,"Cooking":12345,"DJ":12346,"During":12347,"Dual":12348,"DRESS":12349,"Each":12350,"Emer":12351,"Fo":12352,"Furn":12353,"Fash":12354,"Goo":12355,"HAM":12356,"IAL":12357,"Ipod":12358,"Kn":12359,"Ken":12360,"Kni":12361,"KLM":12362,"Lounge":12363,"Mis":12364,"Mets":12365,"MON":12366,"Mary":12367,"Near":12368,"OT":12369,"Ox":12370,"OKING":12371,"Pad":12372,"Pine":12373,"PAL":12374,"PRA":12375,"Riders":12376,"Spa":12377,"SWI":12378,"SCHOO":12379,"Tar":12380,"Twelve":12381,"Va":12382,"VIS":12383,"WTH":12384,"WEDDING":12385,"aa":12386,"bine":12387,"cinder":12388,"dice":12389,"dalmation":12390,"ez":12391,"fs":12392,"flap":12393,"fading":12394,"gul":12395,"hurt":12396,"hundred":12397,"iac":12398,"lvan":12399,"mickey":12400,"oin":12401,"preen":12402,"ranges":12403,"sched":12404,"sash":12405,"sinking":12406,"swords":12407,"sending":12408,"tangle":12409,"ule":12410,"uter":12411,"vod":12412,"vign":12413,"vitam":12414,"wy":12415,"waring":12416,"wars":12417,"xy":12418,"ygen":12419,"zona":12420,"inj":12421,"infamous":12422,"anian":12423,"thr":12424,"ths":12425,"thou":12426,"thir":12427,"thri":12428,"eranian":12429,"arf":12430,"aran":12431,"atar":12432,"atown":12433,"atora":12434,"leeks":12435,"rein":12436,"replaced":12437,"reacting":12438,"representing":12439,"thed":12440,"wipe":12441,"wiring":12442,"robin":12443,"stoned":12444,"omic":12445,"chic":12446,"chie":12447,"edged":12448,"lama":12449,"espe":12450,"ckles":12451,"etland":12452,"bovine":12453,"manmade":12454,"lod":12455,"loses":12456,"locomotives":12457,"please":12458,"whirl":12459,"beaked":12460,"hopping":12461,"hoisted":12462,"tap":12463,"tast":12464,"taping":12465,"peg":12466,"unwrapped":12467,"unplugged":12468,"untouched":12469,"hest":12470,"itement":12471,"toped":12472,"skilled":12473,"sse":12474,"ller":12475,"llies":12476,"idea":12477,"sewer":12478,"plung":12479,"buck":12480,"buckled":12481,"dood":12482,"doves":12483,"whiteboard":12484,"ception":12485,"shabby":12486,"partaking":12487,"parading":12488,"theres":12489,"stree":12490,"ffs":12491,"smoked":12492,"clover":12493,"downed":12494,"largely":12495,"umps":12496,"undone":12497,"wagging":12498,"redheaded":12499,"carpets":12500,"carcass":12501,"snows":12502,"pike":12503,"fort":12504,"limp":12505,"surge":12506,"surger":12507,"ruined":12508,"elements":12509,"outline":12510,"outcrop":12511,"commod":12512,"compared":12513,"skateboarded":12514,"tear":12515,"overripe":12516,"decre":12517,"drant":12518,"llamas":12519,"frosty":12520,"epads":12521,"disks":12522,"disassembled":12523,"brave":12524,"mack":12525,"maps":12526,"singer":12527,"yells":12528,"handrails":12529,"browned":12530,"conce":12531,"concess":12532,"contending":12533,"batman":12534,"giraffee":12535,"quis":12536,"quad":12537,"Thick":12538,"Thanks":12539,"dimens":12540,"scrubs":12541,"scantily":12542,"plaster":12543,"headphone":12544,"drill":12545,"dribbles":12546,"rickshaw":12547,"agree":12548,"prepped":12549,"prepping":12550,"mirates":12551,"assis":12552,"assist":12553,"lookout":12554,"slid":12555,"slider":12556,"blings":12557,"chee":12558,"studies":12559,"save":12560,"engages":12561,"soar":12562,"soiled":12563,"fulled":12564,"sunbathers":12565,"tiers":12566,"gue":12567,"guine":12568,"noyed":12569,"boxer":12570,"meand":12571,"meant":12572,"worth":12573,"olf":12574,"rushes":12575,"longing":12576,"bottoms":12577,"cheddar":12578,"bert":12579,"varied":12580,"cue":12581,"curves":12582,"papered":12583,"marath":12584,"marmal":12585,"ANOTHER":12586,"essential":12587,"ISH":12588,"barstools":12589,"suspic":12590,"dishing":12591,"Wiimote":12592,"duster":12593,"psy":12594,"creatures":12595,"bridled":12596,"juana":12597,"darkly":12598,"modeling":12599,"users":12600,"usion":12601,"excellent":12602,"exception":12603,"workbench":12604,"spears":12605,"astride":12606,"jects":12607,"cookbook":12608,"pride":12609,"feeders":12610,"timey":12611,"lampposts":12612,"intended":12613,"loader":12614,"accor":12615,"whether":12616,"gril":12617,"saucepan":12618,"dinnerware":12619,"mingling":12620,"geared":12621,"footlong":12622,"kneepads":12623,"interacts":12624,"STAT":12625,"STRA":12626,"LAKE":12627,"medi":12628,"ENCLO":12629,"messenger":12630,"spooning":12631,"Streets":12632,"Skis":12633,"crink":12634,"kickflip":12635,"netbook":12636,"rooftops":12637,"mitten":12638,"HOLE":12639,"CKER":12640,"smartphones":12641,"collected":12642,"crutches":12643,"nacks":12644,"sylvan":12645,"propellors":12646,"writings":12647,"Stir":12648,"kerchief":12649,"streamlined":12650,"italian":12651,"collars":12652,"colliding":12653,"competitors":12654,"rotating":12655,"legally":12656,"dedicated":12657,"completed":12658,"flutes":12659,"individually":12660,"charity":12661,"Guard":12662,"frisbie":12663,"USB":12664,"protects":12665,"folds":12666,"delicate":12667,"multicolor":12668,"TRASH":12669,"Toyo":12670,"Colgate":12671,"crusts":12672,"magnific":12673,"Bank":12674,"chestnut":12675,"scraps":12676,"momma":12677,"NEW":12678,"jammed":12679,"iseshell":12680,"Beef":12681,"talkie":12682,"musicians":12683,"wakeboarder":12684,"arrival":12685,"slowing":12686,"Post":12687,"casino":12688,"Legs":12689,"ensive":12690,"sparrow":12691,"attracts":12692,"dances":12693,"danish":12694,"cartoons":12695,"CAP":12696,"peeler":12697,"Feet":12698,"ACHING":12699,"Read":12700,"excitement":12701,"oxygen":12702,"politician":12703,"valent":12704,"amazed":12705,"GIES":12706,"stomachs":12707,"brilli":12708,"piggy":12709,"PICK":12710,"sumo":12711,"regarding":12712,"facet":12713,"bordering":12714,"breasted":12715,"crumb":12716,"renovations":12717,"200":12718,"20th":12719,"NEARBY":12720,"campsite":12721,"SHOP":12722,"drainage":12723,"Germany":12724,"gallop":12725,"gallops":12726,"brownish":12727,"wrestle":12728,"BUILDINGS":12729,"zipping":12730,"booties":12731,"beaten":12732,"functional":12733,"crowed":12734,"gowns":12735,"Unique":12736,"animation":12737,"general":12738,"Engine":12739,"Potatoes":12740,"mmm":12741,"pearls":12742,"overlooked":12743,"pendant":12744,"bathes":12745,"Nordic":12746,"Tea":12747,"Helmet":12748,"pleasure":12749,"protrudes":12750,"Electronics":12751,"MOTORCYCLES":12752,"dollop":12753,"billows":12754,"succu":12755,"Farmers":12756,"sundaes":12757,"skewered":12758,"shoveling":12759,"swirl":12760,"ORANGES":12761,"Cathedral":12762,"prominently":12763,"wispy":12764,"artichoke":12765,"FACE":12766,"manipul":12767,"cutouts":12768,"Desserts":12769,"lavishly":12770,"RESTAUR":12771,"DOUBLE":12772,"envelopes":12773,"experiment":12774,"original":12775,"trimmings":12776,"armored":12777,"creatively":12778,"installing":12779,"installation":12780,"stabbed":12781,"PASSENG":12782,"dolphins":12783,"professionally":12784,"Volkswagon":12785,"Terrier":12786,"developed":12787,"north":12788,"judges":12789,"MARKET":12790,"refrigerated":12791,"Candles":12792,"journey":12793,"clippings":12794,"grimaces":12795,"DOUGHNUTS":12796,"Strange":12797,"recessed":12798,"PLATES":12799,"KEYBOARD":12800,"CAMERA":12801,"Shoes":12802,"Super":12803,"refreshments":12804,"REFLE":12805,"twirling":12806,"motorcylce":12807,"executes":12808,"Pickup":12809,"cilantro":12810,"vivid":12811,"quantity":12812,"Scottish":12813,"Williams":12814,"FURNIT":12815,"require":12816,"TURN":12817,"Taxi":12818,"sturdy":12819,"bleeding":12820,"definitely":12821,"Pennsylvan":12822,"yawns":12823,"Floral":12824,"adolescent":12825,"foothills":12826,"APPLIANCES":12827,"Continental":12828,"Storm":12829,"feminine":12830,"croutons":12831,"cupola":12832,"simultaneously":12833,"VEGGIES":12834,"extravagant":12835,"Historic":12836,"Retriever":12837,"Elizabeth":12838,"Fashion":12839,"PRACT":12840,"SCHOOL":12841,"atorade":12842,"concession":12843,"dimensional":12844,"guinea":12845,"marathon":12846,"marmalade":12847,"Toyota":12848,"magnificent":12849,"RESTAURANT":12850,"FURNITURE":12851,"Pennsylvania":12852,").":12853,"32":12854,"38":12855,"AG":12856,"Aut":12857,"AGES":12858,"Bak":12859,"Brand":12860,"Ces":12861,"Cha":12862,"Cath":12863,"Clow":12864,"CED":12865,"Cany":12866,"CRT":12867,"Camp":12868,"Da":12869,"Dom":12870,"Does":12871,"Dew":12872,"DUR":12873,"Diners":12874,"Fu":12875,"Fit":12876,"Fold":12877,"Falls":12878,"Ground":12879,"Hero":12880,"Houses":12881,"Its":12882,"Iphone":12883,"Images":12884,"Jew":12885,"KNI":12886,"Lay":12887,"MM":12888,"Mi":12889,"Mel":12890,"Mem":12891,"Now":12892,"Ob":12893,"Oven":12894,"PM":12895,"Ple":12896,"Pom":12897,"Pup":12898,"Playing":12899,"Pull":12900,"PAT":12901,"Phone":12902,"Pret":12903,"Rh":12904,"Ron":12905,"Rand":12906,"Reno":12907,"Shar":12908,"Smart":12909,"Syd":12910,"Tr":12911,"Ther":12912,"TAR":12913,"TTY":12914,"Tupperware":12915,"Wr":12916,"Wet":12917,"Who":12918,"Waff":12919,"Youth":12920,"acon":12921,"acked":12922,"acing":12923,"cate":12924,"clin":12925,"crests":12926,"ctacle":12927,"fant":12928,"hull":12929,"iors":12930,"jay":12931,"kreme":12932,"later":12933,"munch":12934,"muters":12935,"migr":12936,"nu":12937,"nal":12938,"nies":12939,"oke":12940,"prow":12941,"rye":12942,"rical":12943,"swat":12944,"send":12945,"swell":12946,"scones":12947,"twe":12948,"tye":12949,"till":12950,"twine":12951,"tupperware":12952,"uk":12953,"uss":12954,"usted":12955,"uctive":12956,"vying":12957,"wishes":12958,"inflated":12959,"inatown":12960,"ontop":12961,"onni":12962,"erase":12963,"erals":12964,"arin":12965,"atoo":12966,"lever":12967,"reau":12968,"reporter":12969,"toga":12970,"thest":12971,"wie":12972,"roit":12973,"routes":12974,"ences":12975,"stern":12976,"alight":12977,"ometer":12978,"chart":12979,"chance":12980,"chokes":12981,"rable":12982,"raise":12983,"lacy":12984,"lamin":12985,"ladel":12986,"lacrosse":12987,"boast":12988,"idge":12989,"manger":12990,"looming":12991,"necked":12992,"negle":12993,"negoti":12994,"whi":12995,"whats":12996,"whizz":12997,"wharf":12998,"bellow":12999,"hoe":13000,"hosing":13001,"tackling":13002,"igs":13003,"upturned":13004,"pew":13005,"pebbles":13006,"ardi":13007,"icon":13008,"unbrella":13009,"unpainted":13010,"untied":13011,"unfolded":13012,"uncomfortable":13013,"layout":13014,"bleak":13015,"trapped":13016,"addled":13017,"atever":13018,"bail":13019,"bails":13020,"bureau":13021,"doo":13022,"dodge":13023,"cemet":13024,"playroom":13025,"shire":13026,"oda":13027,"odor":13028,"grou":13029,"streaking":13030,"graham":13031,"core":13032,"coop":13033,"terra":13034,"phia":13035,"phys":13036,"rib":13037,"ume":13038,"unding":13039,"acher":13040,"lus":13041,"lution":13042,"posh":13043,"redone":13044,"flor":13045,"sno":13046,"foi":13047,"movable":13048,"antlers":13049,"watercraft":13050,"rubb":13051,"weap":13052,"bedspreads":13053,"mented":13054,"menacing":13055,"comp":13056,"compar":13057,"combed":13058,"commen":13059,"impressed":13060,"immedi":13061,"wintry":13062,"zzles":13063,"teachers":13064,"beachfront":13065,"dew":13066,"dees":13067,"girlfriend":13068,"chilling":13069,"drical":13070,"shear":13071,"bras":13072,"boaters":13073,"handset":13074,"contented":13075,"liter":13076,"croquet":13077,"app":13078,"bannister":13079,"surfboarders":13080,"Thin":13081,"divers":13082,"diorama":13083,"treetops":13084,"runaway":13085,"lindrical":13086,"fender":13087,"ctioned":13088,"plaques":13089,"fathers":13090,"shoving":13091,"sandwiched":13092,"THDAY":13093,"agues":13094,"precar":13095,"dougn":13096,"viewpoint":13097,"oceans":13098,"hyr":13099,"hybrid":13100,"hyrd":13101,"lookign":13102,"settee":13103,"slou":13104,"chewed":13105,"checkers":13106,"sored":13107,"plats":13108,"rental":13109,"pasted":13110,"hangers":13111,"nozzle":13112,"hauled":13113,"boxers":13114,"boxcar":13115,"boxcars":13116,"spind":13117,"worm":13118,"prohibit":13119,"propane":13120,"promotional":13121,"vised":13122,"talbe":13123,"mond":13124,"matter":13125,"matress":13126,"REALLY":13127,"emptying":13128,"bines":13129,"wholly":13130,"ANCH":13131,"homeplate":13132,"suv":13133,"riverboat":13134,"answ":13135,"crescent":13136,"intersections":13137,"pursu":13138,"purposed":13139,"juices":13140,"greets":13141,"ATOR":13142,"modem":13143,"zookeeper":13144,"tribu":13145,"triangles":13146,"triumph":13147,"shave":13148,"shaves":13149,"styling":13150,"specially":13151,"shelfs":13152,"cooktop":13153,"hush":13154,"prone":13155,"included":13156,"pickled":13157,"Cham":13158,"Chinatown":13159,"patting":13160,"kennel":13161,"struck":13162,"cylindrical":13163,"shores":13164,"carriers":13165,"THERED":13166,"grin":13167,"jumpsuit":13168,"sailboard":13169,"wrangling":13170,"strate":13171,"footpath":13172,"linger":13173,"lessons":13174,"swimsuits":13175,"STILL":13176,"LAUGH":13177,"earlier":13178,"medals":13179,"medley":13180,"toasters":13181,"ENJO":13182,"clicking":13183,"CHER":13184,"soups":13185,"Inn":13186,"Indoor":13187,"grills":13188,"trashcans":13189,"harmon":13190,"hoods":13191,"framing":13192,"production":13193,"supreme":13194,"HOLD":13195,"circuit":13196,"circling":13197,"advertised":13198,"mired":13199,"straddle":13200,"walkways":13201,"seductive":13202,"syn":13203,"valve":13204,"warped":13205,"pipeline":13206,"ICING":13207,"candlelight":13208,"electricity":13209,"sculpted":13210,"IDES":13211,"Eleven":13212,"final":13213,"turbines":13214,"eyeing":13215,"DOCK":13216,"icots":13217,"octagon":13218,"personalized":13219,"snail":13220,"sixt":13221,"bullpen":13222,"paintbrush":13223,"fluore":13224,"SUB":13225,"drooping":13226,"clams":13227,"Commuters":13228,"cornbread":13229,"Colored":13230,"firm":13231,"furnishing":13232,"UNCH":13233,"multis":13234,"Onions":13235,"volks":13236,"WHAT":13237,"Heal":13238,"UPS":13239,"ceramics":13240,"servicing":13241,"calfs":13242,"ratchet":13243,"witch":13244,"witches":13245,"NECK":13246,"grandma":13247,"grandmother":13248,"PART":13249,"Paras":13250,"Party":13251,"illuminating":13252,"AMONG":13253,"shutter":13254,"Behind":13255,"WATERS":13256,"ASES":13257,"cashe":13258,"cello":13259,"Left":13260,"Pairs":13261,"Hotdog":13262,"example":13263,"examined":13264,"sleeved":13265,"dancer":13266,"Fork":13267,"splashed":13268,"Buff":13269,"textbook":13270,"CATS":13271,"lieing":13272,"shapped":13273,"Airline":13274,"cubical":13275,"cubicles":13276,"POLAR":13277,"PACK":13278,"puddles":13279,"ULL":13280,"arrayed":13281,"beanbag":13282,"snuggle":13283,"hearth":13284,"regal":13285,"occupants":13286,"bumps":13287,"checkout":13288,"waxed":13289,"cautiously":13290,"expressions":13291,"Tourist":13292,"2013":13293,"Speed":13294,"Special":13295,"CLEAN":13296,"CLEAR":13297,"poppy":13298,"Crossing":13299,"confine":13300,"FEEDING":13301,"culinary":13302,"fueling":13303,"releases":13304,"BRANCH":13305,"Numerals":13306,"Amish":13307,"Lonely":13308,"latte":13309,"FIVE":13310,"dumped":13311,"dummies":13312,"lorry":13313,"flushed":13314,"Prote":13315,"floret":13316,"DECKER":13317,"MAKING":13318,"PUTTING":13319,"enthused":13320,"webcam":13321,"sandwhiches":13322,"Sidewalk":13323,"effort":13324,"Traditional":13325,"clippers":13326,"Warning":13327,"Isra":13328,"receiver":13329,"violet":13330,"wristband":13331,"Nighttime":13332,"recreation":13333,"THINGS":13334,"stays":13335,"foots":13336,"monochrome":13337,"safely":13338,"Toys":13339,"zooming":13340,"Doughnut":13341,"Grapes":13342,"transformed":13343,"HOTEL":13344,"Kingdom":13345,"somber":13346,"strokes":13347,"dunking":13348,"Eastern":13349,"Tagged":13350,"tastefully":13351,"pumping":13352,"mosquito":13353,"Toothbrush":13354,"Toothpaste":13355,"minimalist":13356,"COLOR":13357,"scouts":13358,"popsicle":13359,"abundant":13360,"congratulating":13361,"Cubs":13362,"FLOWER":13363,"Teenager":13364,"Everything":13365,"Microsoft":13366,"artichokes":13367,"PRODU":13368,"fifty":13369,"mower":13370,"scoreboard":13371,"wrenches":13372,"Downtown":13373,"scrubby":13374,"cranberries":13375,"boutonni":13376,"highest":13377,"silos":13378,"escorting":13379,"George":13380,"develop":13381,"pamphlet":13382,"since":13383,"beetle":13384,"Salad":13385,"fascinated":13386,"disembark":13387,"DONUT":13388,"DONUTS":13389,"Fully":13390,"SETTING":13391,"COLATE":13392,"Elvis":13393,"dwarfed":13394,"eastern":13395,"mimicking":13396,"appreciating":13397,"PRETTY":13398,"SWINGING":13399,"Twp":13400,"stamps":13401,"Atlanta":13402,"CURB":13403,"Holid":13404,"Irish":13405,"Jeep":13406,"LINED":13407,"tortoiseshell":13408,"suburbs":13409,"Advertising":13410,"Motorola":13411,"Toasted":13412,"technique":13413,"Arizona":13414,"Oakland":13415,"blizzard":13416,"refueling":13417,"EYE":13418,"Simps":13419,"caddy":13420,"dwelling":13421,"slushy":13422,"lakeside":13423,"unicorn":13424,"complicated":13425,"bannan":13426,"canadian":13427,"exactly":13428,"intriguing":13429,"Cream":13430,"Extreme":13431,"Getting":13432,"PURPLE":13433,"Striped":13434,"gnawing":13435,"zuki":13436,"sauteed":13437,"APPEARS":13438,"gourds":13439,"slug":13440,"uneven":13441,"retaining":13442,"negative":13443,"caterpillar":13444,"apricots":13445,"expect":13446,"intertwined":13447,"lattice":13448,"Mushrooms":13449,"Vietnamese":13450,"Camera":13451,"Detroit":13452,"Venice":13453,"delectable":13454,"whimsical":13455,"british":13456,"CHOCOLATE":13457,"TEETH":13458,"MICROWAVE":13459,"VARIETY":13460,"Emergency":13461,"Google":13462,"Knife":13463,"SWIMM":13464,"vodka":13465,"thousands":13466,"especially":13467,"surgery":13468,"decrepit":13469,"Thanksgiving":13470,"STATUE":13471,"Helmeted":13472,"Bakery":13473,"Canyon":13474,"Pretty":13475,"Sydney":13476,"ctacled":13477,"cemetary":13478,"rubbish":13479,"LAUGHING":13480,"ENJOYING":13481,"fluorescent":13482,"boutonniere":13483,",,":13484,"17":13485,"3d":13486,"42":13487,"Aer":13488,"Abo":13489,"Ahead":13490,"Apartment":13491,"Aband":13492,"ACROSS":13493,"Bon":13494,"Bis":13495,"Bow":13496,"Border":13497,"Branch":13498,"Cit":13499,"Care":13500,"Cam":13501,"Caut":13502,"CTOR":13503,"Cyclist":13504,"Ed":13505,"Eating":13506,"Earth":13507,"Emirates":13508,"FC":13509,"Fin":13510,"Fro":13511,"Fra":13512,"Fig":13513,"Fries":13514,"FLA":13515,"Ga":13516,"Gor":13517,"God":13518,"Grown":13519,"Gay":13520,"GER":13521,"GAR":13522,"Ginger":13523,"Hall":13524,"Hard":13525,"IV":13526,"JA":13527,"Jones":13528,"Jeff":13529,"Lat":13530,"LAN":13531,"Law":13532,"MY":13533,"MOM":13534,"Mature":13535,"Must":13536,"Ni":13537,"NIC":13538,"Nutella":13539,"Of":13540,"Ostri":13541,"PY":13542,"Pas":13543,"PIT":13544,"Qantas":13545,"Race":13546,"Spo":13547,"Sca":13548,"Slow":13549,"Saf":13550,"TAN":13551,"TILE":13552,"TIGN":13553,"Ut":13554,"VAN":13555,"Wo":13556,"Whole":13557,"Waves":13558,"Zone":13559,"acou":13560,"afro":13561,"bred":13562,"bber":13563,"brows":13564,"bility":13565,"ccentr":13566,"dj":13567,"ella":13568,"esting":13569,"fare":13570,"gic":13571,"gong":13572,"grun":13573,"hing":13574,"ifferent":13575,"iot":13576,"ji":13577,"jutting":13578,"lur":13579,"lum":13580,"lfie":13581,"lons":13582,"lorn":13583,"mc":13584,"mite":13585,"nod":13586,"olympic":13587,"pis":13588,"pun":13589,"poun":13590,"pion":13591,"pinto":13592,"ptacle":13593,"rin":13594,"rying":13595,"sch":13596,"sens":13597,"sened":13598,"tp":13599,"tation":13600,"turing":13601,"tummy":13602,"vin":13603,"veter":13604,"yn":13605,"zon":13606,"inthe":13607,"inset":13608,"incorpor":13609,"inquis":13610,"annoyed":13611,"thro":13612,"thomas":13613,"ergon":13614,"arre":13615,"atives":13616,"leagu":13617,"iter":13618,"itter":13619,"ition":13620,"itation":13621,"redo":13622,"rets":13623,"recover":13624,"remn":13625,"toting":13626,"thetic":13627,"istan":13628,"wile":13629,"wigs":13630,"ros":13631,"roaring":13632,"rout":13633,"romp":13634,"enas":13635,"stn":13636,"stting":13637,"staning":13638,"straining":13639,"alla":13640,"changes":13641,"raid":13642,"rags":13643,"laced":13644,"esca":13645,"orty":13646,"ironic":13647,"idy":13648,"manned":13649,"newest":13650,"bella":13651,"becoming":13652,"beaded":13653,"upclose":13654,"pectacled":13655,"icul":13656,"icans":13657,"icicles":13658,"uninstalled":13659,"unzipped":13660,"heveled":13661,"blems":13662,"skid":13663,"traff":13664,"tracted":13665,"traffice":13666,"addresses":13667,"admired":13668,"bagged":13669,"baza":13670,"budding":13671,"cost":13672,"coating":13673,"coals":13674,"ballpark":13675,"phistic":13676,"smash":13677,"amused":13678,"kee":13679,"closes":13680,"downstairs":13681,"hist":13682,"umping":13683,"umbella":13684,"unda":13685,"achu":13686,"luck":13687,"poline":13688,"foaming":13689,"forage":13690,"mooring":13691,"mogul":13692,"lien":13693,"livery":13694,"liberty":13695,"loosened":13696,"grassing":13697,"pawn":13698,"paused":13699,"watermelons":13700,"caying":13701,"caban":13702,"element":13703,"pugs":13704,"outwards":13705,"comics":13706,"compound":13707,"comparing":13708,"eatting":13709,"zzy":13710,"backlit":13711,"torches":13712,"plantain":13713,"tees":13714,"motorhome":13715,"decks":13716,"deodor":13717,"chipping":13718,"toiletry":13719,"eps":13720,"sheers":13721,"uly":13722,"ulting":13723,"braids":13724,"indifferent":13725,"treks":13726,"trellis":13727,"condo":13728,"conco":13729,"contor":13730,"conso":13731,"contrail":13732,"apor":13733,"trucking":13734,"died":13735,"diverse":13736,"scrubber":13737,"stooping":13738,"ggle":13739,"bowler":13740,"daybed":13741,"failing":13742,"facts":13743,"fabul":13744,"shoved":13745,"drier":13746,"drifts":13747,"drifting":13748,"dribbling":13749,"preserver":13750,"Pee":13751,"hyenas":13752,"dles":13753,"vegetated":13754,"INT":13755,"Manhat":13756,"cheap":13757,"ello":13758,"elbows":13759,"brat":13760,"brigh":13761,"nerd":13762,"said":13763,"sophistic":13764,"brook":13765,"arijuana":13766,"tipping":13767,"booklet":13768,"nobody":13769,"haze":13770,"meets":13771,"spig":13772,"sporty":13773,"bespectacled":13774,"olic":13775,"prom":13776,"problem":13777,"protestors":13778,"passer":13779,"longhorn":13780,"donalds":13781,"cler":13782,"clings":13783,"clumps":13784,"variations":13785,"pinkish":13786,"stein":13787,"highlights":13788,"ability":13789,"aki":13790,"applesauce":13791,"canning":13792,"canister":13793,"barns":13794,"knows":13795,"clouded":13796,"duo":13797,"dustrial":13798,"runways":13799,"fties":13800,"bridles":13801,"postal":13802,"exposing":13803,"shaven":13804,"aster":13805,"cookbooks":13806,"flair":13807,"LER":13808,"ERN":13809,"obscene":13810,"izers":13811,"flee":13812,"mally":13813,"mints":13814,"minute":13815,"balck":13816,"cartons":13817,"tarts":13818,"cracks":13819,"accept":13820,"famili":13821,"applied":13822,"pylons":13823,"flattened":13824,"TOWN":13825,"Grocer":13826,"spokes":13827,"faster":13828,"milks":13829,"versary":13830,"queue":13831,"modernized":13832,"intercept":13833,"lessly":13834,"STAIR":13835,"ROCK":13836,"wasaki":13837,"creams":13838,"earbuds":13839,"bury":13840,"LOAD":13841,"click":13842,"climber":13843,"Board":13844,"avi":13845,"avatar":13846,"RACE":13847,"devoid":13848,"souven":13849,"souffle":13850,"Skater":13851,"Industrial":13852,"lider":13853,"grime":13854,"farming":13855,"farmhouse":13856,"useful":13857,"windsurfs":13858,"tempting":13859,"attempted":13860,"lunches":13861,"steamboat":13862,"startled":13863,"crusty":13864,"actions":13865,"washers":13866,"washbasin":13867,"PEP":13868,"tomatos":13869,"nished":13870,"classy":13871,"comforters":13872,"booty":13873,"barefooted":13874,"swaddled":13875,"finch":13876,"grooms":13877,"turbine":13878,"TAKE":13879,"snacking":13880,"sibling":13881,"siblings":13882,"rotunda":13883,"shoeing":13884,"shoelace":13885,"IGER":13886,"oramic":13887,"bouquets":13888,"emph":13889,"simulated":13890,"EDGE":13891,"clam":13892,"clause":13893,"separates":13894,"bandages":13895,"Collie":13896,"patchy":13897,"ringed":13898,"coolers":13899,"pressure":13900,"Roast":13901,"Rolls":13902,"UNK":13903,"UNT":13904,"glis":13905,"centers":13906,"cheru":13907,"Snowy":13908,"attendees":13909,"fifties":13910,"sadly":13911,"weathervane":13912,"depiction":13913,"circled":13914,"operate":13915,"Vegas":13916,"Dock":13917,"companions":13918,"granddaughter":13919,"scatter":13920,"PARTY":13921,"jams":13922,"collabor":13923,"Bacon":13924,"Before":13925,"blindfold":13926,"pods":13927,"slabs":13928,"parachuting":13929,"receptacle":13930,"Pole":13931,"PHONES":13932,"CAKES":13933,"HEL":13934,"sweaty":13935,"badges":13936,"Buy":13937,"garnishes":13938,"Surfboard":13939,"floaters":13940,"POT":13941,"POOL":13942,"appearance":13943,"Britain":13944,"Cheesy":13945,"Prince":13946,"COOKING":13947,"Alpine":13948,"ELL":13949,"ELING":13950,"emerges":13951,"niche":13952,"niversary":13953,"SURFBOARD":13954,"spatulas":13955,"occupying":13956,"spicy":13957,"checkpoint":13958,"trampoline":13959,"BEDS":13960,"PLANES":13961,"TRY":13962,"TRYING":13963,"pagoda":13964,"sleds":13965,"jeeps":13966,"situation":13967,"belonging":13968,"carnation":13969,"Shred":13970,"Shadow":13971,"Shetland":13972,"informational":13973,"pouches":13974,"1960":13975,"50th":13976,"demonstrate":13977,"demonstrates":13978,"future":13979,"grapefruits":13980,"BIRTHDAY":13981,"plume":13982,"Interesting":13983,"BREAD":13984,"instructs":13985,"instructional":13986,"growling":13987,"dumb":13988,"sippy":13989,"ripeness":13990,"Packed":13991,"knickknacks":13992,"grammed":13993,"spaniel":13994,"Stairs":13995,"wastebasket":13996,"Panoramic":13997,"calculators":13998,"Stew":13999,"chuck":14000,"wondering":14001,"littering":14002,"receives":14003,"Cowboys":14004,"Upward":14005,"COMPUTERS":14006,"HIGHWAY":14007,"Pepper":14008,"victori":14009,"enthusiastic":14010,"Artwork":14011,"Club":14012,"SCEN":14013,"Gran":14014,"provided":14015,"Grass":14016,"somers":14017,"presidents":14018,"Husky":14019,"dunkin":14020,"mallet":14021,"title":14022,"consume":14023,"30th":14024,"horizontally":14025,"Cutting":14026,"Swans":14027,"skewer":14028,"McDonalds":14029,"thinks":14030,"feathered":14031,"THROWING":14032,"contemplates":14033,"CLOSED":14034,"Bottle":14035,"stitched":14036,"swirly":14037,"Cakes":14038,"cobbler":14039,"exhausted":14040,"Student":14041,"Neon":14042,"Patrick":14043,"blues":14044,"artifacts":14045,"Braves":14046,"fifteen":14047,"smoky":14048,"umberella":14049,"hatchback":14050,"specific":14051,"continues":14052,"experience":14053,"google":14054,"Muff":14055,"SAU":14056,"girraff":14057,"disposal":14058,"Perhaps":14059,"Retro":14060,"escort":14061,"peripheral":14062,"stenc":14063,"ascend":14064,"puffs":14065,"passageway":14066,"Competitors":14067,"Competitive":14068,"METER":14069,"Seated":14070,"judged":14071,"BICYCLES":14072,"gracefully":14073,"supported":14074,"citizen":14075,"journal":14076,"moderate":14077,"Hyde":14078,"segments":14079,"grimacing":14080,"sharpening":14081,"sharpener":14082,"TOOTHBRUSH":14083,"Bulls":14084,"Watch":14085,"civilians":14086,"tartar":14087,"caravan":14088,"screwdriver":14089,"Atlantic":14090,"Mattress":14091,"unaware":14092,"Chihuahua":14093,"dandelion":14094,"kabob":14095,"heaped":14096,"commuting":14097,"CABINETS":14098,"PAINTED":14099,"SIZE":14100,"nudging":14101,"phrase":14102,"primarily":14103,"Chopsticks":14104,"Automobile":14105,"After":14106,"Congratul":14107,"reporters":14108,"FRESH":14109,"Vendors":14110,"nachos":14111,"institutional":14112,"thirty":14113,"astounding":14114,"utilizing":14115,"Pelicans":14116,"martini":14117,"barbershop":14118,"firsbee":14119,"Applian":14120,"paragliding":14121,"girrafe":14122,"Furniture":14123,"Valent":14124,"lodged":14125,"tastes":14126,"essentials":14127,"STRAW":14128,"ENCLOSURE":14129,"manipulating":14130,"REFLECTION":14131,"Folded":14132,"Jewish":14133,"Memorial":14134,"laminate":14135,"neglected":14136,"foilage":14137,"comparison":14138,"contentedly":14139,"dougnuts":14140,"Healthy":14141,"cashews":14142,"Protesters":14143,"footstool":14144,"development":14145,"SWIMMING":14146,"Above":14147,"Abandoned":14148,"Caution":14149,"Utility":14150,"acoustic":14151,"inquisit":14152,"ergonomic":14153,"bazaar":14154,"fabulous":14155,"Manhattan":14156,"sophisticated":14157,"familiar":14158,"STAIRS":14159,"51":14160,"76":14161,"89":14162,"99":14163,"?\"":14164,"AF":14165,"AK":14166,"Aid":14167,"Ado":14168,"Ash":14169,"AGA":14170,"About":14171,"By":14172,"Cas":14173,"Clin":14174,"Cab":14175,"Corn":14176,"CONT":14177,"DRA":14178,"DAD":14179,"Duplicate":14180,"Equestri":14181,"EGG":14182,"Egyptian":14183,"Furry":14184,"GS":14185,"Gas":14186,"GRE":14187,"GLE":14188,"Hi":14189,"Hut":14190,"Hong":14191,"Isl":14192,"Iron":14193,"Jum":14194,"James":14195,"JET":14196,"Kong":14197,"LUNCH":14198,"Mall":14199,"MIT":14200,"Mama":14201,"NW":14202,"Nath":14203,"Oc":14204,"Pak":14205,"PEN":14206,"Phi":14207,"PIL":14208,"Peter":14209,"Pres":14210,"Phil":14211,"Right":14212,"Ray":14213,"Rena":14214,"RINK":14215,"RIGHT":14216,"Rug":14217,"Rams":14218,"Sat":14219,"Swi":14220,"Spar":14221,"Scra":14222,"SOU":14223,"TP":14224,"Tal":14225,"Too":14226,"Track":14227,"Trolley":14228,"TELE":14229,"Tech":14230,"Tigers":14231,"Ver":14232,"VERS":14233,"VCR":14234,"VASES":14235,"Woo":14236,"WET":14237,"Wrapped":14238,"Xbox":14239,"apo":14240,"afield":14241,"ault":14242,"aids":14243,"awake":14244,"bt":14245,"bong":14246,"bind":14247,"crun":14248,"cily":14249,"clydesdale":14250,"cultural":14251,"dont":14252,"dreads":14253,"dangled":14254,"ecla":14255,"email":14256,"eply":14257,"eccentr":14258,"fers":14259,"gree":14260,"hma":14261,"hous":14262,"hurry":14263,"hunches":14264,"ially":14265,"ique":14266,"ibility":14267,"jesus":14268,"joker":14269,"kilts":14270,"lle":14271,"ltry":14272,"mph":14273,"mort":14274,"marijuana":14275,"nigh":14276,"nights":14277,"oom":14278,"oeu":14279,"rer":14280,"rump":14281,"sul":14282,"slit":14283,"splat":14284,"solder":14285,"sorted":14286,"sown":14287,"slips":14288,"tling":14289,"uce":14290,"uve":14291,"vat":14292,"vapor":14293,"wur":14294,"wad":14295,"wish":14296,"yons":14297,"zi":14298,"zarre":14299,"insign":14300,"inde":14301,"insides":14302,"inhabit":14303,"invisible":14304,"inness":14305,"informing":14306,"anx":14307,"threes":14308,"onboard":14309,"arant":14310,"aries":14311,"lest":14312,"itated":14313,"ands":14314,"rearing":14315,"recycle":14316,"review":14317,"resp":14318,"toa":14319,"tog":14320,"toon":14321,"tolit":14322,"widesc":14323,"roping":14324,"roles":14325,"eners":14326,"encom":14327,"stances":14328,"chy":14329,"chers":14330,"chari":14331,"charms":14332,"chilies":14333,"rad":14334,"racco":14335,"radish":14336,"ragged":14337,"rages":14338,"lam":14339,"laun":14340,"lashes":14341,"oured":14342,"esa":14343,"ldog":14344,"ories":14345,"idas":14346,"idiot":14347,"loc":14348,"lovers":14349,"alling":14350,"plex":14351,"plets":14352,"gel":14353,"gey":14354,"whatever":14355,"beware":14356,"hollow":14357,"hops":14358,"hogs":14359,"hobby":14360,"hosts":14361,"erson":14362,"tabl":14363,"taker":14364,"taught":14365,"pecans":14366,"icians":14367,"unhealthy":14368,"hells":14369,"bleacher":14370,"ske":14371,"verly":14372,"llic":14373,"urer":14374,"adn":14375,"adent":14376,"addition":14377,"ielding":14378,"ieving":14379,"pler":14380,"plying":14381,"buiding":14382,"fring":14383,"france":14384,"frilly":14385,"shallows":14386,"odds":14387,"odiac":14388,"aircrafts":14389,"cope":14390,"cocker":14391,"coaching":14392,"ballon":14393,"ballroom":14394,"smal":14395,"amtrak":14396,"amaran":14397,"cough":14398,"couscou":14399,"unde":14400,"pota":14401,"popul":14402,"poem":14403,"flurry":14404,"flank":14405,"snowball":14406,"moting":14407,"motions":14408,"twood":14409,"pian":14410,"piper":14411,
[...]
