{"version":"1.0","truncation":null,"padding":null,"added_tokens":[{"id":0,"special":true,"content":"[UNK]","single_word":false,"lstrip":false,"rstrip":false,"normalized":false},{"id":1,"special":true,"content":"[CLS]","single_word":false,"lstrip":false,"rstrip":false,"normalized":false},{"id":2,"special":true,"content":"[SEP]","single_word":false,"lstrip":false,"rstrip":false,"normalized":false},{"id":3,"special":true,"content":"[PAD]","single_word":false,"lstrip":false,"rstrip":false,"normalized":false},{"id":4,"special":true,"content":"[MASK]","single_word":false,"lstrip":false,"rstrip":false,"normalized":false},{"id":5,"special":true,"content":"<|startoftext|>","single_word":false,"lstrip":false,"rstrip":false,"normalized":false},{"id":6,"special":true,"content":"<|endoftext|>","single_word":false,"lstrip":false,"rstrip":false,"normalized":false}],"normalizer":null,"pre_tokenizer":{"type":"Whitespace"},"post_processor":null,"decoder":null,"model":{"dropout":null,"unk_token":"[UNK]","continuing_subword_prefix":null,"end_of_word_suffix":null,"fuse_unk":false,"vocab":{"[UNK]":0,"[CLS]":1,"[SEP]":2,"[PAD]":3,"[MASK]":4,"<|startoftext|>":5,"<|endoftext|>":6,"!":7,"\"":8,"%":9,"&":10,"'":11,"(":12,")":13,",":14,"-":15,".":16,"/":17,"0":18,"1":19,"2":20,"3":21,"4":22,"5":23,"8":24,"9":25,":":26,";":27,"=":28,"?":29,"\\":30,"`":31,"a":32,"b":33,"c":34,"d":35,"e":36,"f":37,"g":38,"h":39,"i":40,"j":41,"k":42,"l":43,"m":44,"n":45,"o":46,"p":47,"q":48,"r":49,"s":50,"t":51,"u":52,"v":53,"w":54,"x":55,"y":56,"z":57,"�":58,"th":59,"an":60,"and":61,"bi":62,"ll":63,"wi":64,"is":65,"rd":66,"bird":67,"as":68,"ow":69,"ck":70,"re":71,"la":72,"it":73,"with":74,"has":75,"ng":76,"bla":77,"black":78,"be":79,"this":80,"wh":81,"row":82,"ite":83,"white":84,"rown":85,"ye":86,"brown":87,"the":88,"or":89,"wing":90,"ma":91,"at":92,"ak":93,"ed":94,"beak":95,"in":96,"lly":97,"belly":98,"ri":99,"sma":100,"small":101,"ea":102,"wings":103,"yell":104,"yellow":105,"lo":106,"bill":107,"ar":108,"gre":109,"co":110,"ge":111,"er":112,"long":113,"po":114,"ast":115,"bre":116,"breast":117,"grey":118,"red":119,"st":120,"crown":121,"sh":122,"that":123,"ead":124,"head":125,"eye":126,"int":127,"on":128,"es":129,"point":130,"its":131,"ro":132,"ra":133,"gh":134,"are":135,"en":136,"bo":137,"ort":138,"gra":139,"ght":140,"ange":141,"gray":142,"ch":143,"orange":144,"short":145,"bod":146,"lar":147,"body":148,"ver":149,"lu":150,"eathe":151,"feathe":152,"feather":153,"il":154,"lor":155,"color":156,"feathers":157,"of":158,"thro":159,"ee":160,"ta":161,"nd":162,"blu":163,"pe":164,"throat":165,"li":166,"blue":167,"large":168,"ti":169,"tail":170,"pointed":171,"ark":172,"si":173,"very":174,"dark":175,"ars":176,"ring":177,"light":178,"ba":179,"pointy":180,"back":181,"le":182,"cu":183,"green":184,"fee":185,"ly":186,"feet":187,"und":188,"stri":189,"ries":190,"um":191,"ing":192,"eyes":193,"to":194,"pot":195,"spot":196,"bri":197,"ne":198,"pat":199,"bright":200,"med":201,"neck":202,"ium":203,"medium":204,"siz":205,"mo":206,"patch":207,"colo":208,"colored":209,"strip":210,"se":211,"om":212,"bars":213,"us":214,"na":215,"cur":216,"ve":217,"nape":218,"ul":219,"curv":220,"sized":221,"tars":222,"led":223,"spe":224,"speck":225,"tarsus":226,"par":227,"all":228,"che":229,"cond":230,"second":231,"pri":232,"ce":233,"most":234,"prima":235,"chest":236,"de":237,"wingbars":238,"aries":239,"ut":240,"eek":241,"shar":242,"sharp":243,"curved":244,"secondaries":245,"ish":246,"we":247,"eyering":248,"cheek":249,"ts":250,"tri":251,"cular":252,"parti":253,"tan":254,"particular":255,"ful":256,"speckled":257,"ted":258,"primaries":259,"brow":260,"mostly":261,"ab":262,"dom":263,"tip":264,"abdom":265,"abdomen":266,"cover":267,"spotted":268,"al":269,"eyebrow":270,"fa":271,"tin":272,"tric":273,"up":274,"round":275,"spots":276,"under":277,"trices":278,"colorful":279,"rest":280,"mp":281,"striped":282,"des":283,"coverts":284,"out":285,"cove":286,"lit":287,"tle":288,"own":289,"side":290,"face":291,"little":292,"down":293,"rings":294,"over":295,"thi":296,"rec":297,"leg":298,"legs":299,"ary":300,"tiny":301,"stripes":302,"well":303,"thin":304,"ok":305,"comp":306,"stripe":307,"rectrices":308,"ound":309,"around":310,"inn":311,"erc":312,"sup":313,"thick":314,"superc":315,"plu":316,"ent":317,"fla":318,"ard":319,"covering":320,"sha":321,"so":322,"flat":323,"ome":324,"some":325,"ex":326,"pin":327,"along":328,"end":329,"ili":330,"top":331,"ur":332,"pink":333,"supercili":334,"ward":335,"web":336,"bed":337,"ff":338,"patches":339,"webbed":340,"superciliary":341,"ha":342,"downward":343,"rea":344,"ped":345,"for":346,"by":347,"sk":348,"size":349,"king":350,"arrow":351,"darker":352,"narrow":353,"rom":354,"inny":355,"skinny":356,"ear":357,"sides":358,"ac":359,"mar":360,"his":361,"stre":362,"tips":363,"ure":364,"but":365,"streak":366,"big":367,"ely":368,"sp":369,"mi":370,"from":371,"ight":372,"slight":373,"stra":374,"ru":375,"mage":376,"ared":377,"mul":378,"straight":379,"ugh":380,"ho":381,"compared":382,"vi":383,"plumage":384,"go":385,"ream":386,"look":387,"��":388,"ter":389,"cream":390,"ub":391,"bea":392,"marking":393,"through":394,"wide":395,"bar":396,"cep":397,"eyebrows":398,"excep":399,"tt":400,"ion":401,"coloring":402,"hook":403,"outer":404,"ffy":405,"ant":406,"tern":407,"whi":408,"slightly":409,"qu":410,"dis":411,"les":412,"which":413,"fe":414,"ump":415,"multi":416,"ile":417,"wo":418,"ubby":419,"rounded":420,"while":421,"also":422,"vent":423,"ld":424,"tive":425,"pattern":426,"ke":427,"per":428,"markings":429,"hooked":430,"rump":431,"underbelly":432,"shades":433,"ir":434,"mix":435,"let":436,"nt":437,"ton":438,"pa":439,"retrices":440,"except":441,"mott":442,"streaks":443,"lend":444,"distin":445,"distinc":446,"covered":447,"fl":448,"two":449,"throughout":450,"uti":451,"beauti":452,"gu":453,"lli":454,"redd":455,"reddish":456,"wat":457,"ank":458,"mottled":459,"gold":460,"pale":461,"beautiful":462,"flank":463,"complet":464,"like":465,"ap":466,"stubby":467,"urp":468,"curves":469,"water":470,"crest":471,"purp":472,"lighter":473,"completely":474,"enti":475,"flu":476,"colors":477,"tipped":478,"wingbar":479,"ature":480,"du":481,"purple":482,"entire":483,"br":484,"cent":485,"ss":486,"plump":487,"pan":488,"brownish":489,"un":490,"inner":491,"fluffy":492,"fat":493,"ige":494,"me":495,"wingspan":496,"beige":497,"speckles":498,"tones":499,"feature":500,"looking":501,"lid":502,"gular":503,"app":504,"solid":505,"shin":506,"cen":507,"near":508,"features":509,"almost":510,"have":511,"con":512,"trian":513,"ext":514,"shiny":515,"ot":516,"sto":517,"accen":518,"malar":519,"lender":520,"slender":521,"yello":522,"greenish":523,"area":524,"breasts":525,"grayish":526,"smaller":527,"ross":528,"appear":529,"wish":530,"triangular":531,"yellowish":532,"fo":533,"pu":534,"downwards":535,"underside":536,"across":537,"larger":538,"multicolored":539,"birds":540,"upper":541,"accents":542,"mach":543,"stomach":544,"rily":545,"primarily":546,"distinctive":547,"eyerings":548,"pro":549,"rust":550,"port":551,"breasted":552,"com":553,"abo":554,"ere":555,"ding":556,"off":557,"lin":558,"ngth":559,"portion":560,"length":561,"shaped":562,"ting":563,"golden":564,"ry":565,"sil":566,"ther":567,"ic":568,"overall":569,"rela":570,"rides":571,"stout":572,"covert":573,"undertail":574,"thigh":575,"vibr":576,"vibrant":577,"stand":578,"irides":579,"feathered":580,"pred":581,"ied":582,"omin":583,"predomin":584,"into":585,"iridescent":586,"dull":587,"mixed":588,"bodied":589,"tu":590,"ation":591,"above":592,"belli":593,"spi":594,"relative":595,"entirely":596,"ad":597,"bellied":598,"low":599,"greyish":600,"silver":601,"di":602,"bot":603,"ated":604,"proportion":605,"fu":606,"od":607,"botto":608,"bottom":609,"tch":610,"va":611,"hi":612,"hint":613,"vari":614,"hu":615,"ky":616,"primary":617,"uni":618,"tuf":619,"ance":620,"tic":621,"tur":622,"tion":623,"main":624,"eep":625,"distinct":626,"et":627,"mas":628,"appearance":629,"tall":630,"looks":631,"puffy":632,"thighs":633,"do":634,"deep":635,"than":636,"tain":637,"had":638,"ture":639,"inc":640,"contain":641,"te":642,"fle":643,"ming":644,"superci":645,"antly":646,"ning":647,"span":648,"uniqu":649,"vid":650,"nearly":651,"no":652,"rot":653,"quat":654,"vivid":655,"secondary":656,"inclu":657,"rotund":658,"band":659,"op":660,"foot":661,"high":662,"ally":663,"cheeks":664,"he":665,"ty":666,"mask":667,"blend":668,"cla":669,"blunt":670,"ous":671,"longer":672,"predominantly":673,"age":674,"mixture":675,"ns":676,"each":677,"including":678,"striking":679,"mainly":680,"unique":681,"patterned":682,"who":683,"claw":684,"mou":685,"wk":686,"billed":687,"eal":688,"jet":689,"rem":690,"coloration":691,"ron":692,"uch":693,"ving":694,"cont":695,"being":696,"extend":697,"cir":698,"what":699,"extrem":700,"extremely":701,"dy":702,"sof":703,"teal":704,"sti":705,"als":706,"ca":707,"smo":708,"live":709,"mid":710,"ked":711,"set":712,"hawk":713,"olive":714,"them":715,"tarsals":716,"fleck":717,"soft":718,"aver":719,"contr":720,"tint":721,"ree":722,"headed":723,"run":724,"contrast":725,"ned":726,"dots":727,"highlight":728,"bro":729,"whit":730,"diff":731,"compar":732,"claws":733,"swi":734,"lim":735,"average":736,"sl":737,"where":738,"ison":739,"mohawk":740,"specks":741,"running":742,"differe":743,"comparison":744,"different":745,"sur":746,"beaked":747,"sit":748,"shade":749,"perch":750,"anch":751,"duck":752,"one":753,"branch":754,"tarsuses":755,"relatively":756,"swim":757,"beady":758,"pre":759,"alf":760,"bit":761,"match":762,"other":763,"tuft":764,"ged":765,"half":766,"ling":767,"line":768,"stick":769,"peach":770,"ral":771,"ruff":772,"going":773,"when":774,"there":775,"circ":776,"dot":777,"standing":778,"sleek":779,"oth":780,"edge":781,"having":782,"hints":783,"cat":784,"smooth":785,"nea":786,"bluish":787,"broad":788,"fur":789,"tiple":790,"multiple":791,"lower":792,"part":793,"somewhat":794,"contains":795,"el":796,"ruffled":797,"elong":798,"ating":799,"neath":800,"fly":801,"trice":802,"elongated":803,"pet":804,"need":805,"exception":806,"ci":807,"dir":808,"tree":809,"needle":810,"ang":811,"rather":812,"brightly":813,"various":814,"petite":815,"aquat":816,"brilli":817,"aquatic":818,"chubby":819,"bas":820,"beck":821,"read":822,"sn":823,"spiked":824,"ay":825,"ash":826,"really":827,"appears":828,"dirty":829,"fron":830,"swimming":831,"flying":832,"ately":833,"ind":834,"streaked":835,"sea":836,"tar":837,"front":838,"gy":839,"ust":840,"winged":841,"prett":842,"stro":843,"meta":844,"spar":845,"slim":846,"bil":847,"pretty":848,"sparrow":849,",��":850,"owl":851,"supercill":852,"sa":853,"stripped":854,"talo":855,"stands":856,"prom":857,"any":858,"inent":859,"base":860,"prominent":861,"pure":862,"ise":863,"brilliant":864,"supercillary":865,"bell":866,"metalli":867,"ni":868,"underneath":869,"hair":870,"metallic":871,"lime":872,"highlights":873,"whitish":874,"talons":875,"ble":876,"am":877,"fowl":878,"oise":879,"blackish":880,"char":881,"tor":882,"upe":883,"ber":884,"ger":885,"few":886,"spiky":887,"surround":888,"sitting":889,"strong":890,"cap":891,"quoise":892,"patterns":893,"ven":894,"pointing":895,"check":896,"huge":897,"turquoise":898,"curve":899,"taupe":900,"flanks":901,"ag":902,"bu":903,"fi":904,"maj":905,"pud":906,"touch":907,"pinkish":908,"ded":909,"vary":910,"chin":911,"sport":912,"toned":913,"edges":914,"surrounding":915,"pudgy":916,"wingtips":917,"strips":918,"varying":919,"way":920,"ate":921,"tarsi":922,"see":923,"striping":924,"fair":925,"torso":926,"gi":927,"lead":928,"more":929,"mark":930,"zy":931,"lines":932,"full":933,"amber":934,"odd":935,"whole":936,"der":937,"many":938,"below":939,"coal":940,"resting":941,"ical":942,"ms":943,"else":944,"hind":945,"predominately":946,"fairly":947,"sho":948,"shape":949,"proportional":950,"snow":951,"tow":952,"both":953,"ventral":954,"flecks":955,"lotch":956,"coat":957,"stark":958,"open":959,"vy":960,"bet":961,"behind":962,"toward":963,"squat":964,"atop":965,"crested":966,"charcoal":967,"fin":968,"glo":969,"pla":970,"pper":971,"zzy":972,"sive":973,"ween":974,"superciliaries":975,"between":976,"fades":977,"ends":978,"rusty":979,"fully":980,"inte":981,"lliary":982,"fuzzy":983,"containing":984,"same":985,"ze":986,"ity":987,"browns":988,"flecked":989,"perching":990,"dotted":991,"cheekpatch":992,"quite":993,"moufla":994,"bur":995,"hues":996,"tufted":997,"supercilliary":998,"camoufla":999,"interesting":1000,"asi":1001,"coll":1002,"crowned":1003,"tailfeathers":1004,"splotch":1005,"every":1006,"yet":1007,"lars":1008,"tails":1009,"circle":1010,"gloss":1011,"aside":1012,"flight":1013,"just":1014,"sc":1015,"rectic":1016,"rectrice":1017,"even":1018,"sal":1019,"copper":1020,"curving":1021,"ority":1022,"sing":1023,"gull":1024,"conical":1025,"combi":1026,"extends":1027,"majority":1028,"glossy":1029,"eg":1030,"wood":1031,"mouth":1032,"cial":1033,"collar":1034,"mer":1035,"retric":1036,"usu":1037,"bigger":1038,"sports":1039,"blends":1040,"leading":1041,"ain":1042,"sand":1043,"res":1044,"facial":1045,"bl":1046,"unusu":1047,"lets":1048,"sec":1049,"about":1050,"fan":1051,"wise":1052,"reg":1053,"tone":1054,"lined":1055,"otherwise":1056,"gni":1057,"ies":1058,"not":1059,"sharply":1060,"turned":1061,"thing":1062,"fading":1063,"extending":1064,"perched":1065,"fish":1066,"lash":1067,"pi":1068,"tru":1069,"bee":1070,"then":1071,"shaded":1072,"matching":1073,"larsus":1074,"everywhere":1075,"necked":1076,"towards":1077,"can":1078,"mon":1079,"range":1080,"sis":1081,"tr":1082,"llow":1083,"points":1084,"blueish":1085,"uppertail":1086,"crow":1087,"retrice":1088,"orang":1089,"splash":1090,"tered":1091,"again":1092,"beek":1093,"cor":1094,"creamy":1095,"whose":1096,"sticking":1097,"star":1098,"only":1099,"too":1100,"consis":1101,"fore":1102,"coming":1103,"tinted":1104,"dor":1105,"dle":1106,"nation":1107,"sits":1108,"scat":1109,"bid":1110,"eyed":1111,"rock":1112,"protru":1113,"kes":1114,"nor":1115,"pt":1116,"ised":1117,"tailed":1118,"puff":1119,"combination":1120,"section":1121,"scattered":1122,"norma":1123,"hum":1124,"im":1125,"mut":1126,"yal":1127,"winglets":1128,"ers":1129,"stu":1130,"royal":1131,"cute":1132,"spread":1133,"against":1134,"hor":1135,"magni":1136,"neon":1137,"navy":1138,"feat":1139,"hue":1140,"ficent":1141,"sturd":1142,"magnificent":1143,"tra":1144,"rectric":1145,"varieg":1146,"seems":1147,"region":1148,"dorsal":1149,"sturdy":1150,"rus":1151,"vertic":1152,"tie":1153,"bands":1154,"middle":1155,"unusual":1156,"muted":1157,"variegated":1158,"blo":1159,"ground":1160,"ible":1161,"eyeing":1162,"parts":1163,"altern":1164,"upward":1165,"sticks":1166,"russet":1167,"ered":1168,"ves":1169,"wn":1170,"smallish":1171,"veral":1172,"peck":1173,"backside":1174,"several":1175,"accent":1176,"bul":1177,"men":1178,"whtie":1179,"chested":1180,"trim":1181,"plume":1182,"contrasting":1183,"bellow":1184,"burnt":1185,"ct":1186,"dra":1187,"pup":1188,"vor":1189,"she":1190,"inter":1191,"areas":1192,"accented":1193,"proportionate":1194,"surrounded":1195,"humming":1196,"pupil":1197,"flo":1198,"ov":1199,"cky":1200,"rior":1201,"right":1202,"lot":1203,"faint":1204,"retricies":1205,"orangish":1206,"alternating":1207,"iz":1208,"ivor":1209,"ner":1210,"late":1211,"tape":1212,"add":1213,"circles":1214,"ivory":1215,"est":1216,"ig":1217,"ping":1218,"swe":1219,"yo":1220,"tho":1221,"bir":1222,"oversized":1223,"stocky":1224,"tran":1225,"puffed":1226,"normal":1227,"rectricles":1228,"oval":1229,"swept":1230,"ced":1231,"clo":1232,"gle":1233,"hea":1234,"ched":1235,"spec":1236,"able":1237,"hood":1238,"turns":1239,"cri":1240,"lk":1241,"ition":1242,"chun":1243,"form":1244,"waterbird":1245,"erior":1246,"ment":1247,"much":1248,"made":1249,"sty":1250,"onta":1251,"roon":1252,"ching":1253,"spotting":1254,"topside":1255,"sky":1256,"sition":1257,"camouflage":1258,"horiz":1259,"sheen":1260,"chunky":1261,"horizonta":1262,"rese":1263,"maroon":1264,"great":1265,"neut":1266,"triangle":1267,"relation":1268,"checkered":1269,"elsewhere":1270,"rectices":1271,"woodpeck":1272,"sandy":1273,"fanned":1274,"addition":1275,"resem":1276,"vis":1277,"strange":1278,"feathering":1279,"speckling":1280,"act":1281,"goes":1282,"umpy":1283,"waterfowl":1284,"variet":1285,"nice":1286,"vertical":1287,"variety":1288,"lea":1289,"must":1290,"slo":1291,"use":1292,"rich":1293,"polk":1294,"shim":1295,"details":1296,"covers":1297,"roundish":1298,"surroundings":1299,"rescent":1300,"forehead":1301,"neutral":1302,"bra":1303,"emer":1304,"past":1305,"make":1306,"stumpy":1307,"gradi":1308,"ald":1309,"mottling":1310,"tinged":1311,"nose":1312,"protruding":1313,"you":1314,"woodpecker":1315,"polka":1316,"emerald":1317,"avi":1318,"cre":1319,"gr":1320,"regular":1321,"break":1322,"desig":1323,"compr":1324,"extra":1325,"matches":1326,"cate":1327,"avian":1328,"bark":1329,"ulder":1330,"specked":1331,"undertones":1332,"topped":1333,"vividly":1334,"furry":1335,"shoulder":1336,"camouflaged":1337,"trac":1338,"air":1339,"amou":1340,"otic":1341,"sub":1342,"bely":1343,"orn":1344,"eyepatch":1345,"raised":1346,"backed":1347,"separ":1348,"speci":1349,"exotic":1350,"barred":1351,"silvery":1352,"anging":1353,"seagull":1354,"buff":1355,"recticles":1356,"though":1357,"resemb":1358,"amount":1359,"fra":1360,"hand":1361,"min":1362,"oted":1363,"sort":1364,"laye":1365,"blacks":1366,"gener":1367,"downy":1368,"displa":1369,"bron":1370,"comes":1371,"massive":1372,"scar":1373,"heavy":1374,"visible":1375,"aqu":1376,"nut":1377,"sy":1378,"wth":1379,"remain":1380,"love":1381,"lots":1382,"geous":1383,"feathery":1384,"ily":1385,"peak":1386,"legged":1387,"forked":1388,"ruby":1389,"dusty":1390,"footed":1391,"uniform":1392,"catching":1393,"bland":1394,"mustard":1395,"scarlet":1396,"aqua":1397,"gor":1398,"lish":1399,"squ":1400,"uring":1401,"three":1402,"ches":1403,"baby":1404,"tota":1405,"molar":1406,"nap":1407,"compact":1408,"circular":1409,"touches":1410,"plain":1411,"single":1412,"hummingbird":1413,"gorgeous":1414,"ffee":1415,"if":1416,"wit":1417,"earing":1418,"ringed":1419,"purplish":1420,"spike":1421,"extended":1422,"marks":1423,"zebra":1424,"transition":1425,"horizontal":1426,"cro":1427,"grown":1428,"wind":1429,"coffee":1430,"stature":1431,"ened":1432,"bold":1433,"tale":1434,"ercing":1435,"song":1436,"tinge":1437,"notic":1438,"type":1439,"highlighted":1440,"majest":1441,"splotches":1442,"piercing":1443,"gradient":1444,"majestic":1445,"slate":1446,"twi":1447,"war":1448,"their":1449,"makes":1450,"envi":1451,"simi":1452,"brows":1453,"mson":1454,"blood":1455,"drab":1456,"close":1457,"crimson":1458,"specimen":1459,"environ":1460,"similar":1461,"bly":1462,"ever":1463,"how":1464,"sli":1465,"these":1466,"rim":1467,"rop":1468,"lightly":1469,"chestnut":1470,"faded":1471,"covets":1472,"ending":1473,"guard":1474,"seabird":1475,"resembles":1476,"bronze":1477,"sca":1478,"text":1479,"ys":1480,"bits":1481,"ows":1482,"lack":1483,"coo":1484,"pon":1485,"stee":1486,"arse":1487,"bal":1488,"nex":1489,"defin":1490,"plum":1491,"shading":1492,"split":1493,"fellow":1494,"ations":1495,"flesh":1496,"contrasts":1497,"snub":1498,"shore":1499,"featuring":1500,"upwards":1501,"generally":1502,"totally":1503,"noticea":1504,"environment":1505,"here":1506,"angular":1507,"redish":1508,"verts":1509,"underbody":1510,"outlined":1511,"oked":1512,"stretch":1513,"feed":1514,"guy":1515,"him":1516,"uniquely":1517,"contrasted":1518,"pupils":1519,"specs":1520,"lovely":1521,"transitions":1522,"pear":1523,"sche":1524,"ured":1525,"thru":1526,"ass":1527,"retic":1528,"ric":1529,"post":1530,"intri":1531,"toes":1532,"mering":1533,"tufts":1534,"agger":1535,"gives":1536,"starting":1537,"tapering":1538,"additionally":1539,"crooked":1540,"scheme":1541,"dagger":1542,"iwth":1543,"oun":1544,"pow":1545,"pron":1546,"tre":1547,"tent":1548,"upon":1549,"beneath":1550,"edged":1551,"stun":1552,"gradu":1553,"complim":1554,"earth":1555,"pair":1556,"center":1557,"forest":1558,"does":1559,"giant":1560,"retricles":1561,"birth":1562,"design":1563,"shoulders":1564,"however":1565,"steel":1566,"next":1567,"noticeable":1568,"ounced":1569,"pronounced":1570,"..":1571,"aub":1572,"cl":1573,"car":1574,"eating":1575,"ird":1576,"pit":1577,"pic":1578,"upri":1579,"ising":1580,"whis":1581,"they":1582,"atta":1583,"grays":1584,"mous":1585,"think":1586,"urn":1587,"converts":1588,"silky":1589,"vibrantly":1590,"blended":1591,"sporting":1592,"leads":1593,"young":1594,"stunning":1595,"auburn":1596,"upright":1597,"bor":1598,"olet":1599,"pea":1600,"ud":1601,"wite":1602,"refle":1603,"beard":1604,"matic":1605,"smal":1606,"ert":1607,"grace":1608,"detail":1609,"tinu":1610,"runs":1611,"hold":1612,"violet":1613,"fluff":1614,"continu":1615,"save":1616,"regularly":1617,"frame":1618,"songbird":1619,"cool":1620,"snubbed":1621,"da":1622,"dash":1623,"ering":1624,"sw":1625,"sun":1626,"rious":1627,"stream":1628,"eyestripe":1629,"lary":1630,"ball":1631,"brighter":1632,"usky":1633,"fade":1634,"rect":1635,"super":1636,"pers":1637,"sses":1638,"appearing":1639,"lining":1640,"ador":1641,"proportionally":1642,"turning":1643,"supercilary":1644,"bush":1645,"consisting":1646,"'.":1647,"cra":1648,"dusky":1649,"eas":1650,"ick":1651,"non":1652,"orescent":1653,"ranging":1654,"such":1655,"zing":1656,"itned":1657,"inal":1658,"pos":1659,"posses":1660,"poitned":1661,"rose":1662,"blues":1663,"throated":1664,"tailfeather":1665,"greens":1666,"patched":1667,"semi":1668,"deli":1669,"expan":1670,"complete":1671,"fluorescent":1672,"hued":1673,"smoky":1674,"oddly":1675,"burg":1676,"coral":1677,"trimmed":1678,"tapered":1679,"shimmering":1680,"pastel":1681,"defined":1682,"expansive":1683,"bat":1684,"cy":1685,"imp":1686,"besides":1687,"beca":1688,"whites":1689,"ormous":1690,"attrac":1691,"loc":1692,"bills":1693,"coup":1694,"coarse":1695,"longish":1696,"pouch":1697,"enormous":1698,"shorter":1699,"moder":1700,"curled":1701,"weird":1702,"comple":1703,"endage":1704,"less":1705,"beautifully":1706,"appendage":1707,"conne":1708,"fous":1709,"hel":1710,"tints":1711,"swims":1712,"pres":1713,"fier":1714,"snowy":1715,"pie":1716,"splashes":1717,"sloping":1718,"shimmer":1719,"grass":1720,"slick":1721,"rimmed":1722,"intricate":1723,"pitch":1724,"attached":1725,"continues":1726,"because":1727,"attractive":1728,"ggy":1729,"pes":1730,"ppe":1731,"ans":1732,"cking":1733,"lace":1734,"withe":1735,"making":1736,"ats":1737,"cock":1738,"brest":1739,"rough":1740,"bord":1741,"chee":1742,"undy":1743,"necklace":1744,"partially":1745,"outline":1746,"plumed":1747,"rufous":1748,"exterior":1749,"follow":1750,"offset":1751,"limb":1752,"showing":1753,"fine":1754,"finch":1755,"ressive":1756,"fishing":1757,"starts":1758,"bulky":1759,"displays":1760,"remaining":1761,"guards":1762,"rical":1763,"picture":1764,"whisk":1765,"graceful":1766,"delicate":1767,"burgundy":1768,"impressive":1769,"appendages":1770,".\"":1771,"bow":1772,"fri":1773,"ging":1774,"hard":1775,"kind":1776,"my":1777,"ob":1778,"rs":1779,"trop":1780,"win":1781,"witha":1782,"beg":1783,"beat":1784,"mall":1785,"shir":1786,"eyebrown":1787,"change":1788,"ofy":1789,"peppe":1790,"lean":1791,"brid":1792,"curvy":1793,"domin":1794,"wards":1795,"tinges":1796,"proportionately":1797,"variations":1798,"mingled":1799,"strikingly":1800,"tarus":1801,"buil":1802,"unusually":1803,"subtle":1804,"layered":1805,"clear":1806,"peacock":1807,"streamlined":1808,"bushy":1809,"connec":1810,"tropical":1811,"shirt":1812,"cing":1813,"den":1814,"fast":1815,"fun":1816,"hear":1817,"ken":1818,"mes":1819,"ny":1820,"lled":1821,"beast":1822,"before":1823,"yed":1824,"ine":1825,"erful":1826,"largely":1827,"curious":1828,"detailed":1829,"downturned":1830,"beack":1831,"hooks":1832,"wingspans":1833,"cence":1834,"portions":1835,"iridescence":1836,"distinctly":1837,"angled":1838,"brilliantly":1839,"egg":1840,"consistent":1841,"wny":1842,"intersp":1843,"leaves":1844,"sloped":1845,"comprised":1846,"comprising":1847,"uniformly":1848,"spikey":1849,"twig":1850,"warm":1851,"gradually":1852,"reflec":1853,"located":1854,"couple":1855,"piece":1856,"amo":1857,"bare":1858,"gged":1859,"hs":1860,"hak":1861,"khak":1862,"man":1863,"night":1864,"oco":1865,"ps":1866,"py":1867,"su":1868,"swat":1869,"var":1870,"was":1871,"remark":1872,"withwhite":1873,"blaze":1874,"inside":1875,"gets":1876,"eyeline":1877,"inten":1878,"choco":1879,"speckle":1880,"compare":1881,"shaggy":1882,"mic":1883,"rustic":1884,"blending":1885,"give":1886,"salmon":1887,"combined":1888,"blck":1889,"mono":1890,"start":1891,"creature":1892,"texture":1893,"posterior":1894,"powerful":1895,"cylin":1896,"whiskers":1897,"funny":1898,"khaki":1899,"chocolate":1900,"apart":1901,"dapp":1902,"drical":1903,"equ":1904,"far":1905,"id":1906,"nature":1907,"uish":1908,"male":1909,"beaks":1910,"indi":1911,"covar":1912,"gether":1913,"inty":1914,"ray":1915,"rain":1916,"peli":1917,"pecu":1918,"liar":1919,"background":1920,"lemon":1921,"cule":1922,"together":1923,"patter":1924,"mode":1925,"patchy":1926,"seconda":1927,"decent":1928,"tops":1929,"bead":1930,"colorings":1931,"disting":1932,"lescent":1933,"fect":1934,"banded":1935,"slan":1936,"needlelike":1937,"squatty":1938,"ersed":1939,"traces":1940,"ornate":1941,"separating":1942,"winds":1943,"pearlescent":1944,"present":1945,"interspersed":1946,"among":1947,"barely":1948,"swatch":1949,"cylindrical":1950,"dappled":1951,"pelican":1952,"peculiar":1953,"modest":1954,"distinguish":1955,"aring":1956,"ei":1957,"eleg":1958,"ft":1959,"fringed":1960,"hwite":1961,"nat":1962,"unt":1963,"wor":1964,"rdin":1965,"cked":1966,"rear":1967,"hasa":1968,"wingu":1969,"may":1970,"log":1971,"gey":1972,"stone":1973,"thats":1974,"onto":1975,"ils":1976,"tapers":1977,"tawny":1978,"seed":1979,"allow":1980,"although":1981,"faced":1982,"upturned":1983,"descri":1984,"shad":1985,"accomp":1986,"rush":1987,"uble":1988,"perfect":1989,"iris":1990,"flow":1991,"enting":1992,"predominant":1993,"double":1994,"smoke":1995,"giving":1996,"splotched":1997,"consists":1998,"dramatic":1999,"remainder":2000,"warbl":2001,"retices":2002,"trees":2003,"changes":2004,"peppered":2005,"indigo":2006,"rainbow":2007,"slanted":2008,"natu":2009,"awk":2010,"blotch":2011,"clu":2012,"dth":2013,"dwell":2014,"ey":2015,"fre":2016,"fring":2017,"found":2018,"mand":2019,"mil":2020,"mof":2021,"mud":2022,"nted":2023,"pping":2024,"anied":2025,"width":2026,"blackened":2027,"wingbands":2028,"ake":2029,"ink":2030,"inches":2031,"arched":2032,"cone":2033,"rosy":2034,"sion":2035,"mot":2036,"uld":2037,"ales":2038,"albat":2039,"facing":2040,"undersides":2041,"mple":2042,"desert":2043,"inning":2044,"forward":2045,"skin":2046,"marked":2047,"marine":2048,"good":2049,"beach":2050,"distan":2051,"flash":2052,"distinctively":2053,"lengthy":2054,"cape":2055,"midnight":2056,"broken":2057,"branches":2058,"vents":2059,"sections":2060,"vertically":2061,"floating":2062,"separated":2063,"mini":2064,"layers":2065,"scale":2066,"textured":2067,"balck":2068,"reticles":2069,"complimen":2070,"holding":2071,"crazy":2072,"easily":2073,"possessing":2074,"fierce":2075,"followed":2076,"beginning":2077,"intense":2078,"covarts":2079,"until":2080,"wingulars":2081,"accompanied":2082,"warbler":2083,"awkward":2084,"mandible":2085,"mofla":2086,"albatross":2087,"ama":2088,"card":2089,"erect":2090,"hite":2091,"ill":2092,"oce":2093,"pl":2094,"pr":2095,"pal":2096,"pped":2097,"pun":2098,"swo":2099,"won":2100,"wedge":2101,"will":2102,"wire":2103,"wisp":2104,"within":2105,"blac":2106,"ates":2107,"grew":2108,"cobal":2109,"position":2110,"ste":2111,"shows":2112,"ess":2113,"espe":2114,"blunted":2115,"feel":2116,"brick":2117,"seen":2118,"vel":2119,"allover":2120,"coverlets":2121,"outside":2122,"outlines":2123,"soaring":2124,"flatt":2125,"barring":2126,"met":2127,"shine":2128,"hid":2129,"nota":2130,"includes":2131,"camofla":2132,"circled":2133,"circling":2134,"exceptionally":2135,"cially":2136,"basic":2137,"charac":2138,"chartre":2139,"seem":2140,"regal":2141,"normally":2142,"horizontally":2143,"minus":2144,"square":2145,"scaly":2146,"complex":2147,"monoch":2148,"secondai":2149,"elegant":2150,"natural":2151,"dwelling":2152,"mottle":2153,"distance":2154,"amazing":2155,"cardinal":2156,"cobalt":2157,"especially":2158,"chartreuse":2159,"bump":2160,"brush":2161,"cas":2162,"crescent":2163,"ele":2164,"ect":2165,"ibly":2166,"nish":2167,"ordin":2168,"rup":2169,"tum":2170,"ue":2171,"ug":2172,"another":2173,"wild":2174,"ckled":2175,"blak":2176,"yelow":2177,"mal":2178,"infla":2179,"insec":2180,"rigi":2181,"shinny":2182,"heads":2183,"raven":2184,"boast":2185,"bound":2186,"chick":2187,"oranges":2188,"tiger":2189,"allows":2190,"abnormally":2191,"plus":2192,"butt":2193,"streaking":2194,"rugged":2195,"quick":2196,"multicolor":2197,"patterning":2198,"food":2199,"common":2200,"thers":2201,"spikes":2202,"turn":2203,"mingly":2204,"bull":2205,"starkly":2206,"everything":2207,"corwn":2208,"spreaded":2209,"aquamarine":2210,"twice":2211,"plummage":2212,"stretched":2213,"compliment":2214,"dashes":2215,"moderately":2216,"oblong":2217,"build":2218,"heart":2219,"remarkable":2220,"muddy":2221,"ocean":2222,"wispy":2223,"tummy":2224,"inflated":2225,"rigid":2226,"aw":2227,"ahead":2228,"ali":2229,"born":2230,"ctric":2231,"fli":2232,"fic":2233,"gas":2234,"her":2235,"jut":2236,"mee":2237,"rand":2238,"sm":2239,"slow":2240,"tly":2241,"wearing":2242,"wih":2243,"wider":2244,"reti":2245,"yellows":2246,"yellowbelly":2247,"lous":2248,"loving":2249,"coa":2250,"cocoa":2251,"breat":2252,"bread":2253,"eyeling":2254,"ones":2255,"ares":2256,"ening":2257,"bous":2258,"board":2259,"orangeish":2260,"lustro":2261,"blur":2262,"likes":2263,"darkly":2264,"seg":2265,"nails":2266,"particularly":2267,"ably":2268,"alert":2269,"undertone":2270,"underparts":2271,"outstretched":2272,"rome":2273,"ears":2274,"marb":2275,"goofy":2276,"ttering":2277,"anterior":2278,"disproportionately":2279,"irrides":2280,"dust":2281,"foul":2282,"portly":2283,"adn":2284,"proportions":2285,"proportioned":2286,"dove":2287,"incred":2288,"nope":2289,"height":2290,"masked":2291,"stipe":2292,"highlighting":2293,"further":2294,"elf":2295,"bellt":2296,"seemingly":2297,"opened":2298,"bulbous":2299,"florescent":2300,"clos":2301,"moderate":2302,"cheeck":2303,"consistently":2304,"identi":2305,"either":2306,"shadow":2307,"hidden":2308,"basically":2309,"character":2310,"electric":2311,"ordinary":2312,"random":2313,"lustrous":2314,"irridescent":2315,"),":2316,",,":2317,"cr":2318,"cer":2319,"ces":2320,"ctu":2321,"cture":2322,"drop":2323,"gs":2324,"ired":2325,"ive":2326,"je":2327,"nta":2328,"ots":2329,"pand":2330,"sat":2331,"sco":2332,"ses":2333,"scent":2334,"ull":2335,"wa":2336,"thor":2337,"thus":2338,"withblack":2339,"whiteish":2340,"ins":2341,"inver":2342,"inky":2343,"inating":2344,"yellowbill":2345,"ery":2346,"poofy":2347,"greys":2348,"reds":2349,"stru":2350,"shot":2351,"itself":2352,"romatic":2353,"ence":2354,"changing":2355,"tah":2356,"signi":2357,"simple":2358,"bard":2359,"striations":2360,"colour":2361,"omen":2362,"nack":2363,"tannish":2364,"rests":2365,"outward":2366,"third":2367,"support":2368,"soars":2369,"skull":2370,"urescent":2371,"sparse":2372,"straw":2373,"ruffy":2374,"magenta":2375,"goldish":2376,"mel":2377,"yellowing":2378,"offwhite":2379,"tucked":2380,"adorn":2381,"direct":2382,"hairs":2383,"hairy":2384,"capped":2385,"glowing":2386,"splotchy":2387,"scales":2388,"scruffy":2389,"wooden":2390,"ranges":2391,"rocks":2392,"trail":2393,"block":2394,"intermixed":2395,"flourescent":2396,"trans":2397,"hooded":2398,"leaf":2399,"handsome":2400,"display":2401,"displayed":2402,"squared":2403,"stretching":2404,"feeder":2405,"powder":2406,"dainty":2407,"sweep":2408,"easy":2409,"posed":2410,"helmet":2411,"shimmery":2412,"cheetah":2413,"frilled":2414,"clearly":2415,"messy":2416,"reflective":2417,"suit":2418,"equally":2419,"freckled":2420,"fringe":2421,"paler":2422,"punctu":2423,"flattened":2424,"ugly":2425,"insect":2426,"flies":2427,"incredibly":2428,"structure":2429,"signific":2430,"',":2431,").":2432,"au":2433,"az":2434,"aged":2435,"bust":2436,"centing":2437,"dro":2438,"dly":2439,"eb":2440,"eat":2441,"eff":2442,"eld":2443,"fall":2444,"ga":2445,"glea":2446,"hanging":2447,"ith":2448,"jo":2449,"jay":2450,"klet":2451,"ness":2452,"oped":2453,"oily":2454,"pen":2455,"ple":2456,"pige":2457,"rat":2458,"tand":2459,"town":2460,"tter":2461,"vend":2462,"wal":2463,"zed":2464,"zel":2465,"ist":2466,"ises":2467,"istic":2468,"lavend":2469,"whiter":2470,"ator":2471,"eds":2472,"ina":2473,"array":2474,"coast":2475,"breas":2476,"ster":2477,"stub":2478,"stain":2479,"show":2480,"shown":2481,"robust":2482,"shortly":2483,"pepper":2484,"tial":2485,"bald":2486,"leop":2487,"cut":2488,"spotty":2489,"ombre":2490,"velous":2491,"decor":2492,"uty":2493,"partial":2494,"abs":2495,"tines":2496,"outlining":2497,"rectines":2498,"ently":2499,"flap":2500,"ended":2501,"iliary":2502,"hazel":2503,"reaches":2504,"accenting":2505,"marvelous":2506,"spark":2507,"mult":2508,"beauty":2509,"qual":2510,"disposition":2511,"would":2512,"path":2513,"due":2514,"dully":2515,"brind":2516,"unremarkable":2517,"shines":2518,"four":2519,"provi":2520,"variation":2521,"tering":2522,"highly":2523,"heat":2524,"midsize":2525,"averaged":2526,"catch":2527,"angle":2528,"fig":2529,"gird":2530,"scary":2531,"evenly":2532,"coppery":2533,"notched":2534,"canary":2535,"trum":2536,"protrudes":2537,"protrusion":2538,"horn":2539,"accentu":2540,"bulging":2541,"mented":2542,"trimming":2543,"your":2544,"specta":2545,"spectrum":2546,"style":2547,"creme":2548,"designs":2549,"plumes":2550,"pearl":2551,"earthy":2552,"borwn":2553,"fluffed":2554,"adorning":2555,"possesses":2556,"built":2557,"connected":2558,"maybe":2559,"perfectly":2560,"milky":2561,"complimented":2562,"plant":2563,"velve":2564,"notable":2565,"camoflau":2566,"secondairies":2567,"quickly":2568,"slowly":2569,"eyelings":2570,"marbled":2571,"characteristic":2572,"jewe":2573,"scoop":2574,"directly":2575,"suitable":2576,"punctuated":2577,"significant":2578,"auklet":2579,"pigeon":2580,"leopard":2581,"--":2582,"bak":2583,"cast":2584,"cross":2585,"cinating":2586,"ec":2587,"ela":2588,"ehite":2589,"fas":2590,"fing":2591,"fir":2592,"fence":2593,"gl":2594,"gro":2595,"hit":2596,"hat":2597,"hits":2598,"io":2599,"kn":2600,"lt":2601,"lbird":2602,"oc":2603,"oon":2604,"old":2605,"pint":2606,"pho":2607,"ran":2608,"rled":2609,"rising":2610,"rink":2611,"tak":2612,"tted":2613,"ular":2614,"ude":2615,"ved":2616,"vily":2617,"wng":2618,"thra":2619,"bin":2620,"llen":2621,"assort":2622,"rel":2623,"lay":2624,"later":2625,"itude":2626,"been":2627,"bend":2628,"becomes":2629,"rows":2630,"wingtip":2631,"att":2632,"edging":2633,"gren":2634,"greay":2635,"come":2636,"coating":2637,"comic":2638,"gent":2639,"longs":2640,"ond":2641,"ony":2642,"robin":2643,"ens":2644,"ents":2645,"orangey":2646,"bodies":2647,"lucent":2648,"peng":2649,"sided":2650,"bably":2651,"left":2652,"eyespot":2653,"move":2654,"coloured":2655,"nad":2656,"naped":2657,"namic":2658,"curl":2659,"vets":2660,"tans":2661,"tanned":2662,"abstra":2663,"dome":2664,"abdominal":2665,"abdoment":2666,"fawn":2667,"underfeathers":2668,"thicker":2669,"flared":2670,"soot":2671,"exclu":2672,"haired":2673,"forms":2674,"skun":2675,"kingfish":2676,"hole":2677,"got":2678,"widely":2679,"tte":2680,"whie":2681,"que":2682,"perky":2683,"pad":2684,"fatter":2685,"metric":2686,"probably":2687,"predator":2688,"bellies":2689,"direc":2690,"varied":2691,"noted":2692,"clawed":2693,"cali":2694,"camer":2695,"swirled":2696,"partly":2697,"dirt":2698,"angry":2699,"ashy":2700,"metal":2701,"berry":2702,"fire":2703,"filled":2704,"burst":2705,"salt":2706,"singing":2707,"corn":2708,"corvets":2709,"consist":2710,"blond":2711,"pecking":2712,"bulged":2713,"intermingled":2714,"interrup":2715,"float":2716,"floats":2717,"heavily":2718,"resemble":2719,"leaving":2720,"creating":2721,"gras":2722,"designed":2723,"resembling":2724,"posture":2725,"carry":2726,"borate":2727,"reflect":2728,"balloon":2729,"nondescri":2730,"possi":2731,"help":2732,"fiery":2733,"follows":2734,"mallard":2735,"dominantly":2736,"reflects":2737,"distinguishing":2738,"worm":2739,"smokey":2740,"blotches":2741,"flashes":2742,"miniature":2743,"print":2744,"swollen":2745,"minuscule":2746,"monochromatic":2747,"boasting":2748,"reticule":2749,"closer":2750,"trailing":2751,"translucent":2752,"sweeping":2753,"azure":2754,"droop":2755,"effect":2756,"gleaming":2757,"lavender":2758,"coastal":2759,"multitude":2760,"quality":2761,"brindle":2762,"spectacular":2763,"camoflauged":2764,"jewel":2765,"elaborate":2766,"fascinating":2767,"finger":2768,"group":2769,"photo":2770,"thraot":2771,"assortment":2772,"abstract":2773,"skunk":2774,"kingfisher":2775,"camera":2776,"interrupted":2777,"nondescript":2778,",.":2779,".,":2780,"10":2781,"abi":2782,"alight":2783,"away":2784,"bun":2785,"cak":2786,"ctrices":2787,"dee":2788,"ew":2789,"eats":2790,"fit":2791,"fro":2792,"fant":2793,"gri":2794,"gany":2795,"hun":2796,"hsa":2797,"ie":2798,"ip":2799,"imid":2800,"imal":2801,"ja":2802,"ks":2803,"kely":2804,"mor":2805,"mmetric":2806,"ose":2807,"our":2808,"por":2809,"rated":2810,"sla":2811,"spat":2812,"sus":2813,"ssing":2814,"tea":2815,"tus":2816,"tub":2817,"take":2818,"uin":2819,"uve":2820,"wra":2821,"wti":2822,"wears":2823,"zz":2824,"bing":2825,"llo":2826,"iss":2827,"ren":2828,"real":2829,"lari":2830,"lake":2831,"without":2832,"blade":2833,"blackbird":2834,"blackhead":2835,"bear":2836,"mauve":2837,"malari":2838,"ative":2839,"rid":2840,"lone":2841,"gree":2842,"could":2843,"pop":2844,"breats":2845,"str":2846,"eyebro":2847,"eyecatching":2848,"intimid":2849,"rod":2850,"rou":2851,"road":2852,"rally":2853,"arent":2854,"encircled":2855,"encircling":2856,"cha":2857,"chsi":2858,"shortened":2859,"featherless":2860,"lif":2861,"likely":2862,"till":2863,"ticking":2864,"times":2865,"lightest":2866,"striated":2867,"ings":2868,"moving":2869,"patching":2870,"used":2871,"specke":2872,"decurved":2873,"wet":2874,"tricolor":2875,"faring":2876,"lity":2877,"sidebars":2878,"thie":2879,"shapes":2880,"expres":2881,"expand":2882,"ready":2883,"actu":2884,"hogany":2885,"ters":2886,"woven":2887,"irregular":2888,"pack":2889,"pail":2890,"ention":2891,"dun":2892,"dued":2893,"brwon":2894,"appro":2895,"shining":2896,"centric":2897,"comb":2898,"composed":2899,"dingy":2900,"fuchsi":2901,"mass":2902,"taller":2903,"domed":2904,"spanned":2905,"include":2906,"oppos":2907,"held":2908,"still":2909,"stipes":2910,"swift":2911,"perches":2912,"prey":2913,"peachy":2914,"fury":2915,"tartus":2916,"anywhere":2917,"prominently":2918,"bellly":2919,"bleeds":2920,"checker":2921,"burd":2922,"shocking":2923,"plate":2924,"interestingly":2925,"sings":2926,"trina":2927,"corner":2928,"protrude":2929,"puffin":2930,"spreads":2931,"featured":2932,"rectricies":2933,"regions":2934,"faintly":2935,"those":2936,"camouflages":2937,"bray":2938,"gradients":2939,"comprises":2940,"subdued":2941,"separates":2942,"species":2943,"general":2944,"symmetric":2945,"squinty":2946,"total":2947,"sliver":2948,"stretches":2949,"meringue":2950,"graduating":2951,"detailing":2952,"fluffly":2953,"dazz":2954,"person":2955,"adorned":2956,"adorable":2957,"batch":2958,"border":2959,"dominant":2960,"connects":2961,"connecting":2962,"mane":2963,"remarkably":2964,"decently":2965,"modestly":2966,"distinguished":2967,"seeds":2968,"flower":2969,"compliments":2970,"awkwardly":2971,"monochrome":2972,"blakc":2973,"bornw":2974,"juts":2975,"meets":2976,"inverted":2977,"colourful":2978,"absomen":2979,"provide":2980,"figure":2981,"first":2982,"known":2983,"wngs":2984,"lateral":2985,"comically":2986,"gently":2987,"penguin":2988,"sooty":2989,"direction":2990,"calico":2991,"blonde":2992,"grasping":2993,"possibly":2994,"ability":2995,"bunch":2996,"tubular":2997,"wtih":2998,"malaria":2999,"intimidating":3000,"fuchsia":3001,"opposite":3002,"trinagular":3003,"dazzling":3004,"aa":3005,"ack":3006,"abrown":3007,"ayellow":3008,"amel":3009,"ban":3010,"call":3011,"cown":3012,"cree":3013,"cling":3014,"dwith":3015,"dri":3016,"dge":3017,"dead":3018,"don":3019,"ddy":3020,"day":3021,"eli":3022,"ehad":3023,"eys":3024,"frea":3025,"gish":3026,"gay":3027,"hang":3028,"jas":3029,"jag":3030,"kin":3031,"knot":3032,"lf":3033,"mit":3034,"mus":3035,"nar":3036,"oak":3037,"ph":3038,"pee":3039,"put":3040,"pread":3041,"pical":3042,"rine":3043,"site":3044,"sed":3045,"sac":3046,"surp":3047,"scen":3048,"supe":3049,"tis":3050,"til":3051,"tended":3052,"ught":3053,"varies":3054,"vron":3055,"ana":3056,"antial":3057,"bib":3058,"bight":3059,"bicolored":3060,"wides":3061,"istent":3062,"reco":3063,"lard":3064,"blacked":3065,"beli":3066,"bent":3067,"thisis":3068,"ited":3069,"thed":3070,"org":3071,"orig":3072,"maries":3073,"mature":3074,"mahogany":3075,"aks":3076,"rizing":3077,"smattering":3078,"yellowbody":3079,"lon":3080,"coon":3081,"get":3082,"geen":3083,"astic":3084,"sta":3085,"stor":3086,"string":3087,"stay":3088,"stares":3089,"stantial":3090,"shite":3091,"sheathe":3092,"shark":3093,"ship":3094,"headand":3095,"esome":3096,"roots":3097,"rac":3098,"rail":3099,"encomp":3100,"ensive":3101,"chir":3102,"tab":3103,"tai":3104,"tal":3105,"peers":3106,"lic":3107,"lig":3108,"tight":3109,"tailtip":3110,"sidi":3111,"backs":3112,"backwards":3113,"least":3114,"unde":3115,"toe":3116,"potted":3117,"neat":3118,"nest":3119,"brightest":3120,"medi":3121,"neckline":3122,"mediums":3123,"sizes":3124,"moss":3125,"colouring":3126,"uses":3127,"name":3128,"curly":3129,"curbed":3130,"parrot":3131,"chevron":3132,"condaries":3133,"secondar":3134,"sharped":3135,"were":3136,"tripes":3137,"abrup":3138,"alfa":3139,"underwing":3140,"outter":3141,"litter":3142,"rectan":3143,"flapping":3144,"shale":3145,"something":3146,"expe":3147,"exhi":3148,"existent":3149,"pinch":3150,"urated":3151,"reading":3152,"reaching":3153,"narrowed":3154,"butter":3155,"spla":3156,"sphe":3157,"sprink":3158,"spreading":3159,"ruddy":3160,"beam":3161,"barrel":3162,"ttered":3163,"ional":3164,"disproportionate":3165,"distended":3166,"irred":3167,"guing":3168,"wattle":3169,"fluttering":3170,"flutter":3171,"during":3172,"dual":3173,"entirety":3174,"bras":3175,"brast":3176,"extensive":3177,"progre":3178,"rusted":3179,"goldenrod":3180,"stoutly":3181,"duller":3182,"tuff":3183,"adul":3184,"diving":3185,"diam":3186,"ody":3187,"hide":3188,"etc":3189,"test":3190,"noti":3191,"banding":3192,"opales":3193,"typical":3194,"clack":3195,"wholly":3196,"colorations":3197,"content":3198,"stiped":3199,"camo":3200,"midsection":3201,"setting":3202,"comparable":3203,"whereas":3204,"oney":3205,"alfalfa":3206,"others":3207,"cately":3208,"smoothly":3209,"snout":3210,"inds":3211,"talon":3212,"purely":3213,"checked":3214,"ways":3215,"derful":3216,"better":3217,"finely":3218,"finally":3219,"place":3220,"scra":3221,"notch":3222,"things":3223,"truly":3224,"immature":3225,"eyeings":3226,"bulk":3227,"shell":3228,"flowing":3229,"birs":3230,"birght":3231,"gran":3232,"substantial":3233,"frag":3234,"layer":3235,"peaking":3236,"shorebird":3237,"intriguing":3238,"carries":3239,"caramel":3240,"stunningly":3241,"holds":3242,"swa":3243,"swan":3244,"sunken":3245,"adorns":3246,"pouched":3247,"helps":3248,"bordering":3249,"frilly":3250,"obsidi":3251,"peppering":3252,"dense":3253,"startling":3254,"equal":3255,"work":3256,"describe":3257,"dramatically":3258,"swooped":3259,"wonderful":3260,"stem":3261,"notably":3262,"secondaires":3263,"casional":3264,"awesome":3265,"alig":3266,"meet":3267,"wiht":3268,"breatss":3269,"dusting":3270,"identif":3271,"saturated":3272,"thorat":3273,"bards":3274,"supported":3275,"eblly":3276,"walking":3277,"stern":3278,"decorated":3279,"flappy":3280,"sparkling":3281,"catcher":3282,"accentuated":3283,"velvety":3284,"occasional":3285,"attention":3286,"excluding":3287,"paddle":3288,"droops":3289,"caking":3290,"fantastic":3291,"speckeled":3292,"actually":3293,"shockingly":3294,"symmetrical":3295,"freathers":3296,"jagged":3297,"muscular":3298,"peering":3299,"scenery":3300,"widespread":3301,"recogni":3302,"sheathed":3303,"abruptly":3304,"littery":3305,"spherical":3306,"sprinkled":3307,"diamond":3308,"opalescent":3309,"obsidian":3310,"aq":3311,"aer":3312,"abod":3313,"ache":3314,"afloat":3315,"alone":3316,"bll":3317,"bring":3318,"bus":3319,"bown":3320,"bdy":3321,"bones":3322,"cil":3323,"cted":3324,"cal":3325,"crea":3326,"clim":3327,"cending":3328,"clean":3329,"ciliary":3330,"dand":3331,"eve":3332,"emp":3333,"ellow":3334,"fus":3335,"fal":3336,"file":3337,"fty":3338,"glid":3339,"glow":3340,"gins":3341,"hal":3342,"hump":3343,"heal":3344,"hgas":3345,"honey":3346,"iw":3347,"ice":3348,"icular":3349,"image":3350,"jaw":3351,"kle":3352,"kni":3353,"ls":3354,"land":3355,"lank":3356,"mis":3357,"mless":3358,"num":3359,"ong":3360,"ough":3361,"pp":3362,"pend":3363,"pur":3364,"pump":3365,"rum":3366,"spin":3367,"sally":3368,"ssive":3369,"scondaries":3370,"ten":3371,"tries":3372,"tear":3373,"tere":3374,"trem":3375,"trun":3376,"ucan":3377,"uim":3378,"wand":3379,"xed":3380,"xible":3381,"zar":3382,"ths":3383,"thsi":3384,"ane":3385,"anting":3386,"aneg":3387,"animal":3388,"andy":3389,"andblack":3390,"bired":3391,"bite":3392,"bizar":3393,"wint":3394,"wiry":3395,"wins":3396,"wigs":3397,"wiith":3398,"isp":3399,"iscent":3400,"rdrop":3401,"assing":3402,"cks":3403,"ckles":3404,"reas":3405,"reme":3406,"rept":3407,"retries":3408,"lare":3409,"lated":3410,"itud":3411,"nged":3412,"ngue":3413,"blackand":3414,"bel":3415,"beating":3416,"whte":3417,"wheat":3418,"yes":3419,"browner":3420,"thes":3421,"orage":3422,"orag":3423,"orio":3424,"orpor":3425,"oraneg":3426,"wingers":3427,"malor":3428,"maged":3429,"matte":3430,"ines":3431,"invisible":3432,"iniscent":3433,"bellyt":3434,"smalll":3435,"eath":3436,"wingspand":3437,"wingstripes":3438,"yellowy":3439,"lover":3440,"arge":3441,"arching":3442,"arran":3443,"armor":3444,"gret":3445,"greed":3446,"col":3447,"cous":3448,"cold":3449,"coated":3450,"coif":3451,"gelly":3452,"gene":3453,"longitud":3454,"pond":3455,"posing":3456,"poised":3457,"brew":3458,"brey":3459,"bresat":3460,"greywith":3461,"redcrown":3462,"sted":3463,"stal":3464,"stance":3465,"steal":3466,"crowns":3467,"shif":3468,"esque":3469,"rapi":3470,"racing":3471,"ragged":3472,"ench":3473,"enna":3474,"encas":3475,"enjo":3476,"boy":3477,"grab":3478,"grayed":3479,"chrome":3480,"largish":3481,"lush":3482,"lump":3483,"lumin":3484,"throught":3485,"blush":3486,"peri":3487,"liage":3488,"lives":3489,"silly":3490,"sider":3491,"sienna":3492,"darken":3493,"darkening":3494,"darkens":3495,"arsus":3496,"bally":3497,"leon":3498,"cured":3499,"lying":3500,"strils":3501,"toed":3502,"toad":3503,"toucan":3504,"tongue":3505,"pots":3506,"pattere":3507,"meduim":3508,"neckring":3509,"mos":3510,"patchwork":3511,"colord":3512,"seco":3513,"sequ":3514,"serious":3515,"self":3516,"barsus":3517,"vey":3518,"curvature":3519,"tarsas":3520,"para":3521,"parall":3522,"primai":3523,"degree":3524,"uts":3525,"ished":3526,"tricolored":3527,"tant":3528,"tiped":3529,"tipping":3530,"coverlet":3531,"almon":3532,"fathers":3533,"tine":3534,"underrated":3535,"descending":3536,"coverings":3537,"littering":3538,"sidebur":3539,"downw":3540,"downturn":3541,"overly":3542,"overcoat":3543,"thinner":3544,"thickb":3545,"plumaged":3546,"entist":3547,"flaming":3548,"exe":3549,"pinhole":3550,"endous":3551,"webb":3552,"downwardly":3553,"pedo":3554,"fork":3555,"forming":3556,"acing":3557,"spa":3558,"spand":3559,"sparent":3560,"might":3561,"hock":3562,"host":3563,"house":3564,"view":3565,"goose":3566,"����":3567,"barbed":3568,"excepting":3569,"quar":3570,"dispers":3571,"felike":3572,"female":3573,"lded":3574,"key":3575,"perpend":3576,"mixing":3577,"gue":3578,"palette":3579,"appointed":3580,"waterbound":3581,"purples":3582,"brwn":3583,"unted":3584,"mean":3585,"merizing":3586,"meleon":3587,"conto":3588,"concent":3589,"consider":3590,"extreme":3591,"yelloe":3592,"triangularbill":3593,"foliage":3594,"folded":3595,"upperparts":3596,"prox":3597,"profile":3598,"pronged":3599,"standout":3600,"spiral":3601,"silverish":3602,"diag":3603,"dipped":3604,"hill":3605,"varig":3606,"tursus":3607,"incorpor":3608,"tell":3609,"flexible":3610,"spans":3611,"nosed":3612,"nostrils":3613,"bandit":3614,"highlighter":3615,"hello":3616,"hefty":3617,"clad":3618,"clay":3619,"reminiscent":3620,"dynamic":3621,"softer":3622,"midsized":3623,"midway":3624,"browish":3625,"differing":3626,"slash":3627,"surface":3628,"sity":3629,"duckling":3630,"dotting":3631,"flycatcher":3632,"cill":3633,"seamless":3634,"supercillaries":3635,"bellty":3636,"bleu":3637,"amd":3638,"torpedo":3639,"surrounds":3640,"bud":3641,"bug":3642,"buggy":3643,"fid":3644,"field":3645,"sported":3646,"opening":3647,"fined":3648,"finish":3649,"placed":3650,"places":3651,"ppers":3652,"collared":3653,"sciss":3654,"blown":3655,"pill":3656,"dorsally":3657,"puffs":3658,"human":3659,"humped":3660,"immen":3661,"trace":3662,"bloated":3663,"pecker":3664,"bulge":3665,"ments":3666,"menacing":3667,"intermit":3668,"transc":3669,"transparent":3670,"spects":3671,"greatly":3672,"relationship":3673,"nicely":3674,"mustache":3675,"slopes":3676,"useful":3677,"submer":3678,"framed":3679,"frayed":3680,"crossing":3681,"closely":3682,"similarly":3683,"scaled":3684,"coordin":3685,"defining":3686,"shadings":3687,"fleshy":3688,"noticeably":3689,"stretchy":3690,"pearly":3691,"rices":3692,"doesn":3693,"clas":3694,"carmel":3695,"whispy":3696,"boring":3697,"gracefully":3698,"continuing":3699,"swallow":3700,"sunlight":3701,"cracking":3702,"semicircular":3703,"coupled":3704,"complemented":3705,"shimmers":3706,"brested":3707,"roughly":3708,"offsetting":3709,"whisker":3710,"winbar":3711,"winkle":3712,"begins":3713,"dominate":3714,"mesmerizing":3715,"intensity":3716,"textures":3717,"farther":3718,"patters":3719,"eith":3720,"shadows":3721,"eyllow":3722,"fringes":3723,"mildly":3724,"illa":3725,"palm":3726,"steaks":3727,"complexion":3728,"brushed":3729,"maler":3730,"boasts":3731,"segal":3732,"segmented":3733,"dusted":3734,"closed":3735,"crisp":3736,"inverse":3737,"gazing":3738,"pencil":3739,"ratio":3740,"towns":3741,"istening":3742,"stubbed":3743,"velvet":3744,"bakc":3745,"glistening":3746,"risingly":3747,"onyx":3748,"carrying":3749,"deeper":3750,"grip":3751,"spattering":3752,"teardrop":3753,"wrapping":3754,"atively":3755,"ridged":3756,"chameleon":3757,"lifted":3758,"expressive":3759,"appropri":3760,"checkerboard":3761,"banana":3762,"dried":3763,"elion":3764,"hangs":3765,"surprisingly":3766,"superior":3767,"organge":3768,"stays":3769,"encompassing":3770,"rectangular":3771,"exhibits":3772,"irredentist":3773,"adult":3774,"odynamic":3775,"notice":3776,"scrawny":3777,"fragile":3778,"stemming":3779,"aligning":3780,"identify":3781,"aerodynamic":3782,"busy":3783,"creamed":3784,"climbing":3785,"dandelion":3786,"emphas":3787,"gliding":3788,"knifelike":3789,"lanky":3790,"rumped":3791,"tremendous":3792,"trunk":3793,"bizarre":3794,"oriole":3795,"arranged":3796,"generic":3797,"longitudinal":3798,"enchanting":3799,"enjoys":3800,"parallel":3801,"almond":3802,"sideburns":3803,"dispersed":3804,"perpendicular":3805,"diagon":3806,"slashes":3807,"seamlessly":3808,"scissor":3809,"immense":3810,"intermittent":3811,"0ff":3812,"12":3813,"20":3814,"45":3815,"af":3816,"av":3817,"ablack":3818,"awhite":3819,"aed":3820,"ari":3821,"agrey":3822,"agray":3823,"alar":3824,"ablue":3825,"avery":3826,"aut":3827,"alot":3828,"ahs":3829,"ablaze":3830,"aft":3831,"alog":3832,"ample":3833,"bd":3834,"bumpy":3835,"cit":3836,"cts":3837,"cru":3838,"cron":3839,"cowl":3840,"cact":3841,"crush":3842,"dar":3843,"deathe":3844,"daries":3845,"dab":3846,"dal":3847,"dary":3848,"died":3849,"done":3850,"eand":3851,"ebelly":3852,"ege":3853,"ets":3854,"evid":3855,"frown":3856,"fer":3857,"fits":3858,"fab":3859,"free":3860,"finds":3861,"flittery":3862,"gan":3863,"grow":3864,"gon":3865,"gul":3866,"gled":3867,"gut":3868,"gru":3869,"gant":3870,"gry":3871,"glack":3872,"glittery":3873,"hthe":3874,"hed":3875,"har":3876,"hover":3877,"home":3878,"hrs":3879,"hjas":3880,"ia":3881,"ima":3882,"icu":3883,"ial":3884,"ient":3885,"icon":3886,"ious":3887,"ize":3888,"ipped":3889,"ield":3890,"ibll":3891,"ject":3892,"ka":3893,"kc":3894,"kk":3895,"ko":3896,"ker":3897,"karsus":3898,"lite":3899,"ler":3900,"lits":3901,"mll":3902,"mow":3903,"mast":3904,"mint":3905,"mur":3906,"mfe":3907,"meal":3908,"mang":3909,"mans":3910,"menting":3911,"nth":3912,"nch":3913,"nubby":3914,"nmetal":3915,"oh":3916,"oo":3917,"ord":3918,"owing":3919,"oat":3920,"oed":3921,"ored":3922,"ost":3923,"perc":3924,"pile":3925,"ption":3926,"phite":3927,"pares":3928,"ris":3929,"rred":3930,"rro":3931,"sri":3932,"spo":3933,"sce":3934,"slit":3935,"swell":3936,"sure":3937,"scream":3938,"sme":3939,"sapp":3940,"sage":3941,"seal":3942,"scoo":3943,"snack":3944,"tn":3945,"tort":3946,"tange":3947,"tubby":3948,"tun":3949,"uth":3950,"usi":3951,"ually":3952,"using":3953,"ulean":3954,"ulous":3955,"vo":3956,"vthis":3957,"vrown":3958,"vity":3959,"wl":3960,"wow":3961,"wblack":3962,"weathe":3963,"wash":3964,"wren":3965,"wuth":3966,"yon":3967,"ysi":3968,"yield":3969,"zes":3970,"zen":3971,"zag":3972,"zig":3973,"zable":3974,"thy":3975,"thrown":3976,"thorn":3977,"anat":3978,"ants":3979,"anced":3980,"anda":3981,"ands":3982,"andthe":3983,"billy":3984,"bier":3985,"biege":3986,"lle":3987,"lls":3988,"wig":3989,"iscule":3990,"birdy":3991,"birdie":3992,"aspe":3993,"assis":3994,"rey":3995,"repe":3996,"restri":3997,"retri":3998,"retrac":3999,"reeds":4000,"retrace":4001,"lac":4002,"law":4003,"lage":4004,"laced":4005,"latter":4006,"iting":4007,"itive":4008,"withr":4009,"hass":4010,"blat":4011,"blazing":4012,"blackbeak":4013,"blackness":4014,"bean":4015,"best":4016,"beside":4017,"becoming":4018,"beka":4019,"bench":4020,"whil":4021,"whee":4022,"rowed":4023,"yead":4024,"yekk":4025,"thered":4026,"orch":4027,"orgo":4028,"orrange":4029,"winger":4030,"wingfeathers":4031,"wingba":4032,"wingback":4033,"wingles":4034,"winglet":4035,"winglay":4036,"wingbards":4037,"mati":4038,"matted":4039,"attra":4040,"edium":4041,"iny":4042,"indistinct":4043,"bellyl":4044,"bellyq":4045,"bellys":4046,"bellyand":4047,"river":4048,"riage":4049,"rims":4050,"smallbird":4051,"smallbill":4052,"ealing":4053,"eager":4054,"wingsand":4055,"yellw":4056,"yellwo":4057,"yelllow":4058,"loose":4059,"billl":4060,"armp":4061,"grean":4062,"grebe":4063,"greet":4064,"gressive":4065,"ges":4066,"georgo":4067,"erup":4068,"poi":4069,"pom":4070,"poll":4071,"pole":4072,"pose":4073,"poking":4074,"pokes":4075,"pops":4076,"astri":4077,"breaste":4078,"breaststro":4079,"greying":4080,"greyscale":4081,"redheaded":4082,"stare":4083,"stately":4084,"sters":4085,"stered":4086,"staring":4087,"crownand":4088,"shallow":4089,"eyewing":4090,"eyebrowns":4091,"eyelash":4092,"eyecircles":4093,"eyeball":4094,"inted":4095,"intact":4096,"ons":4097,"onish":4098,"onably":4099,"escent":4100,"roud":4101,"rare":4102,"radi":4103,"ract":4104,"racoon":4105,"areblack":4106,"enth":4107,"enck":4108,"enlar":4109,"entive":4110,"encircles":4111,"enough":4112,"boat":4113,"bored":4114,"grade":4115,"graph":4116,"chop":4117,"chise":4118,"chromatic":4119,"shorty":4120,"boday":4121,"verse":4122,"feathes":4123,"often":4124,"throut":4125,"throad":4126,"eet":4127,"tally":4128,"tari":4129,"taur":4130,"taper":4131,"table":4132,"tagged":4133,"bluie":4134,"throatpatch":4135,"lie":4136,"lithe":4137,"living":4138,"lilac":4139,"blueand":4140,"time":4141,"six":4142,"sight":4143,"darkish":4144,"darkest":4145,"darkened":4146,"lightbrown":4147,"lighted":4148,"lightning":4149,"lightening":4150,"lightens":4151,"bac":4152,"baige":4153,"bags":4154,"backdrop":4155,"culated":4156,"cumfe":4157,"strike":4158,"strict":4159,"umn":4160,"tot":4161,"toened":4162,"spoted":4163,"brigh":4164,"nelly":4165,"sizable":4166,"moth":4167,"moon":4168,"motle":4169,"motion":4170,"moves":4171,"mocking":4172,"mocha":4173,"mohock":4174,"mounted":4175,"patche":4176,"coloed":4177,"coloss":4178,"stripping":4179,"series":4180,"sepi":4181,"omy":4182,"vest":4183,"ulky":4184,"tarsis":4185,"special":4186,"speckeld":4187,"allowing":4188,"cheak":4189,"cheats":4190,"ceown":4191,"deter":4192,"demon":4193,"depic":4194,"uted":4195,"weak":4196,"eyeringed":4197,"cheeky":4198,"cheekstripe":4199,"cheekbones":4200,"tanish":4201,"browh":4202,"abd":4203,"abdo":4204,"abdomin":4205,"abdomenal":4206,"alr":4207,"eyebrowed":4208,"fam":4209,"fave":4210,"upstanding":4211,"rounder":4212,"underwings":4213,"underbill":4214,"underpart":4215,"undersided":4216,"underlying":4217,"covere":4218,"sideways":4219,"downcurved":4220,"downside":4221,"overhead":4222,"oversize":4223,"overshadow":4224,"overbite":4225,"recit":4226,"rector":4227,"rectr":4228,"legnth":4229,"flaring":4230,"flair":4231,"flares":4232,"ards":4233,"soil":4234,"sold":4235,"sotted":4236,"someone":4237,"exp":4238,"exact":4239,"exposed":4240,"example":4241,"pine":4242,"pinstripes":4243,"alongside":4244,"endly":4245,"urish":4246,"uration":4247,"superciliarys":4248,"habit":4249,"haps":4250,"reach":4251,"forma":4252,"forrest":4253,"ski":4254,"skim":4255,"narrows":4256,"spro":4257,"spear":4258,"spac":4259,"spares":4260,"splits":4261,"mimic":4262,"mirro":4263,"stray":4264,"strait":4265,"mulit":4266,"hot":4267,"holes":4268,"vir":4269,"vious":4270,"terms":4271,"ception":4272,"coloringful":4273,"hooklike":4274,"quis":4275,"dise":4276,"distic":4277,"discre":4278,"discer":4279,"distal":4280,"distally":4281,"feint":4282,"feate":4283,"fethers":4284,"perhaps":4285,"irrel":4286,"mixes":4287,"page":4288,"palate":4289,"pathes":4290,"distinction":4291,"flst":4292,"flows":4293,"guar":4294,"gunmetal":4295,"redder":4296,"watches":4297,"goldfinch":4298,"flanked":4299,"purpleish":4300,"centered":4301,"unus":4302,"unlike":4303,"unattractive":4304,"melar":4305,"meld":4306,"mellow":4307,"apple":4308,"apparent":4309,"solidly":4310,"nears":4311,"config":4312,"concentric":4313,"confid":4314,"otter":4315,"stop":4316,"stock":4317,"stoic":4318,"stops":4319,"stopped":4320,"yelloow":4321,"follo":4322,"stomached":4323,"proof":4324,"prote":4325,"combed":4326,"linear":4327,"dullish":4328,"spiking":4329,"adap":4330,"dip":4331,"divi":4332,"divid":4333,"diwth":4334,"bottle":4335,"vagant":4336,"hire":4337,"hiding":4338,"variated":4339,"hung":4340,"unicolor":4341,"tufty":4342,"dog":4343,"dock":4344,"deeply":4345,"hads":4346,"teen":4347,"tether":4348,"tellow":4349,"tectrices":4350,"superciali":4351,"hellow":4352,"mixtures":4353,"whos":4354,"mouthed":4355,"reminds":4356,"contently":4357,"contract":4358,"circumfe":4359,"stip":4360,"stiff":4361,"lively":4362,"midlength":4363,"softly":4364,"reectrices":4365,"runner":4366,"bros":4367,"browin":4368,"whitw":4369,"difficu":4370,"comparatively":4371,"swipe":4372,"averages":4373,"averagely":4374,"slant":4375,"sleep":4376,"mohawked":4377,"swimmer":4378,"premaries":4379,"prepares":4380,"matched":4381,"ruffle":4382,"ruffly":4383,"nearest":4384,"furrowed":4385,"els":4386,"exceptional":4387,"cia":4388,"cird":4389,"cious":4390,"cilliary":4391,"snake":4392,"ashort":4393,"indic":4394,"seafaring":4395,"seagul":4396,"prettily":4397,"strokes":4398,"metalic":4399,"supercillery":4400,"samll":4401,"taloned":4402,"bella":4403,"belley":4404,"nible":4405,"checks":4406,"checkering":4407,"agile":4408,"aggressive":4409,"fiable":4410,"touching":4411,"seemed":4412,"gigan":4413,"shock":4414,"shovel":4415,"shapely":4416,"sively":4417,"camouflaging":4418,"scrat":4419,"combine":4420,"usual":4421,"ains":4422,"fans":4423,"fantail":4424,"note":4425,"pick":4426,"true":4427,"splashed":4428,"corverts":4429,"cormor":4430,"consistant":4431,"rocky":4432,"puffing":4433,"imposing":4434,"mutli":4435,"horns":4436,"horned":4437,"trails":4438,"rectricle":4439,"blotted":4440,"alternate":4441,"bulb":4442,"drawing":4443,"dragon":4444,"interwoven":4445,"ized":4446,"thoat":4447,"cloak":4448,"clored":4449,"cloud":4450,"styled":4451,"sheeny":4452,"greater":4453,"neutrally":4454,"woodpeckers":4455,"additional":4456,"visibly":4457,"viscous":4458,"strangely":4459,"musty":4460,"makeup":4461,"gradienting":4462,"created":4463,"grre":4464,"extravagant":4465,"subtly":4466,"belyl":4467,"ornately":4468,"separate":4469,"miniscule":4470,"sorts":4471,"generali":4472,"bronw":4473,"remains":4474,"peaked":4475,"squished":4476,"squirrel":4477,"plainly":4478,"transitioning":4479,"crowing":4480,"windspan":4481,"windbags":4482,"twin":4483,"bloodshot":4484,"closest":4485,"environments":4486,"lacking":4487,"ponted":4488,"steely":4489,"nexk":4490,"definition":4491,"plumb":4492,"feeds":4493,"thrush":4494,"intricately":4495,"graduated":4496,"complimenting":4497,"earthly":4498,"earthtones":4499,"earthtoened":4500,"clown":4501,"carto":4502,"carriage":4503,"attaches":4504,"mousy":4505,"peace":4506,"damp":4507,"dashed":4508,"sweet":4509,"sunk":4510,"sunset":4511,"sunflower":4512,"streamline":4513,"bushes":4514,"crawl":4515,"delicately":4516,"burgandy":4517,"cyan":4518,"completed":4519,"complementing":4520,"connect":4521,"pieces":4522,"slicked":4523,"attractively":4524,"makings":4525,"frizzy":4526,"friendly":4527,"hardly":4528,"obvious":4529,"winter":4530,"begin":4531,"beaty":4532,"mallar":4533,"bridge":4534,"dominating":4535,"hearty":4536,"curiously":4537,"mantle":4538,"manilla":4539,"sue":4540,"sucking":4541,"suited":4542,"monotone":4543,"equipped":4544,"covart":4545,"secondarily":4546,"amongst":4547,"distinguishable":4548,"flowering":4549,"naturally":4550,"blotched":4551,"fresh":4552,"mild":4553,"intensely":4554,"plane":4555,"punk":4556,"blacj":4557,"positioned":4558,"camoflague":4559,"characte":4560,"ugout":4561,"insects":4562,"jutting":4563,"smile":4564,"breads":4565,"blurred":4566,"blurry":4567,"segment":4568,"marbling":4569,"anteriorly":4570,"identifiable":4571,"shadowed":4572,"randomly":4573,"crwn":4574,"certain":4575,"cerulean":4576,"wading":4577,"waiting":4578,"thora":4579,"supports":4580,"supporting":4581,"strawberry":4582,"displaying":4583,"ebony":4584,"eater":4585,"gaze":4586,"joy":4587,"pleas":4588,"walks":4589,"inalar":4590,"brease":4591,"stains":4592,"stained":4593,"provides":4594,"accentuating":4595,"characteristics":4596,"crossed":4597,"ecru":4598,"eccentric":4599,"takes":4600,"taking":4601,"bends":4602,"attentive":4603,"curls":4604,"predatory":4605,"firey":4606,"corners":4607,"ballooned":4608,"drooping":4609,"photograph":4610,"frosted":4611,"frozen":4612,"gripping":4613,"hunting":4614,"jade":4615,"jaguar":4616,"ourter":4617,"slab":4618,"slam":4619,"spattered":4620,"rence":4621,"rouded":4622,"expression":4623,"expanded":4624,"expanding":4625,"packet":4626,"slivers":4627,"calls":4628,"called":4629,"creepy":4630,"clings":4631,"physi":4632,"tilts":4633,"lardge":4634,"belied":4635,"originating":4636,"stormy":4637,"stringy":4638,"raccoon":4639,"chirp":4640,"undefined":4641,"neatly":4642,"secondarines":4643,"expect":4644,"butterfly":4645,"splattered":4646,"fluttery":4647,"extensively":4648,"progressing":4649,"swath":4650,"swamp":4651,"startlingly":4652,"describes":4653,"recognized":4654,"recognizable":4655,"abodomen":4656,"calm":4657,"fuscia":4658,"falcon":4659,"halved":4660,"healthy":4661,"number":4662,"purpose":4663,"pumpkin":4664,"spines":4665,"wintry":4666,"reasonably":4667,"reptile":4668,"oragne":4669,"brewers":4670,"shift":4671,"rapidly":4672,"encased":4673,"luminous":4674,"throughtout":4675,"patterend":4676,"mosly":4677,"secodaries":4678,"paradise":4679,"primairies":4680,"downwward":4681,"exeception":4682,"quarters":4683,"meanwhile":4684,"concentrated":4685,"considerably":4686,"proximal":4687,"varigated":4688,"incorporated":4689,"budding":4690,"transcends":4691,"submerged":4692,"coordinate":4693,"clasped":4694,"appropriate":4695,"superiors":4696,"diagonal":4697,"immensely":4698,"after":4699,"autumn":4700,"citrine":4701,"cactus":4702,"dalmati":4703,"evident":4704,"fabulous":4705,"iconic":4706,"murky":4707,"order":4708,"oatmeal":4709,"smell":4710,"sapphire":4711,"scooped":4712,"tortoise":4713,"tangerine":4714,"anatomy":4715,"assists":4716,"retracted":4717,"whilst":4718,"yekkiw":4719,"attract":4720,"armpit":4721,"georgous":4722,"erupting":4723,"breaststroke":4724,"roudned":4725,"radiant":4726,"enlarged":4727,"choppy":4728,"chiseled":4729,"taurus":4730,"strictly":4731,"motley":4732,"mockingbird":4733,"colossal":4734,"sepia":4735,"determin":4736,"demonstr":4737,"rectories":4738,"mirrored":4739,"distictive":4740,"discreet":4741,"discernible":4742,"featehrs":4743,"configuration":4744,"confident":4745,"following":4746,"protec":4747,"divided":4748,"supercialiary":4749,"circumference":4750,"difficult":4751,"gigantic":4752,"cormorant":4753,"generaliz":4754,"physique":4755,"dalmatian":4756,"\",":4757,"\"-":4758,"\".":4759,");":4760,",\"":4761,"./":4762,"11":4763,"13":4764,"14":4765,"18":4766,"2white":4767,"38":4768,"3d":4769,"3t":4770,"4x":4771,"438":4772,"50":4773,"80":4774,"810":4775,"90":4776,"92":4777,"9ok":4778,";;":4779,"ath":4780,"abird":4781,"ala":4782,"aite":4783,"aco":4784,"abreast":4785,"acrown":4786,"aits":4787,"aare":4788,"abright":4789,"apri":4790,"ace":4791,"ade":4792,"aur":4793,"aff":4794,"ami":4795,"aalso":4796,"agrayish":4797,"arily":4798,"aches":4799,"aforest":4800,"afri":4801,"ahwite":4802,"ails":4803,"aired":4804,"athed":4805,"bg":4806,"bn":4807,"brd":4808,"bbird":4809,"bbe":4810,"bthis":4811,"bon":4812,"bgray":4813,"bli":4814,"bblue":4815,"bum":4816,"bled":4817,"bbed":4818,"bby":4819,"barrow":4820,"bub":4821,"bank":4822,"bhi":4823,"bty":4824,"bone":4825,"bowl":4826,"bble":4827,"bmen":4828,"bows":4829,"bless":4830,"bake":4831,"brome":4832,"bved":4833,"bony":4834,"btight":4835,"cp":4836,"cand":4837,"cblack":4838,"cin":4839,"cea":4840,"ccrown":4841,"chead":4842,"care":4843,"clor":4844,"cti":4845,"cled":4846,"cili":4847,"cant":4848,"cting":4849,"cated":4850,"cally":4851,"ctor":4852,"ctow":4853,"clash":4854,"crock":4855,"cable":4856,"croon":4857,"climb":4858,"cess":4859,"cited":4860,"candy":4861,"dd":4862,"dr":4863,"ds":4864,"dv":4865,"dow":4866,"dre":4867,"dhas":4868,"dwhite":4869,"drown":4870,"dak":4871,"dhead":4872,"dfeather":4873,"dum":4874,"dul":4875,"dled":4876,"dard":4877,"dear":4878,"dry":4879,"dation":4880,"dance":4881,"dling":4882,"dder":4883,"dabs":4884,"death":4885,"ef":4886,"eh":4887,"ek":4888,"em":4889,"eu":4890,"eis":4891,"eblack":4892,"ebrown":4893,"elly":4894,"elo":4895,"east":4896,"een":4897,"eby":4898,"eight":4899,"event":4900,"elli":4901,"ecent":4902,"ekes":4903,"eves":4904,"ement":4905,"emin":4906,"eings":4907,"ecks":4908,"fk":4909,"fs":4910,"fed":4911,"fea":4912,"fil":4913,"fom":4914,"fce":4915,"fts":4916,"fdis":4917,"frump":4918,"fied":4919,"fash":4920,"find":4921,"fers":4922,"fake":4923,"fears":4924,"feath":4925,"fris":4926,"gt":4927,"git":4928,"gat":4929,"gar":4930,"glor":4931,"gli":4932,"gap":4933,"glim":4934,"gnature":4935,"gtly":4936,"grows":4937,"gnar":4938,"guses":4939,"glare":4940,"hblack":4941,"hes":4942,"hange":4943,"hee":4944,"hark":4945,"hugh":4946,"hread":4947,"hers":4948,"hsort":4949,"hwit":4950,"hanced":4951,"hrey":4952,"hgt":4953,"ian":4954,"iwh":4955,"iri":4956,"ier":4957,"ien":4958,"icolored":4959,"iaries":4960,"iish":4961,"iary":4962,"iet":4963,"iate":4964,"iest":4965,"ippe":4966,"ipping":4967,"iple":4968,"iwngs":4969,"imaries":4970,"ihgt":4971,"jg":4972,"jt":4973,"ju":4974,"jac":4975,"j3t":4976,"jhers":4977,"kis":4978,"kled":4979,"keep":4980,"kno":4981,"lw":4982,"lye":4983,"last":4984,"lbars":4985,"lted":4986,"lmostly":4987,"lear":4988,"lwo":4989,"lving":4990,"lves":4991,"lverts":4992,"lenth":4993,"mg":4994,"mead":4995,"mish":4996,"minn":4997,"mant":4998,"mno":4999,"mmer":5000,"musky":5001,"mmofla":5002,"mist":5003,"money":5004,"nis":5005,"now":5006,"nck":5007,"nak":5008,"nbelly":5009,"nwings":5010,"nes":5011,"nits":5012,"nce":5013,"ntle":5014,"nub":5015,"nvent":5016,"nky":5017,"nash":5018,"nasi":5019,"nake":5020,"narsus":5021,"os":5022,"ou":5023,"ox":5024,"oy":5025,"olly":5026,"obre":5027,"oen":5028,"och":5029,"oil":5030,"olarge":5031,"oum":5032,"opa":5033,"ohi":5034,"oven":5035,"ores":5036,"ooked":5037,"oyed":5038,"ohs":5039,"ocious":5040,"pf":5041,"pli":5042,"pars":5043,"ppatch":5044,"pus":5045,"pall":5046,"peek":5047,"pac":5048,"pion":5049,"ptive":5050,"pportion":5051,"pied":5052,"pies":5053,"pass":5054,"ppy":5055,"pinty":5056,"pnted":5057,"ppen":5058,"prac":5059,"preaching":5060,"pciliary":5061,"psotted":5062,"qith":5063,"rth":5064,"rin":5065,"rst":5066,"rly":5067,"rprimaries":5068,"rry":5069,"ration":5070,"rating":5071,"rang":5072,"rise":5073,"rised":5074,"rbow":5075,"rises":5076,"rtiped":5077,"sz":5078,"sck":5079,"sor":5080,"swing":5081,"sin":5082,"sbelly":5083,"ser":5084,"sst":5085,"son":5086,"sen":5087,"ssi":5088,"sback":5089,"sle":5090,"sries":5091,"som":5092,"sprima":5093,"sut":5094,"sround":5095,"sear":5096,"sump":5097,"sile":5098,"subby":5099,"slid":5100,"smas":5101,"sust":5102,"sches":5103,"snap":5104,"sert":5105,"smud":5106,"sink":5107,"sways":5108,"srtiped":5109,"td":5110,"tl":5111,"tthis":5112,"tat":5113,"tee":5114,"tely":5115,"tles":5116,"tling":5117,"tread":5118,"tending":5119,"ued":5120,"une":5121,"utive":5122,"ufl":5123,"uet":5124,"ural":5125,"ugy":5126,"uwn":5127,"urious":5128,"usion":5129,"ucous":5130,"vk":5131,"van":5132,"vre":5133,"vbill":5134,"vare":5135,"vort":5136,"vlu":5137,"vee":5138,"vring":5139,"vback":5140,"vover":5141,"vated":5142,"vention":5143,"vines":5144,"vealing":5145,"ws":5146,"wy":5147,"wbrown":5148,"wea":5149,"wee":5150,"wnd":5151,"wrest":5152,"wrings":5153,"wter":5154,"want":5155,"wad":5156,"wning":5157,"wadd":5158,"wedged":5159,"wborn":5160,"wrink":5161,"xima":5162,"xurious":5163,"yyellow":5164,"ylor":5165,"ying":5166,"ybrow":5167,"yard":5168,"yllow":5169,"ymous":5170,"yue":5171,"yond":5172,"yhellow":5173,"zon":5174,"zish":5175,"zard":5176,"zze":5177,"zily":5178,"zoo":5179,"thr":5180,"thre":5181,"throw":5182,"thri":5183,"thunder":5184,"thhis":5185,"thank":5186,"thod":5187,"thci":5188,"thrat":5189,"anf":5190,"ann":5191,"anthe":5192,"anorange":5193,"anish":5194,"anad":5195,"anning":5196,"ances":5197,"ancill":5198,"anbd":5199,"anial":5200,"andt":5201,"andhas":5202,"andwhite":5203,"andbrown":5204,"andon":5205,"andinner":5206,"andcovets":5207,"bis":5208,"bick":5209,"bire":5210,"biar":5211,"bili":5212,"biled":5213,"bike":5214,"bino":5215,"bifur":5216,"bisec":5217,"biill":5218,"birid":5219,"bilateral":5220,"bifid":5221,"lling":5222,"llus":5223,"llaries":5224,"llant":5225,"llarge":5226,"wight":5227,"wita":5228,"wipe":5229,"wine":5230,"wisk":5231,"witch":5232,"witr":5233,"willow":5234,"wiwth":5235,"widen":5236,"wiphite":5237,"wirth":5238,"isn":5239,"isblack":5240,"iswhite":5241,"ismostly":5242,"isso":5243,"iscovered":5244,"isies":5245,"ismic":5246,"iscer":5247,"istant":5248,"isbon":5249,"rdeve":5250,"bird1":5251,"birdh":5252,"birdi":5253,"birdit":5254,"birdwith":5255,"birdhas":5256,"birdba":5257,"asr":5258,"asnd":5259,"asus":5260,"aswell":5261,"ascen":5262,"assy":5263,"asging":5264,"owling":5265,"ckle":5266,"ckeek":5267,"cket":5268,"ckoo":5269,"reo":5270,"rer":5271,"reed":5272,"reast":5273,"rele":5274,"rely":5275,"reing":5276,"rene":5277,"recurved":5278,"retin":5279,"remi":5280,"rent":5281,"retain":5282,"rellow":5283,"reje":5284,"rebel":5285,"refined":5286,"reverse":5287,"revealing":5288,"lakes":5289,"lact":5290,"lays":5291,"lacy":5292,"laarge":5293,"lakc":5294,"ladder":5295,"lazily":5296,"itsh":5297,"ittle":5298,"ities":5299,"itrely":5300,"witht":5301,"withw":5302,"withbrown":5303,"withgrey":5304,"withgreen":5305,"withing":5306,"withpink":5307,"withwhtie":5308,"hash":5309,"nge":5310,"nger":5311,"ngthed":5312,"blades":5313,"blame":5314,"blacl":5315,"blazed":5316,"blaack":5317,"blazes":5318,"blazon":5319,"blackc":5320,"blacki":5321,"blackx":5322,"blackwith":5323,"blacker":5324,"blackcrown":5325,"blackeye":5326,"blackthroat":5327,"blacktail":5328,"blackfeet":5329,"blackcheek":5330,"blacktop":5331,"beye":5332,"beed":5333,"belo":5334,"bered":5335,"bespeckled":5336,"beal":5337,"besk":5338,"beid":5339,"belt":5340,"become":5341,"beyond":5342,"thisthis":5343,"whut":5344,"whings":5345,"whaite":5346,"ites":5347,"itely":5348,"whited":5349,"whitee":5350,"whiten":5351,"whitey":5352,"whiteand":5353,"whitebelly":5354,"whitehead":5355,"whitebody":5356,"whitefeathers":5357,"whitecovering":5358,"whiteexcept":5359,"yer":5360,"yelly":5361,"yelo":5362,"yelk":5363,"yeallow":5364,"yelwo":5365,"brownb":5366,"brownm":5367,"brownw":5368,"browned":5369,"brownin":5370,"brownbreast":5371,"brownbody":5372,"brownback":5373,"thebreast":5374,"ora":5375,"orna":5376,"orad":5377,"orance":5378,"orise":5379,"orient":5380,"orien":5381,"orthod":5382,"winga":5383,"winge":5384,"wingand":5385,"wingab":5386,"wingtipped":5387,"wingband":5388,"winglines":5389,"wingps":5390,"wingtripes":5391,"wingbras":5392,"wingets":5393,"winglbars":5394,"winglays":5395,"maint":5396,"mail":5397,"mali":5398,"males":5399,"mating":5400,"mate":5401,"maze":5402,"maize":5403,"atis":5404,"atil":5405,"atied":5406,"atured":5407,"atening":5408,"ataed":5409,"akes":5410,"eding":5411,"beakl":5412,"inand":5413,"ined":5414,"iner":5415,"inch":5416,"inaries":5417,"inflat":5418,"infe":5419,"indo":5420,"inbetween":5421,"insu":5422,"iness":5423,"inator":5424,"infant":5425,"invo":5426,"inquis":5427,"indistinguishable":5428,"inappropriate":5429,"indetermin":5430,"bellyw":5431,"bellyy":5432,"rie":5433,"rier":5434,"rion":5435,"ripe":5436,"riing":5437,"riaries":5438,"riff":5439,"riad":5440,"riva":5441,"riangular":5442,"ripped":5443,"riots":5444,"rized":5445,"ripp":5446,"ribbed":5447,"smaill":5448,"smattered":5449,"smallb":5450,"smalle":5451,"smallg":5452,"smalls":5453,"smallt":5454,"smallbrown":5455,"smallperching":5456,"eap":5457,"eage":5458,"eable":5459,"eagle":5460,"wingsthat":5461,"wingsbars":5462,"wingsbar":5463,"wingset":5464,"yellowblack":5465,"yellowed":5466,"yellower":5467,"yellowbreast":5468,"yellowgray":5469,"yellowpatch":5470,"yellownape":5471,"lore":5472,"lost":5473,"loon":5474,"loght":5475,"lond":5476,"lodes":5477,"loped":5478,"loud":5479,"looped":5480,"locali":5481,"lodge":5482,"loarge":5483,"lousi":5484,"lo9ok":5485,"billow":5486,"billwith":5487,"arc":5488,"arm":5489,"art":5490,"arch":5491,"arti":5492,"arish":5493,"argy":5494,"arresting":5495,"army":5496,"arou":5497,"grena":5498,"greyed":5499,"greey":5500,"greeb":5501,"greyer":5502,"cot":5503,"core":5504,"cored":5505,"cofee":5506,"coff":5507,"cott":5508,"coun":5509,"comoufla":5510,"coeve":5511,"covring":5512,"geome":5513,"geeen":5514,"gentle":5515,"erg":5516,"erred":5517,"ercep":5518,"erry":5519,"erous":5520,"erhs":5521,"erved":5522,"longand":5523,"longorange":5524,"longated":5525,"longtailed":5526,"pord":5527,"poof":5528,"poli":5529,"pomp":5530,"pood":5531,"potion":5532,"poison":5533,"poupon":5534,"popped":5535,"podge":5536,"poited":5537,"pounted":5538,"poiny":5539,"pocket":5540,"astonish":5541,"breed":5542,"brelly":5543,"breathed":5544,"breaston":5545,"breastfeathers":5546,"breasting":5547,"breastts":5548,"breastalong":5549,"breastss":5550,"breastline":5551,"breastplate":5552,"greyt":5553,"greyand":5554,"greyis":5555,"greybird":5556,"greycolor":5557,"redand":5558,"redwith":5559,"redbill":5560,"redbreast":5561,"stead":5562,"stly":5563,"sting":5564,"stut":5565,"strings":5566,"stump":5567,"stir":5568,"stry":5569,"stic":5570,"state":5571,"stable":5572,"stones":5573,"statured":5574,"crowna":5575,"crownb":5576,"shor":5577,"shead":5578,"shes":5579,"shra":5580,"share":5581,"shall":5582,"sheek":5583,"shab":5584,"shstriped":5585,"shrot":5586,"shake":5587,"sheath":5588,"shrouded":5589,"shipping":5590,"thaty":5591,"thatch":5592,"heada":5593,"headdre":5594,"eyee":5595,"eyestrip":5596,"eyepatches":5597,"eyeru":5598,"eyebar":5599,"eyelid":5600,"eyelin":5601,"eyerink":5602,"eyebrew":5603,"eyerbow":5604,"eyereing":5605,"eyeriing":5606,"intently":5607,"ont":5608,"once":5609,"esp":5610,"essing":5611,"pointe":5612,"pointex":5613,"its0":5614,"itsbody":5615,"itsback":5616,"itschest":5617,"rowing":5618,"roma":5619,"roat":5620,"robo":5621,"roof":5622,"rope":5623,"roing":5624,"rove":5625,"rots":5626,"roound":5627,"roun":5628,"roused":5629,"roost":5630,"ram":5631,"raling":5632,"rageous":5633,"raising":5634,"raucous":5635,"ghing":5636,"ghroat":5637,"aren":5638,"arebrown":5639,"areyellow":5640,"aregray":5641,"enour":5642,"enails":5643,"enhanced":5644,"enitrely":5645,"enlongated":5646,"bore":5647,"bobo":5648,"book":5649,"bough":5650,"bolt":5651,"boack":5652,"boxed":5653,"bosom":5654,"grape":5655,"gravel":5656,"grackles":5657,"graphite":5658,"grainy":5659,"gradation":5660,"angelic":5661,"graywith":5662,"graywings":5663,"graying":5664,"grayscale":5665,"chy":5666,"chpatch":5667,"chal":5668,"chrest":5669,"chub":5670,"chling":5671,"chain":5672,"chair":5673,"chip":5674,"chia":5675,"cheap":5676,"cherry":5677,"chroma":5678,"orangebreast":5679,"shorts":5680,"shorted":5681,"shortish":5682,"bodt":5683,"bodice":5684,"bodwy":5685,"larsi":5686,"larva":5687,"larhe":5688,"vers":5689,"vert":5690,"version":5691,"versus":5692,"luted":5693,"luses":5694,"luster":5695,"luxurious":5696,"featherd":5697,"feathets":5698,"ilium":5699,"ilcolored":5700,"colorul":5701,"colorfully":5702,"coloriz":5703,"colorless":5704,"colorufl":5705,"feathersm":5706,"feathersand":5707,"ofver":5708,"ofcblack":5709,"throa":5710,"throaq":5711,"througout":5712,"throasr":5713,"eevery":5714,"eeybrow":5715,"eerie":5716,"tam":5717,"tax":5718,"taled":5719,"talk":5720,"taunt":5721,"talic":5722,"tappers":5723,"taluses":5724,"ndaries":5725,"pel":5726,"pey":5727,"pest":5728,"pefect":5729,"peters":5730,"peice":5731,"pe3d":5732,"pewter":5733,"throate":5734,"throatted":5735,"liary":5736,"life":5737,"lille":5738,"lizard":5739,"lighing":5740,"bluebird":5741,"bluegreen":5742,"bluelegs":5743,"bluejay":5744,"largest":5745,"largecompared":5746,"tick":5747,"ties":5748,"tipe":5749,"tiff":5750,"tible":5751,"timore":5752,"ticked":5753,"tivity":5754,"tailand":5755,"tailbars":5756,"tailtips":5757,"tailfeathering":5758,"taildfeather":5759,"tailgat":5760,"pointedbrown":5761,"sic":5762,"sian":5763,"simp":5764,"siding":5765,"sixed":5766,"sicks":5767,"signature":5768,"sickle":5769,"darkpointed":5770,"arsed":5771,"ringeye":5772,"ringbars":5773,"ringbone":5774,"lights":5775,"lighting":5776,"lightful":5777,"lightpink":5778,"bad":5779,"bag":5780,"bape":5781,"bathing":5782,"balk":5783,"backand":5784,"backwith":5785,"backish":5786,"backend":5787,"backward":5788,"backyard":5789,"letic":5790,"level":5791,"lengthed":5792,"cuff":5793,"cules":5794,"cusing":5795,"cutie":5796,"cupine":5797,"culverts":5798,"cullaries":5799,"cuckoo":5800,"cuerved":5801,"greenery":5802,"feeat":5803,"feeet":5804,"feets":5805,"undant":5806,"undiscer":5807,"stright":5808,"stribed":5809,"striation":5810,"strikes":5811,"strioed":5812,"uming":5813,"umber":5814,"ingly":5815,"eyesand":5816,"toi":5817,"tope":5818,"toup":5819,"tour":5820,"tough":5821,"tome":5822,"tooth":5823,"today":5824,"toenails":5825,"spotter":5826,"spottd":5827,"brien":5828,"brief":5829,"brigtly":5830,"brillant":5831,"neural":5832,"nevk":5833,"newborn":5834,"pattered":5835,"pattering":5836,"patsches":5837,"patriots":5838,"medum":5839,"medoum":5840,"necka":5841,"necks":5842,"neckband":5843,"neckless":5844,"sizd":5845,"sizeable":5846,"mod":5847,"mound":5848,"mour":5849,"mold":5850,"mosa":5851,"moment":5852,"molt":5853,"mohogany":5854,"mohal":5855,"molted":5856,"mollus":5857,"patchj":5858,"patchs":5859,"colod":5860,"coloful":5861,"coloredd":5862,"stripy":5863,"striple":5864,"striples":5865,"seve":5866,"sets":5867,"seated":5868,"seismic":5869,"serene":5870,"usa":5871,"nal":5872,"nall":5873,"narow":5874,"nail":5875,"naries":5876,"nave":5877,"nable":5878,"namon":5879,"naylor":5880,"curring":5881,"curling":5882,"curbved":5883,"current":5884,"vet":5885,"vering":5886,"veling":5887,"veils":5888,"veins":5889,"vectrices":5890,"venger":5891,"ulent":5892,"curven":5893,"curvbed":5894,"curvage":5895,"tarses":5896,"tarsal":5897,"speak":5898,"speed":5899,"speaks":5900,"spekc":5901,"spekled":5902,"speckels":5903,"tarsusa":5904,"tarsused":5905,"partri":5906,"parched":5907,"parrots":5908,"allir":5909,"alloped":5910,"cheat":5911,"cheast":5912,"chees":5913,"cheated":5914,"cheerful":5915,"cheery":5916,"chechpatch":5917,"secondiaries":5918,"secondsries":5919,"primit":5920,"priimaries":5921,"celet":5922,"cement":5923,"celiary":5924,"mosty":5925,"primaily":5926,"primariaries":5927,"primaties":5928,"chesty":5929,"dered":5930,"dely":5931,"deline":5932,"delightful":5933,"utty":5934,"shart":5935,"sharper":5936,"curvedb":5937,"curvedbeak":5938,"west":5939,"weight":5940,"weings":5941,"cheekspot":5942,"cheekstrip":5943,"cheekpatches":5944,"tribut":5945,"tricep":5946,"triag":5947,"tana":5948,"tank":5949,"tanage":5950,"browb":5951,"abuts":5952,"abulky":5953,"abandon":5954,"abundant":5955,"tippe3d":5956,"abdoman":5957,"abdomon":5958,"abdomend":5959,"coverst":5960,"covertail":5961,"spottedbelly":5962,"alp":5963,"alder":5964,"almos":5965,"albino":5966,"alittle":5967,"alshes":5968,"fae":5969,"fail":5970,"father":5971,"favor":5972,"tiniest":5973,"upto":5974,"upside":5975,"upset":5976,"upgoing":5977,"upraised":5978,"uplif":5979,"uplifted":5980,"rounds":5981,"roundly":5982,"rounding":5983,"undercover":5984,"underbellied":5985,"underbrush":5986,"undercarriage":5987,"restic":5988,"restless":5989,"dessert":5990,"outmost":5991,"outsides":5992,"outstanding":5993,"outrageous":5994,"covet":5995,"coveted":5996,"coveting":5997,"coverim":5998,"litary":5999,"littered":6000,"littl":6001,"sideand":6002,"sidering":6003,"downwo":6004,"downlike":6005,"downcurving":6006,"downsloping":6007,"overs":6008,"overtop":6009,"overtones":6010,"overtone":6011,"overlay":6012,"overaq":6013,"overhung":6014,"thic":6015,"recess":6016,"recently":6017,"recrices":6018,"receding":6019,"thinly":6020,"oky":6021,"comped":6022,"complime":6023,"compaired":6024,"stripey":6025,"innter":6026,"erced":6027,"supic":6028,"thickbill":6029,"supercilium":6030,"supercallir":6031,"pluff":6032,"pluage":6033,"pluam":6034,"plucked":6035,"entering":6036,"flack":6037,"flare":6038,"flame":6039,"flaked":6040,"flakes":6041,"flavor":6042,"flaired":6043,"flappers":6044,"shapen":6045,"shafts":6046,"soar":6047,"soon":6048,"soda":6049,"solves":6050,"solitary":6051,"flatly":6052,"flatter":6053,"flatness":6054,"someones":6055,"exagger":6056,"exces":6057,"exquis":6058,"excited":6059,"pinstripe":6060,"pincer":6061,"pinyon":6062,"ilian":6063,"iliari":6064,"topsides":6065,"topline":6066,"topping":6067,"topaz":6068,"topknot":6069,"pinks":6070,"pinky":6071,"pinkness":6072,"supercilious":6073,"supercilials":6074,"superciliari":6075,"webbe":6076,"webfooted":6077,"webbing":6078,"bedhead":6079,"ffec":6080,"haed":6081,"haun":6082,"haird":6083,"happ":6084,"happen":6085,"reacing":6086,"formed":6087,"forag":6088,"formal":6089,"forks":6090,"skir":6091,"skies":6092,"kings":6093,"arrows":6094,"arrowhead":6095,"arrowpoints":6096,"narrowly":6097,"eart":6098,"earthen":6099,"acting":6100,"acial":6101,"mary":6102,"martin":6103,"margins":6104,"histor":6105,"streas":6106,"strength":6107,"streets":6108,"butte":6109,"bigbill":6110,"biggish":6111,"spn":6112,"splend":6113,"spry":6114,"spends":6115,"sphere":6116,"sploc":6117,"spray":6118,"spckled":6119,"spack":6120,"sppotted":6121,"spckles":6122,"sporad":6123,"spalshes":6124,"mimg":6125,"strap":6126,"straihgt":6127,"rues":6128,"ruding":6129,"rubbe":6130,"magestic":6131,"hour":6132,"hodge":6133,"hoooked":6134,"houet":6135,"hovering":6136,"vill":6137,"vidi":6138,"vidual":6139,"ville":6140,"victor":6141,"vireo":6142,"golf":6143,"godied":6144,"gobble":6145,"looked":6146,"tershading":6147,"creams":6148,"beally":6149,"beaver":6150,"beading":6151,"beaming":6152,"beaded":6153,"throughly":6154,"throughput":6155,"widest":6156,"barn":6157,"barrier":6158,"cepted":6159,"ioning":6160,"outers":6161,"outermost":6162,"outerrectrices":6163,"outerreach":6164,"whith":6165,"whire":6166,"whiite":6167,"whiet":6168,"whichecked":6169,"quot":6170,"quill":6171,"quently":6172,"quished":6173,"quiet":6174,"quorise":6175,"discolored":6176,"disgu":6177,"discent":6178,"discoloration":6179,"disproportional":6180,"disbur":6181,"distrac":6182,"disproportionally":6183,"disgru":6184,"distribut":6185,"dissolves":6186,"fether":6187,"fety":6188,"festi":6189,"felt":6190,"fethered":6191,"festers":6192,"females":6193,"fevers":6194,"multicoloed":6195,"multiclored":6196,"multicored":6197,"woolly":6198,"alsos":6199,"ventrally":6200,"tively":6201,"patternes":6202,"kered":6203,"keen":6204,"kept":6205,"pert":6206,"perry":6207,"perwinkle":6208,"rumpp":6209,"rumps":6210,"rumpled":6211,"irange":6212,"ntled":6213,"tonal":6214,"pae":6215,"pay":6216,"painted":6217,"streaksand":6218,"distinquished":6219,"distinctie":6220,"flown":6221,"gued":6222,"gualr":6223,"lliaries":6224,"lligent":6225,"redding":6226,"reddiish":6227,"watch":6228,"watching":6229,"palest":6230,"completly":6231,"stubbybeak":6232,"waterproof":6233,"waterthrush":6234,"entiful":6235,"entified":6236,"flush":6237,"flume":6238,"fluttered":6239,"flustered":6240,"flurry":6241,"wingbarred":6242,"duo":6243,"entires":6244,"brs":6245,"brite":6246,"brant":6247,"brake":6248,"brandt":6249,"central":6250,"plumpish":6251,"units":6252,"uncurved":6253,"unts":6254,"unspotted":6255,"union":6256,"ununi":6257,"unproportional":6258,"unass":6259,"unless":6260,"unmarked":6261,"unpleas":6262,"unorthod":6263,"unveils":6264,"meg":6265,"meat":6266,"meant":6267,"meedium":6268,"wingspann":6269,"featureless":6270,"appealing":6271,"nearby":6272,"haveing":6273,"conca":6274,"concre":6275,"concea":6276,"consump":6277,"convention":6278,"convert":6279,"considering":6280,"triangled":6281,"triangualr":6282,"extruding":6283,"stopping":6284,"yellos":6285,"yelloiw":6286,"greenishyellow":6287,"fox":6288,"foled":6289,"foots":6290,"focusing":6291,"uppermost":6292,"upperside":6293,"propit":6294,"proud":6295,"profound":6296,"propr":6297,"promaries":6298,"project":6299,"process":6300,"propel":6301,"compon":6302,"composition":6303,"compatriots":6304,"aboce":6305,"abomin":6306,"ereffec":6307,"offers":6308,"link":6309,"tinging":6310,"rying":6311,"silk":6312,"silhouet":6313,"icient":6314,"relativity":6315,"stouts":6316,"undertails":6317,"undertailed":6318,"thighss":6319,"vibrating":6320,"ominous":6321,"predominate":6322,"predominently":6323,"iridescently":6324,"tube":6325,"tured":6326,"tune":6327,"tuse":6328,"tually":6329,"turou":6330,"tucted":6331,"tuxed":6332,"tucks":6333,"spills":6334,"spiculated":6335,"spiraling":6336,"relativey":6337,"ado":6338,"adee":6339,"adding":6340,"adour":6341,"adjac":6342,"admist":6343,"adabomin":6344,"lowered":6345,"silverbill":6346,"diet":6347,"dims":6348,"dimen":6349,"dimin":6350,"dips":6351,"diverse":6352,"digit":6353,"dimmer":6354,"diluted":6355,"fuffy":6356,"fuzze":6357,"bottomed":6358,"tching":6359,"vague":6360,"hip":6361,"hilly":6362,"hiber":6363,"hinted":6364,"variant":6365,"variag":6366,"variances":6367,"variatied":6368,"ancestry":6369,"tically":6370,"turkey":6371,"turquorise":6372,"tionally":6373,"tionship":6374,"mainlly":6375,"etrating":6376,"masking":6377,"maske":6378,"tallon":6379,"tallest":6380,"tallons":6381,"doted":6382,"dogs":6383,"dosile":6384,"dopey":6385,"increas":6386,"teh":6387,"tel":6388,"temple":6389,"tethers":6390,"superciiliary":6391,"superciiary":6392,"supercilliaries":6393,"spanning":6394,"spangled":6395,"noble":6396,"nothing":6397,"nourish":6398,"vividness":6399,"included":6400,"inclusive":6401,"opposed":6402,"opulent":6403,"football":6404,"higher":6405,"highlighing":6406,"heas":6407,"heck":6408,"heed":6409,"hewn":6410,"typic":6411,"clamp":6412,"ages":6413,"whoe":6414,"mouse":6415,"wkth":6416,"jetblack":6417,"contrac":6418,"beinga":6419,"stips":6420,"stipp":6421,"alson":6422,"cao":6423,"caw":6424,"cading":6425,"caged":6426,"camel":6427,"causing":6428,"cavity":6429,"cammofla":6430,"cavort":6431,"carion":6432,"smoked":6433,"smoother":6434,"midst":6435,"midium":6436,"midair":6437,"midday":6438,"midsz":6439,"flecking":6440,"contrasging":6441,"tinting":6442,"broan":6443,"broand":6444,"brother":6445,"broze":6446,"brouwn":6447,"whitr":6448,"whitye":6449,"diffuse":6450,"diffuses":6451,"switch":6452,"limbed":6453,"difference":6454,"surves":6455,"sitt":6456,"anchored":6457,"ducking":6458,"ducklike":6459,"swimmimg":6460,"prehistor":6461,"bitd":6462,"bites":6463,"otherside":6464,"halfway":6465,"lingala":6466,"sticklike":6467,"ruffles":6468,"thereof":6469,"catus":6470,"catches":6471,"catalog":6472,"nearing":6473,"nearer":6474,"broadside":6475,"partner":6476,"somewhatlighter":6477,"elvis":6478,"elbows":6479,"elongate":6480,"elongaed":6481,"needed":6482,"cies":6483,"cigar":6484,"treebird":6485,"angles":6486,"variously":6487,"based":6488,"snon":6489,"snippe":6490,"snakes":6491,"ashed":6492,"ashen":6493,"fronted":6494,"frontal":6495,"indentified":6496,"seagoing":6497,"seams":6498,"target":6499,"targuses":6500,"frontside":6501,"slimmer":6502,"sack":6503,"sades":6504,"samall":6505,"said":6506,"sautty":6507,"safety":6508,"promement":6509,"anything":6510,"belled":6511,"belloed":6512,"nird":6513,"nick":6514,"hairlike":6515,"haircut":6516,"blew":6517,"bleak":6518,"blely":6519,"ambered":6520,"torund":6521,"torse":6522,"torsus":6523,"berk":6524,"berries":6525,"strongly":6526,"strongest":6527,"capable":6528,"venile":6529,"veness":6530,"bue":6531,"bule":6532,"buffy":6533,"bugs":6534,"buoyed":6535,"buugy":6536,"five":6537,"fiest":6538,"fills":6539,"fiacial":6540,"puddle":6541,"puddly":6542,"touched":6543,"chins":6544,"stripings":6545,"gible":6546,"given":6547,"fuller":6548,"hinds":6549,"shots":6550,"shoots":6551,"towhee":6552,"starkwhite":6553,"opens":6554,"openly":6555,"openings":6556,"fins":6557,"finer":6558,"glossi":6559,"plack":6560,"plays":6561,"plaid":6562,"platea":6563,"playing":6564,"ppery":6565,"interest":6566,"interior":6567,"intelligent":6568,"burn":6569,"asia":6570,"coller":6571,"collect":6572,"collec":6573,"splotching":6574,"larsud":6575,"flightless":6576,"scant":6577,"scler":6578,"scanning":6579,"scisso":6580,"scowling":6581,"scalloped":6582,"scalp":6583,"evenness":6584,"salty":6585,"coppers":6586,"gulls":6587,"combines":6588,"egal":6589,"woody":6590,"wooded":6591,"woodland":6592,"mers":6593,"merging":6594,"retrics":6595,"usually":6596,"leadingto":6597,"resat":6598,"respond":6599,"resistant":6600,"blil":6601,"blank":6602,"blcak":6603,"blsck":6604,"secndaries":6605,"fancy":6606,"regards":6607,"notching":6608,"fishtail":6609,"fisheyed":6610,"lashes":6611,"pian":6612,"pilliary":6613,"pipit":6614,"picked":6615,"pipping":6616,"truck":6617,"beep":6618,"larsuses":6619,"cannot":6620,"canters":6621,"monster":6622,"trasus":6623,"crowd":6624,"crows":6625,"crowed":6626,"crowbars":6627,"crowwn":6628,"crowbn":6629,"orangs":6630,"orangge":6631,"againsst":6632,"correspond":6633,"forefront":6634,"dormant":6635,"scatthered":6636,"bidds":6637,"rockish":6638,"combinations":6639,"humong":6640,"immedi":6641,"mutilcolored":6642,"stuck":6643,"horse":6644,"featers":6645,"featjhers":6646,"featerhs":6647,"featrues":6648,"sturdily":6649,"tracking":6650,"traveling":6651,"rectricites":6652,"variegation":6653,"russian":6654,"blots":6655,"blocky":6656,"blocked":6657,"alternates":6658,"alternatively":6659,"wnite":6660,"wnward":6661,"drawn":6662,"draws":6663,"shest":6664,"shelled":6665,"interlea":6666,"interchange":6667,"interchanging":6668,"intermixing":6669,"interwea":6670,"intercepted":6671,"hummingnird":6672,"flouted":6673,"flourish":6674,"ovals":6675,"ovular":6676,"izing":6677,"igated":6678,"iggle":6679,"thought":6680,"thougout":6681,"thoart":6682,"birk":6683,"birl":6684,"birn":6685,"birt":6686,"birched":6687,"heac":6688,"heard":6689,"heafdis":6690,"crimple":6691,"chunk":6692,"skyblue":6693,"sheened":6694,"relations":6695,"woodpecking":6696,"additiont":6697,"visually":6698,"leapord":6699,"sloppy":6700,"richer":6701,"brain":6702,"bracelet":6703,"pasty":6704,"gradiants":6705,"crew":6706,"crey":6707,"creat":6708,"creast":6709,"grand":6710,"grye":6711,"grin":6712,"grwon":6713,"gratis":6714,"breaks":6715,"breaking":6716,"extraordin":6717,"extraordinary":6718,"barkbrown":6719,"airbound":6720,"airplane":6721,"airsack":6722,"subsequ":6723,"subject":6724,"subcilliary":6725,"subcullaries":6726,"belyy":6727,"separation":6728,"separative":6729,"speciali":6730,"thoughout":6731,"resembled":6732,"framing":6733,"fraill":6734,"hands":6735,"minor":6736,"layering":6737,"bronish":6738,"bronzed":6739,"bronzish":6740,"scarce":6741,"heavyset":6742,"nutmeg":6743,"synon":6744,"syste":6745,"symetric":6746,"peaks":6747,"blandly":6748,"blanding":6749,"squad":6750,"squarish":6751,"squashed":6752,"squiggle":6753,"chesk":6754,"chesy":6755,"molarpatch":6756,"napr":6757,"napes":6758,"ific":6759,"witting":6760,"windy":6761,"window":6762,"winder":6763,"winding":6764,"windbars":6765,"windbar":6766,"boldy":6767,"boldly":6768,"songs":6769,"songbirds":6770,"noticed":6771,"noticible":6772,"noticable":6773,"gradiently":6774,"twisted":6775,"bloody":6776,"slides":6777,"slicky":6778,"slips":6779,"slippery":6780,"scavenger":6781,"steeper":6782,"balc":6783,"balance":6784,"balanced":6785,"baltimore":6786,"nexck":6787,"definitive":6788,"definitely":6789,"plummish":6790,"plumeage":6791,"fellows":6792,"feeding":6793,"himself":6794,"pearlish":6795,"asses":6796,"riciliary":6797,"crookedly":6798,"daggerlike":6799,"powdered":6800,"stunted":6801,"graduates":6802,"earthtone":6803,"pairs":6804,"forests":6805,"pronouncedly":6806,"....":6807,"carved":6808,"irdescent":6809,"pitched":6810,"pictured":6811,"whistling":6812,"whiskered":6813,"attack":6814,"attach":6815,"borg":6816,"bors":6817,"boron":6818,"borne":6819,"borad":6820,"borrows":6821,"bearded":6822,"smaler":6823,"fluffing":6824,"fluffier":6825,"fluffiness":6826,"dail":6827,"daring":6828,"dawning":6829,"daisies":6830,"sunny":6831,"sunkin":6832,"sunbathing":6833,"streams":6834,"streaming":6835,"rectries":6836,"rectises":6837,"superceliary":6838,"superpilliary":6839,"cram":6840,"cray":6841,"crayon":6842,"nondistinct":6843,"nonexistent":6844,"posessing":6845,"posseses":6846,"semicircled":6847,"batches":6848,"impercep":6849,"location":6850,"locations":6851,"enormously":6852,"complement":6853,"helping":6854,"piebald":6855,"cocks":6856,"cheeek":6857,"limbs":6858,"impressively":6859,"bowed":6860,"bowling":6861,"hardy":6862,"harder":6863,"kinda":6864,"myste":6865,"myriad":6866,"obtuse":6867,"winch":6868,"wints":6869,"winspan":6870,"winks":6871,"winbg":6872,"winfs":6873,"beatty":6874,"mallor":6875,"dominates":6876,"tarusus":6877,"denim":6878,"denoted":6879,"funky":6880,"beasts":6881,"eggshell":6882,"intersparsed":6883,"intersperced":6884,"twigs":6885,"reflecting":6886,"reflection":6887,"amounts":6888,"manner":6889,"mannish":6890,"pylon":6891,"swatched":6892,"varrying":6893,"posteriorly":6894,"cylinder":6895,"farhood":6896,"natures":6897,"individual":6898,"rainbird":6899,"lemony":6900,"secondaies":6901,"slanting":6902,"distinguishes":6903,"eithe":6904,"elegance":6905,"elegantly":6906,"world":6907,"worked":6908,"workings":6909,"wingular":6910,"described":6911,"description":6912,"descriptive":6913,"accompany":6914,"rushes":6915,"irises":6916,"flowers":6917,"warblers":6918,"blotchy":6919,"clue":6920,"cluster":6921,"clusters":6922,"clustered":6923,"clunky":6924,"clutching":6925,"dweller":6926,"eyring":6927,"eybrow":6928,"eyrings":6929,"eybrows":6930,"eybros":6931,"frey":6932,"freckles":6933,"fringy":6934,"muddied":6935,"inkly":6936,"sions":6937,"motled":6938,"distant":6939,"illusion":6940,"plants":6941,"plentiful":6942,"prciliary":6943,"prpportion":6944,"prinaries":6945,"prmary":6946,"swoop":6947,"wisps":6948,"blacm":6949,"blacn":6950,"grewy":6951,"step":6952,"steak":6953,"flattish":6954,"mettalic":6955,"camoflaged":6956,"camoflagued":6957,"amazingly":6958,"casing":6959,"cascading":6960,"caspian":6961,"elevated":6962,"wildly":6963,"blaks":6964,"blakish":6965,"blakened":6966,"malt":6967,"boundary":6968,"chicken":6969,"chickens":6970,"chickadee":6971,"bullet":6972,"complimentary":6973,"awaits":6974,"flippers":6975,"fices":6976,"herringbone":6977,"smll":6978,"smow":6979,"smear":6980,"smears":6981,"smnall":6982,"retires":6983,"reticules":6984,"retifices":6985,"breadt":6986,"breadth":6987,"segments":6988,"alertness":6989,"incredible":6990,"heights":6991,"furthermore":6992,"bulbously":6993,"cheeckpatch":6994,"identifier":6995,"identical":6996,"identically":6997,"crwon":6998,"criss":6999,"cranial":7000,"droplet":7001,"dropping":7002,"satin":7003,"scott":7004,"wades":7005,"wavy":7006,"wafer":7007,"thorns":7008,"thorough":7009,"insane":7010,"transforms":7011,"transfers":7012,"leafy":7013,"sweeps":7014,"punctuates":7015,"significantly":7016,"drooped":7017,"efficient":7018,"falls":7019,"falling":7020,"gape":7021,"gace":7022,"gleam":7023,"joint":7024,"joined":7025,"pentine":7026,"penetrating":7027,"pleated":7028,"plethora":7029,"rattles":7030,"walk":7031,"lavendar":7032,"breask":7033,"breasy":7034,"breaset":7035,"stubbu":7036,"stubbier":7037,"showcasing":7038,"cutting":7039,"ombres":7040,"decorating":7041,"decorate":7042,"decorative":7043,"absent":7044,"marvelously":7045,"sparkle":7046,"qualities":7047,"brindled":7048,"fourth":7049,"heater":7050,"protrusions":7051,"accentuates":7052,"trimmings":7053,"spectacled":7054,"camoflauge":7055,"jeweled":7056,"crosses":7057,"firm":7058,"glank":7059,"glance":7060,"glassy":7061,"hatchling":7062,"knee":7063,"occurring":7064,"ocado":7065,"pinted":7066,"taken":7067,"takers":7068,"wngspan":7069,"laying":7070,"layout":7071,"laterally":7072,"edgings":7073,"comicall":7074,"ondary":7075,"pengun":7076,"movement":7077,"exclusing":7078,"exclusively":7079,"pads":7080,"paddling":7081,"predators":7082,"directing":7083,"firery":7084,"cornw":7085,"grassy":7086,"carrys":7087,"possible":7088,"printed":7089,"spectacularly":7090,"fingerlike":7091,"grouping":7092,"cameraperson":7093,"deet":7094,"deepest":7095,"ews":7096,"ewll":7097,"frosting":7098,"hunts":7099,"hunter":7100,"hunched":7101,"jail":7102,"porpotion":7103,"porcupine":7104,"slapped":7105,"wraps":7106,"wrapped":7107,"rentrices":7108,"realtionship":7109,"riddled":7110,"strpe":7111,"strped":7112,"struts":7113,"eyebros":7114,"eyebroews":7115,"rodent":7116,"rouge":7117,"roufous":7118,"roadrunner":7119,"lifts":7120,"speckelled":7121,"expandable":7122,"actual":7123,"packages":7124,"dunes":7125,"approaches":7126,"approxima":7127,"symmetrically":7128,"directions":7129,"creek":7130,"creeper":7131,"clinging":7132,"drilling":7133,"donning":7134,"days":7135,"eligible":7136,"narrown":7137,"narry":7138,"narrowing":7139,"surprised":7140,"supericiliary":7141,"tilt":7142,"tilted":7143,"larder":7144,"belill":7145,"believe":7146,"organish":7147,"origin":7148,"origami":7149,"lonjg":7150,"getting":7151,"staight":7152,"staright":7153,"stacked":7154,"staulky":7155,"storm":7156,"stories":7157,"encompasses":7158,"chirping":7159,"chirpy":7160,"ligt":7161,"ligth":7162,"ligther":7163,"ligjt":7164,"tightly":7165,"undebody":7166,"underdeve":7167,"nesting":7168,"nestled":7169,"median":7170,"mediium":7171,"mediup":7172,"mossy":7173,"secondaris":7174,"rectangle":7175,"expected":7176,"expects":7177,"exhibit":7178,"butterball":7179,"splattering":7180,"splatter":7181,"irredecent":7182,"flutters":7183,"brassy":7184,"brasts":7185,"progresses":7186,"progressive":7187,"tuffled":7188,"adults":7189,"notiable":7190,"settings":7191,"placement":7192,"scraped":7193,"grann":7194,"fragmented":7195,"aligned":7196,"identified":7197,"muscularly":7198,"abodmen":7199,"fuschia":7200,"glows":7201,"lands":7202,"landing":7203,"missing":7204,"mistly":7205,"misshapen":7206,"numerous":7207,"purgy":7208,"spindly":7209,"wintgs":7210,"reptilian":7211,"larege":7212,"oragnge":7213,"armoring":7214,"colred":7215,"colroing":7216,"stalk":7217,"stalky":7218,"stalker":7219,"stealth":7220,"shifting":7221,"rapid":7222,"encasing":7223,"grabbing":7224,"lumpy":7225,"luminescent":7226,"periwinkle":7227,"patterened":7228,"colorded":7229,"seconaries":7230,"sequin":7231,"sequence":7232,"parades":7233,"primaires":7234,"downwad":7235,"exeption":7236,"space":7237,"spackled":7238,"spaecks":7239,"hosts":7240,"��������":7241,"quarter":7242,"contour":7243,"contouring":7244,"contoured":7245,"concentration":7246,"considerable":7247,"proxima":7248,"hillside":7249,"hillsides":7250,"varigataed":7251,"incorporate":7252,"buds":7253,"fields":7254,"transcending":7255,"submerges":7256,"coordinated":7257,"classic":7258,"appropriately":7259,"identifying":7260,"emphasize":7261,"emphasized":7262,"emphasizing":7263,"tremendously":7264,"generically":7265,"diagonally":7266,"scissors":7267,"20th":7268,"avoce":7269,"avocado":7270,"alarming":7271,"alarmingly":7272,"aftereffec":7273,"alogn":7274,"bdody":7275,"crucial":7276,"crudely":7277,"crone":7278,"cronw":7279,"crushed":7280,"crushing":7281,"darl":7282,"deather":7283,"deathers":7284,"ferocious":7285,"growth":7286,"growths":7287,"grub":7288,"heded":7289,"harboring":7290,"harbors":7291,"hovers":7292,"homely":7293,"koi":7294,"koel":7295,"kernal":7296,"liter":7297,"master":7298,"mangy":7299,"mangrove":7300,"ohn":7301,"ostly":7302,"percent":7303,"perciliary":7304,"risk":7305,"sriped":7306,"sripes":7307,"spoon":7308,"spooky":7309,"scecondaries":7310,"sceondary":7311,"slitted":7312,"surepciliary":7313,"screams":7314,"snacks":7315,"tuned":7316,"tuning":7317,"usiast":7318,"voluminous":7319,"weathered":7320,"weathers":7321,"yields":7322,"yielding":7323,"zags":7324,"zigzags":7325,"thorny":7326,"aspect":7327,"aspects":7328,"repel":7329,"repeated":7330,"restricted":7331,"restricti":7332,"retriever":7333,"retrieves":7334,"latterally":7335,"wheel":7336,"wheeling":7337,"orchard":7338,"orchid":7339,"wingbaar":7340,"wingbared":7341,"rivers":7342,"poiinted":7343,"poibty":7344,"pollinator":7345,"astride":7346,"astriped":7347,"eyelashes":7348,"eyeballs":7349,"enthusiast":7350,"sixths":7351,"baclk":7352,"brighly":7353,"patchees":7354,"depicts":7355,"depicted":7356,"abdoomen":7357,"abdobmen":7358,"alrge":7359,"family":7360,"familiari":7361,"coverering":7362,"coverets":7363,"recitces":7364,"recitrices":7365,"rectrrices":7366,"rectrcies":7367,"soild":7368,"soiled":7369,"expnasi":7370,"explodes":7371,"exactly":7372,"pinecone":7373,"habitat":7374,"formally":7375,"formation":7376,"skimming":7377,"sprouts":7378,"sprouted":7379,"spaced":7380,"spacious":7381,"mulitcolored":7382,"mulitiple":7383,"virbrant":7384,"virtually":7385,"unusal":7386,"unusable":7387,"melding":7388,"adapt":7389,"adaptable":7390,"dividing":7391,"hungry":7392,"teeny":7393,"teensy":7394,"brosd":7395,"browinsh":7396,"browinish":7397,"slanty":7398,"elswhere":7399,"indicated":7400,"indicates":7401,"scratched":7402,"scratchy":7403,"mutliple":7404,"dragonfly":7405,"grreen":7406,"grrenish":7407,"cartoons":7408,"cartoonish":7409,"peaceful":7410,"peacefully":7411,"sueprciliary":7412,"sueperciliary":7413,"freshers":7414,"characterizing":7415,"characterized":7416,"thorax":7417,"pleasing":7418,"slabs":7419,"slamm":7420,"swampy":7421,"calmly":7422,"tortoiseshell":7423,"determined":7424,"demonstrating":7425,"demonstrate":7426,"discreetly":7427,"protective":7428,"protection":7429,"generalization":7430,"generalizations":7431,"43892":7432,"81043892":7433,"athletic":7434,"acoss":7435,"apricot":7436,"adept":7437,"auras":7438,"affect":7439,"africa":7440,"bgrayis":7441,"bliue":7442,"bumble":7443,"bubbled":7444,"bhird":7445,"blessed":7446,"cpffee":7447,"candied":7448,"cinnamon":7449,"caretakers":7450,"ciliaries":7451,"crocked":7452,"drk":7453,"dvd":7454,"dowwnward":7455,"dakr":7456,"dumb":7457,"deark":7458,"emblazon":7459,"europe":7460,"eloquently":7461,"easter":7462,"ebyll":7463,"eventually":7464,"ellie":7465,"eminence":7466,"fkat":7467,"feaher":7468,"filters":7469,"frumpy":7470,"fashioning":7471,"frisky":7472,"glorious":7473,"glides":7474,"gaping":7475,"glimmers":7476,"gnarled":7477,"hanger":7478,"hughed":7479,"iwht":7480,"iridiscent":7481,"juvenile":7482,"keeping":7483,"knob":7484,"learn":7485,"meadow":7486,"minnow":7487,"mnostly":7488,"nistly":7489,"naked":7490,"nashville":7491,"oenanthe":7492,"ochre":7493,"opaque":7494,"ohio":7495,"ovenbird":7496,"plimage":7497,"pussy":7498,"pallet":7499,"peeking":7500,"pacific":7501,"pionted":7502,"practically":7503,"sorrounding":7504,"since":7505,"serpentine":7506,"senegal":7507,"sleak":7508,"sprimarly":7509,"sutle":7510,"search":7511,"slider":7512,"smashed":7513,"sustains":7514,"snapshots":7515,"smudged":7516,"sinks":7517,"teeth":7518,"treads":7519,"uneven":7520,"vanilla":7521,"vreass":7522,"vareigated":7523,"vlue":7524,"vovert":7525,"wrestling":7526,"wader":7527,"waddler":7528,"wrinkly":7529,"yuellow":7530,"threatening":7531,"thrives":7532,"thunderbolt":7533,"thanks":7534,"thcik":7535,"ancillary":7536,"bilious":7537,"bifurcated":7538,"bisects":7539,"wiskers":7540,"witrh":7541,"willows":7542,"widening":7543,"isbonze":7544,"birdbath":7545,"ascents":7546,"reletively":7547,"retina":7548,"remiges":7549,"retains":7550,"rejecting":7551,"lactus":7552,"beedy":7553,"beloly":7554,"whute":7555,"yeloow":7556,"yelklow":7557,"browninsh":7558,"ornage":7559,"orientation":7560,"oriented":7561,"wingabrs":7562,"wingpsan":7563,"maintains":7564,"mailer":7565,"malicious":7566,"inflate":7567,"inferior":7568,"indoor":7569,"insulated":7570,"involving":7571,"inquisitive":7572,"indeterminate":7573,"riffles":7574,"rivaled":7575,"ripples":7576,"localized":7577,"lousiana":7578,"lo9oking":7579,"articulated":7580,"argyle":7581,"aroung":7582,"grenade":7583,"coffe":7584,"cotton":7585,"countershading":7586,"comouflaged":7587,"coevering":7588,"geometric":7589,"geeenish":7590,"pompadour":7591,"poodle":7592,"poisoned":7593,"astonishingly":7594,"steadily":7595,"stutbby":7596,"stirpe":7597,"shrap":7598,"shabby":7599,"headdress":7600,"eyerung":7601,"eyelids":7602,"eyeliner":7603,"robotic":7604,"roosting":7605,"enourmous":7606,"bobolink":7607,"chalky":7608,"chubbier":7609,"chippy":7610,"larvae":7611,"colorization":7612,"throaqt":7613,"eeverywere":7614,"tiffany":7615,"tailgaters":7616,"simply":7617,"undiscernable":7618,"striationsnon":7619,"toupee":7620,"tourquoise":7621,"mourning":7622,"molds":7623,"mosaic":7624,"mohalk":7625,"mollusks":7626,"severe":7627,"currently":7628,"spekcles":7629,"partridge":7630,"primitive":7631,"delineation":7632,"triceps":7633,"triagles":7634,"tanager":7635,"favorite":7636,"uplifting":7637,"restices":7638,"outstandingly":7639,"outrageously":7640,"coverimg":7641,"downwoards":7642,"overaqall":7643,"recessed":7644,"complimeted":7645,"supiciliary":7646,"supercallirary":7647,"pluffed":7648,"pluamge":7649,"exaggerated":7650,"excessively":7651,"exquisite":7652,"haunting":7653,"hairdo":7654,"happily":7655,"happens":7656,"foraging":7657,"skirts":7658,"splendid":7659,"splocthes":7660,"spackling":7661,"sporadic":7662,"rubbery":7663,"vidid":7664,"victorian":7665,"outerreachers":7666,"quote":7667,"disguised":7668,"disbursed":7669,"distracting":7670,"disgruntled":7671,"distributed":7672,"festive":7673,"perrywinkle":7674,"brakemen":7675,"ununiformally":7676,"unassuming":7677,"unpleasantly":7678,"unorthodox":7679,"concave":7680,"concrete":7681,"concealed":7682,"consumption":7683,"conventionally":7684,"propitiate":7685,"proprtionally":7686,"components":7687,"silhouetted":7688,"turouise":7689,"tuxedo":7690,"adjacent":7691,"dimensions":7692,"diminutive":7693,"digital":7694,"hibernation":7695,"variagated":7696,"increases":7697,"nourishment":7698,"typically":7699,"contracting":7700,"stippling":7701,"cammoflage":7702,"cavorts":7703,"midszie":7704,"prehistoric":7705,"snippets":7706,"fiesty":7707,"glossier":7708,"plateaued":7709,"collection":7710,"sclera":7711,"scissored":7712,"corresponding":7713,"humongous":7714,"immediate":7715,"interleaved":7716,"interweaving":7717,"flourishes":7718,"extraordinarily":7719,"subsequently":7720,"specialized":7721,"fraille":7722,"synonymous":7723,"systematic":7724,"symetrical":7725,"imperceptible":7726,"mysterious":7727,"winbgbars":7728,"rattlesnake":7729,"approximately":7730,"underdeveloped":7731,"proximally":7732,"aftereffects":7733,"restrictiveness":7734,"familiarizes":7735,"expnasive":7736,"emblazoned":7737,"european":7738,"threateningly":7739},"merges":["t h","a n","an d","b i","l l","w i","i s","r d","bi rd","a s","o w","c k","r e","l a","i t","wi th","h as","n g","b la","bla ck","b e","th is","w h","r ow","it e","wh ite","row n","y e","b rown","th e","o r","wi ng","m a","a t","a k","e d","be ak","i n","ll y","be lly","r i","s ma","sma ll","e a","wing s","ye ll","yell ow","l o","bi ll","a r","g re","c o","g e","e r","lo ng","p o","as t","b re","bre ast","gre y","re d","s t","c rown","s h","th at","ea d","h ead","e ye","in t","o n","e s","po int","it s","r o","r a","g h","a re","e n","b o","or t","g ra","gh t","an ge","gra y","c h","or ange","sh ort","bo d","la r","bod y","v er","l u","ea the","f eathe","feathe r","i l","l or","co lor","feather s","o f","th ro","e e","t a","n d","b lu","p e","thro at","l i","blu e","lar ge","t i","ta il","point ed","ar k","s i","ver y","d ark","ar s","ri ng","li ght","b a","point y","ba ck","l e","c u","gre en","f ee","l y","fee t","u nd","st ri","ri es","u m","i ng","eye s","t o","po t","s pot","b ri","n e","p at","bri ght","m ed","ne ck","i um","med ium","si z","m o","pat ch","co lo","colo red","stri p","s e","o m","b ars","u s","n a","cu r","v e","na pe","u l","cur v","siz ed","t ars","l ed","s pe","spe ck","tars us","p ar","a ll","ch e","co nd","se cond","p ri","c e","mo st","pri ma","che st","d e","wing bars","a ries","u t","ee k","sh ar","shar p","curv ed","second aries","is h","w e","eye ring","ch eek","t s","t ri","cu lar","par ti","t an","parti cular","f ul","speck led","t ed","prima ries","b row","most ly","a b","d om","ti p","ab dom","abdom en","co ver","spot ted","a l","eye brow","f a","t in","tri c","u p","ro und","spot s","und er","tric es","color ful","re st","m p","strip ed","d es","cover ts","o ut","co ve","l it","t le","ow n","si de","fa ce","lit tle","d own","ring s","o ver","th i","re c","le g","leg s","ar y","tin y","strip es","we ll","th in","o k","co mp","stri pe","rec trices","o und","ar ound","in n","er c","s up","thi ck","sup erc","p lu","en t","f la","a rd","cove ring","sh a","s o","fla t","om e","s ome","e x","p in","a long","en d","il i","to p","u r","pin k","superc ili","w ard","we b","be d","f f","patch es","web bed","supercili ary","h a","down ward","re a","p ed","f or","b y","s k","siz e","k ing","ar row","dark er","n arrow","ro m","inn y","sk inny","ea r","si des","a c","ma r","h is","st re","tip s","u re","b ut","stre ak","bi g","e ly","s p","m i","f rom","i ght","s light","st ra","r u","ma ge","a red","m ul","stra ight","u gh","h o","comp ared","v i","plu mage","g o","rea m","lo ok","� �","t er","c ream","u b","be a","mar king","thro ugh","wi de","b ar","ce p","eyebrow s","ex cep","t t","i on","color ing","ho ok","out er","ff y","an t","ter n","wh i","slight ly","q u","d is","l es","whi ch","f e","um p","mul ti","il e","w o","ub by","round ed","wh ile","al so","v ent","l d","ti ve","pat tern","k e","p er","marking s","hook ed","r ump","under belly","sha des","i r","mi x","le t","n t","t on","p a","re trices","excep t","mo tt","streak s","l end","dis tin","distin c","cove red","f l","t wo","through out","u ti","bea uti","g u","ll i","red d","redd ish","w at","an k","mott led","go ld","pa le","beauti ful","fl ank","comp let","li ke","a p","st ubby","ur p","curv es","wat er","c rest","p urp","light er","complet ely","en ti","f lu","color s","tip ped","wing bar","at ure","d u","purp le","enti re","b r","c ent","s s","plu mp","p an","brown ish","u n","inn er","flu ffy","f at","i ge","m e","wings pan","be ige","speck les","ton es","fe ature","look ing","li d","gu lar","ap p","so lid","sh in","c en","n ear","feature s","al most","ha ve","co n","tri an","ex t","shin y","o t","st o","ac cen","ma lar","lend er","s lender","yell o","green ish","are a","breast s","gray ish","small er","ro ss","app ear","wi sh","trian gular","yello wish","f o","p u","downward s","under side","ac ross","large r","multi colored","bird s","up per","accen ts","ma ch","sto mach","ri ly","prima rily","distinc tive","eyering s","p ro","ru st","p ort","breast ed","co m","a bo","e re","d ing","of f","l in","ng th","port ion","le ngth","sha ped","ti ng","gold en","r y","s il","the r","i c","over all","re la","ri des","st out","cover t","under tail","thi gh","vi br","vibr ant","st and","i rides","feathe red","p red","i ed","om in","pred omin","int o","irides cent","du ll","mix ed","bod ied","t u","at ion","abo ve","be lli","sp i","rela tive","entire ly","a d","belli ed","l ow","grey ish","sil ver","d i","bo t","at ed","pro portion","f u","o d","bot to","botto m","t ch","v a","h i","h int","va ri","h u","k y","prima ry","un i","tu f","an ce","ti c","t ur","ti on","ma in","ee p","distinc t","e t","m as","appear ance","ta ll","look s","pu ffy","thigh s","d o","d eep","th an","ta in","ha d","t ure","in c","con tain","t e","f le","m ing","superc i","ant ly","n ing","sp an","uni qu","vi d","near ly","n o","ro t","qu at","vi vid","second ary","inc lu","rot und","b and","o p","fo ot","hi gh","a lly","cheek s","h e","t y","mas k","b lend","c la","blu nt","o us","long er","predomin antly","a ge","mix ture","n s","ea ch","inclu ding","stri king","main ly","uniqu e","pattern ed","wh o","cla w","mo u","w k","bill ed","ea l","j et","re m","color ation","r on","u ch","v ing","co nt","be ing","ext end","c ir","wh at","ext rem","extrem ely","d y","s of","t eal","st i","al s","c a","s mo","li ve","mi d","k ed","se t","ha wk","o live","the m","tars als","fle ck","sof t","a ver","cont r","t int","re e","head ed","ru n","contr ast","n ed","do ts","high light","b ro","wh it","di ff","com par","claw s","s wi","li m","aver age","s l","wh ere","is on","mo hawk","speck s","run ning","diff ere","compar ison","differe nt","s ur","beak ed","s it","sha de","per ch","an ch","du ck","on e","br anch","tarsus es","relative ly","swi m","bea dy","p re","al f","bi t","ma tch","o ther","tuf t","g ed","h alf","li ng","lin e","sti ck","p each","ra l","ru ff","go ing","wh en","the re","cir c","d ot","stand ing","sl eek","o th","ed ge","ha ving","hint s","c at","smo oth","n ea","blu ish","bro ad","f ur","tip le","mul tiple","low er","par t","some what","contain s","e l","ruff led","e long","at ing","nea th","f ly","tri ce","elong ated","pe t","ne ed","excep tion","c i","d ir","t ree","need le","an g","ra ther","bright ly","vari ous","pet ite","a quat","bri lli","aquat ic","ch ubby","b as","be ck","rea d","s n","spi ked","a y","as h","rea lly","appear s","dir ty","f ron","swim ming","fly ing","at ely","in d","streak ed","s ea","t ar","fron t","g y","u st","wing ed","pre tt","st ro","me ta","s par","s lim","bi l","prett y","spar row",", ��","ow l","superci ll","s a","strip ped","ta lo","stand s","p rom","an y","in ent","bas e","prom inent","p ure","is e","brilli ant","supercill ary","be ll","meta lli","n i","under neath","ha ir","metalli c","li me","highlight s","whit ish","talo ns","b le","a m","f owl","o ise","black ish","ch ar","t or","u pe","be r","ge r","fe w","spi ky","sur round","sit ting","stro ng","c ap","qu oise","pattern s","v en","point ing","che ck","hu ge","tur quoise","cur ve","ta upe","flank s","a g","b u","f i","ma j","pu d","to uch","pink ish","d ed","v ary","ch in","sp ort","ton ed","edge s","surround ing","pud gy","wing tips","strip s","vary ing","w ay","at e","tar si","s ee","strip ing","fa ir","tor so","g i","l ead","mo re","mar k","z y","lin es","fu ll","am ber","od d","who le","d er","m any","be low","co al","rest ing","ic al","m s","el se","h ind","predomin ately","fair ly","sh o","sha pe","proportion al","sn ow","t ow","bo th","vent ral","fleck s","lo tch","co at","st ark","op en","v y","be t","be hind","tow ard","s quat","at op","crest ed","char coal","f in","g lo","p la","p per","z zy","si ve","we en","supercili aries","bet ween","fa des","end s","rust y","fu lly","int e","lli ary","fu zzy","contain ing","sa me","z e","it y","brown s","fleck ed","perch ing","dot ted","cheek patch","qu ite","mou fla","b ur","hu es","tuf ted","superci lliary","ca moufla","inte resting","as i","co ll","crown ed","tail feathers","sp lotch","e very","ye t","lar s","tail s","circ le","glo ss","asi de","f light","j ust","s c","rec tic","rec trice","e ven","s al","co pper","curv ing","or ity","si ng","gu ll","con ical","com bi","extend s","maj ority","gloss y","e g","wo od","mou th","ci al","coll ar","m er","re tric","us u","big ger","sport s","blend s","lead ing","a in","s and","re s","fa cial","b l","un usu","le ts","se c","abo ut","f an","wi se","re g","ton e","lin ed","other wise","g ni","i es","n ot","sharp ly","tur ned","th ing","fa ding","extend ing","perch ed","f ish","l ash","p i","t ru","be e","the n","sha ded","match ing","lars us","every where","neck ed","toward s","c an","m on","r ange","s is","t r","ll ow","point s","blue ish","upper tail","c row","re trice","or ang","sp lash","te red","ag ain","bee k","c or","cream y","who se","stick ing","st ar","on ly","to o","con sis","fo re","com ing","tint ed","d or","d le","n ation","s its","s cat","bi d","eye d","ro ck","pro tru","k es","n or","p t","is ed","tail ed","pu ff","combi nation","sec tion","scat tered","nor ma","h um","i m","m ut","y al","wing lets","er s","st u","ro yal","cu te","sp read","again st","h or","ma gni","ne on","na vy","fe at","hu e","fi cent","stu rd","magni ficent","t ra","rec tric","vari eg","see ms","reg ion","dor sal","sturd y","r us","ver tic","ti e","band s","mid dle","unusu al","mut ed","varieg ated","b lo","g round","i ble","eye ing","par ts","al tern","up ward","stick s","rus set","e red","v es","w n","small ish","ver al","pe ck","back side","se veral","ac cent","b ul","m en","wh tie","chest ed","tri m","plu me","contrast ing","bell ow","bur nt","c t","d ra","p up","v or","sh e","int er","are as","accen ted","proportion ate","sur rounded","hum ming","pup il","f lo","o v","ck y","ri or","ri ght","lo t","fa int","retric ies","orang ish","altern ating","i z","i vor","n er","la te","ta pe","ad d","circ les","ivor y","e st","i g","p ing","s we","y o","th o","bi r","over sized","sto cky","tr an","puff ed","norma l","rectric les","ov al","swe pt","c ed","c lo","g le","h ea","ch ed","spe c","ab le","ho od","tur ns","c ri","l k","it ion","ch un","for m","water bird","e rior","m ent","m uch","ma de","st y","on ta","ro on","ch ing","spot ting","top side","sk y","sit ion","camoufla ge","hor iz","she en","chun ky","horiz onta","re se","ma roon","gre at","ne ut","trian gle","rela tion","check ered","else where","rectic es","wood peck","sand y","fan ned","add ition","rese m","v is","st range","feathe ring","speck ling","ac t","go es","ump y","water fowl","vari et","ni ce","vertic al","variet y","l ea","m ust","s lo","u se","ri ch","po lk","sh im","de tails","cover s","round ish","surrounding s","res cent","fore head","neut ral","b ra","e mer","p ast","ma ke","st umpy","gra di","al d","mott ling","ting ed","no se","protru ding","yo u","woodpeck er","polk a","emer ald","a vi","c re","g r","re gular","bre ak","des ig","comp r","ext ra","match es","cat e","avi an","b ark","ul der","speck ed","under tones","top ped","vivid ly","fur ry","sho ulder","camoufla ged","tra c","a ir","a mou","o tic","s ub","be ly","or n","eye patch","ra ised","back ed","se par","spe ci","ex otic","bar red","sil very","ang ing","sea gull","bu ff","rectic les","tho ugh","resem b","amou nt","f ra","h and","m in","o ted","s ort","la ye","black s","ge ner","down y","dis pla","br on","com es","mas sive","sc ar","hea vy","vis ible","a qu","n ut","s y","w th","re main","lo ve","lo ts","ge ous","feather y","il y","pe ak","leg ged","for ked","ru by","du sty","fo oted","uni form","cat ching","bl and","must ard","scar let","aqu a","g or","l ish","s qu","u ring","th ree","ch es","ba by","to ta","mo lar","na p","comp act","cir cular","touch es","pla in","sing le","humming bird","gor geous","f fee","i f","wi t","ea ring","ring ed","purp lish","spi ke","extend ed","mark s","ze bra","tran sition","horizonta l","c ro","g rown","wi nd","co ffee","st ature","en ed","bo ld","ta le","erc ing","so ng","ting e","no tic","ty pe","highlight ed","maj est","splotch es","pi ercing","gradi ent","majest ic","s late","t wi","w ar","the ir","ma kes","en vi","si mi","brow s","ms on","blo od","dra b","clo se","cri mson","speci men","envi ron","simi lar","b ly","e ver","h ow","s li","the se","ri m","ro p","light ly","chest nut","fa ded","cove ts","end ing","gu ard","sea bird","resemb les","bron ze","s ca","t ext","y s","bi ts","ow s","la ck","co o","po n","st ee","ars e","ba l","ne x","de fin","plu m","sha ding","sp lit","fe llow","ation s","fle sh","contrast s","sn ub","sho re","feat uring","upward s","gener ally","tota lly","notic ea","environ ment","h ere","an gular","red ish","ver ts","under body","out lined","ok ed","stre tch","fe ed","gu y","hi m","uniqu ely","contrast ed","pupil s","spec s","love ly","transition s","p ear","s che","u red","th ru","as s","re tic","ri c","po st","int ri","to es","me ring","tuf ts","ag ger","gi ves","star ting","tape ring","addition ally","cro oked","sche me","d agger","i wth","o un","p ow","p ron","t re","t ent","u pon","be neath","ed ged","st un","gra du","comp lim","ear th","pa ir","cent er","fo rest","do es","gi ant","retric les","bir th","desig n","shoulder s","how ever","stee l","nex t","noticea ble","oun ced","pron ounced",". .","a ub","c l","c ar","e ating","i rd","p it","p ic","u pri","is ing","wh is","the y","at ta","gray s","mo us","thin k","ur n","con verts","sil ky","vibrant ly","blend ed","sport ing","lead s","you ng","stun ning","aub urn","upri ght","b or","o let","p ea","u d","wi te","re fle","be ard","ma tic","sma l","er t","gra ce","de tail","tin u","ru ns","ho ld","vi olet","flu ff","con tinu","sa ve","regular ly","fra me","song bird","coo l","snub bed","d a","d ash","e ring","s w","s un","ri ous","st ream","eye stripe","lar y","ba ll","bright er","us ky","fa de","rec t","sup er","per s","ss es","app earing","lin ing","ad or","proportion ally","tur ning","superci lary","bu sh","consis ting","' .","c ra","d usky","e as","i ck","n on","o rescent","r anging","s uch","z ing","it ned","in al","po s","po sses","po itned","ro se","blu es","throat ed","tail feather","green s","patch ed","se mi","de li","ex pan","complet e","flu orescent","hu ed","smo ky","odd ly","bur g","cor al","trim med","tape red","shim mering","past el","defin ed","expan sive","b at","c y","i mp","be sides","be ca","white s","or mous","at trac","lo c","bill s","co up","co arse","long ish","po uch","en ormous","short er","mo der","cur led","we ird","comp le","end age","les s","beauti fully","app endage","con ne","fo us","he l","tint s","swim s","pre s","fi er","snow y","pi e","splash es","slo ping","shim mer","gr ass","sli ck","rim med","intri cate","pit ch","atta ched","continu es","beca use","attrac tive","g gy","p es","p pe","an s","ck ing","la ce","with e","ma king","at s","co ck","bre st","ro ugh","bo rd","ch ee","und y","neck lace","parti ally","out line","plu med","ru fous","ext erior","fo llow","off set","lim b","sho wing","fin e","fin ch","res sive","fish ing","star ts","bul ky","displa ys","remain ing","guard s","ric al","pic ture","whis k","grace ful","deli cate","burg undy","imp ressive","appendage s",". \"","b ow","f ri","g ing","h ard","k ind","m y","o b","r s","t rop","wi n","with a","be g","be at","ma ll","sh ir","eye brown","ch ange","of y","pe ppe","le an","bri d","curv y","dom in","ward s","ting es","proportion ately","vari ations","ming led","striking ly","tar us","bu il","unusu ally","sub tle","laye red","cl ear","pea cock","stream lined","bush y","conne c","trop ical","shir t","c ing","d en","f ast","f un","h ear","k en","m es","n y","ll ed","be ast","be fore","ye d","in e","er ful","large ly","cu rious","de tailed","down turned","bea ck","hook s","wingspan s","cen ce","portion s","irides cence","distinct ly","ang led","brilli antly","eg g","consis tent","wn y","inter sp","lea ves","slo ped","compr ised","compr ising","uniform ly","spike y","twi g","war m","gradu ally","refle c","loc ated","coup le","pie ce","a mo","b are","g ged","h s","h ak","k hak","m an","n ight","o co","p s","p y","s u","s wat","v ar","w as","re mark","with white","bla ze","in side","ge ts","eye line","int en","ch oco","speck le","comp are","sha ggy","mi c","rust ic","blend ing","gi ve","sal mon","combi ned","bl ck","mon o","star t","cre ature","text ure","post erior","pow erful","cy lin","whisk ers","fun ny","khak i","choco late","a part","d app","d rical","e qu","f ar","i d","n ature","u ish","ma le","beak s","in di","co var","ge ther","int y","ra y","ra in","pe li","pe cu","li ar","back ground","le mon","cu le","to gether","pat ter","mo de","patch y","second a","de cent","top s","bea d","coloring s","dis ting","les cent","fe ct","band ed","sl an","needle like","squat ty","ers ed","trac es","orn ate","separ ating","wind s","pear lescent","pres ent","intersp ersed","amo ng","bare ly","swat ch","cylin drical","dapp led","peli can","pecu liar","mode st","disting uish","a ring","e i","e leg","f t","f ringed","h wite","n at","u nt","w or","rd in","ck ed","re ar","has a","wing u","ma y","lo g","ge y","st one","that s","on to","il s","ta pers","ta wny","se ed","all ow","al though","fa ced","up turned","des cri","sha d","ac comp","ru sh","ub le","per fect","ir is","fl ow","enti ng","predomin ant","do uble","smo ke","gi ving","splotch ed","consis ts","dra matic","remain der","war bl","retic es","tre es","change s","peppe red","indi go","rain bow","slan ted","nat u","a wk","b lotch","c lu","d th","d well","e y","f re","f ring","f ound","m and","m il","m of","m ud","n ted","p ping","an ied","wi dth","black ened","wing bands","ak e","in k","in ches","ar ched","co ne","ro sy","si on","mo t","ul d","al es","al bat","fa cing","under sides","mp le","des ert","inn ing","for ward","sk in","mar ked","mar ine","go od","bea ch","dis tan","fl ash","distinctive ly","length y","ca pe","mid night","bro ken","branch es","ven ts","section s","vertic ally","flo ating","separ ated","min i","laye rs","sca le","text ured","bal ck","retic les","complim en","hold ing","cra zy","eas ily","posses sing","fier ce","follow ed","beg inning","inten se","covar ts","unt il","wingu lars","accomp anied","warbl er","awk ward","mand ible","mof la","albat ross","a ma","c ard","e rect","h ite","i ll","o ce","p l","p r","p al","p ped","p un","s wo","w on","w edge","wi ll","wi re","wi sp","with in","bla c","at es","gre w","co bal","po sition","st e","sh ows","es s","es pe","blu nted","fee l","bri ck","se en","ve l","all over","cover lets","out side","out lines","so aring","flat t","bar ring","me t","shin e","hi d","no ta","inclu des","ca mofla","circ led","circ ling","exception ally","ci ally","bas ic","char ac","char tre","see m","reg al","norma lly","horizonta lly","min us","squ are","sca ly","comple x","mono ch","seconda i","eleg ant","natu ral","dwell ing","mot tle","distan ce","ama zing","card inal","cobal t","espe cially","chartre use","b ump","b rush","c as","c rescent","e le","e ct","i bly","n ish","o rdin","r up","t um","u e","u g","an other","wi ld","ck led","bla k","ye low","ma l","in fla","in sec","ri gi","sh inny","head s","ra ven","bo ast","bo und","ch ick","orange s","ti ger","all ows","ab normally","plu s","but t","streak ing","ru gged","qu ick","multi color","pattern ing","fo od","com mon","ther s","spi kes","tur n","ming ly","bu ll","stark ly","every thing","cor wn","spread ed","aqua marine","twi ce","plum mage","stretch ed","complim ent","dash es","moder ately","ob long","buil d","hear t","remark able","mud dy","oce an","wisp y","tum my","infla ted","rigi d","a w","a head","a li","b orn","c tric","f li","f ic","g as","h er","j ut","m ee","r and","s m","s low","t ly","w earing","wi h","wi der","re ti","yellow s","yellow belly","lo us","lo ving","co a","co coa","bre at","bre ad","eye ling","on es","are s","en ing","bo us","bo ard","orange ish","lu stro","blu r","li kes","dark ly","se g","na ils","particular ly","ab ly","al ert","under tone","under parts","out stretched","rom e","ear s","mar b","go ofy","tt ering","ant erior","dis proportionately","ir rides","du st","fo ul","port ly","ad n","proportion s","proportion ed","do ve","inc red","no pe","he ight","mask ed","sti pe","highlight ing","fur ther","el f","bell t","see mingly","open ed","bul bous","flo rescent","clo s","moder ate","chee ck","consistent ly","id enti","ei ther","shad ow","hid den","basic ally","charac ter","ele ctric","ordin ary","rand om","lustro us","irrides cent",") ,",", ,","c r","c er","c es","c tu","c ture","d rop","g s","i red","i ve","j e","n ta","o ts","p and","s at","s co","s es","s cent","u ll","w a","th or","th us","with black","white ish","in s","in ver","in ky","in ating","yellow bill","er y","po ofy","grey s","red s","st ru","sh ot","its elf","ro matic","en ce","ch anging","ta h","si gni","si mple","ba rd","stri ations","colo ur","om en","na ck","tan nish","rest s","out ward","thi rd","sup port","so ars","sk ull","ure scent","sp arse","stra w","ru ffy","mage nta","gold ish","me l","yello wing","off white","tu cked","ad orn","di rect","hair s","hair y","cap ped","glo wing","splotch y","sc ales","sc ruffy","wood en","range s","rock s","tra il","blo ck","inter mixed","flo urescent","tran s","hood ed","lea f","hand some","displa y","displa yed","squ ared","stretch ing","feed er","pow der","da inty","sw eep","eas y","pos ed","hel met","shimmer y","chee tah","fri lled","clear ly","mes sy","reflec tive","su it","equ ally","fre ckled","fring e","pal er","pun ctu","flatt ened","ug ly","insec t","fli es","incred ibly","stru cture","signi fic","' ,",") .","a u","a z","a ged","b ust","c enting","d ro","d ly","e b","e at","e ff","e ld","f all","g a","g lea","h anging","i th","j o","j ay","k let","n ess","o ped","o ily","p en","p le","p ige","r at","t and","t own","t ter","v end","w al","z ed","z el","is t","is es","is tic","la vend","white r","at or","ed s","in a","ar ray","co ast","bre as","st er","st ub","st ain","sh ow","sh own","ro bust","short ly","pe pper","ti al","ba ld","le op","cu t","spot ty","om bre","ve lous","de cor","ut y","parti al","ab s","tin es","out lining","rec tines","ent ly","fla p","end ed","ili ary","ha zel","rea ches","ac centing","mar velous","sp ark","mul t","bea uty","qu al","dis position","wo uld","pa th","du e","du lly","br ind","un remarkable","shin es","fo ur","pro vi","vari ation","te ring","high ly","he at","mid size","aver aged","cat ch","ang le","fi g","gi rd","sc ary","even ly","copper y","not ched","can ary","tr um","protru des","protru sion","hor n","accent u","bul ging","men ted","trim ming","yo ur","spec ta","spec trum","sty le","cre me","desig ns","plum es","pear l","earth y","bor wn","fluff ed","ador ning","posses ses","buil t","connec ted","may be","perfect ly","mil ky","complimen ted","pl ant","vel ve","nota ble","camofla u","secondai ries","quick ly","slow ly","eyeling s","marb led","character istic","je we","sco op","direct ly","suit able","punctu ated","signific ant","au klet","pige on","leop ard","- -","b ak","c ast","c ross","c inating","e c","e la","e hite","f as","f ing","f ir","f ence","g l","g ro","h it","h at","h its","i o","k n","l t","l bird","o c","o on","o ld","p int","p ho","r an","r led","r ising","r ink","t ak","t ted","u lar","u de","v ed","v ily","w ng","th ra","bi n","ll en","as sort","re l","la y","la ter","it ude","be en","be nd","be comes","row s","wing tip","at t","ed ging","gre n","gre ay","co me","co ating","co mic","ge nt","long s","on d","on y","ro bin","en s","en ts","orange y","bod ies","lu cent","pe ng","si ded","ba bly","le ft","eyes pot","mo ve","colo ured","na d","na ped","na mic","cur l","ve ts","tan s","tan ned","ab stra","dom e","abdom inal","abdomen t","fa wn","under feathers","thick er","fla red","so ot","ex clu","ha ired","for ms","sk un","king fish","ho le","go t","wide ly","tt e","whi e","qu e","per ky","pa d","fat ter","me tric","pro bably","pred ator","belli es","di rec","vari ed","no ted","claw ed","ca li","ca mer","swi rled","part ly","dir t","ang ry","ash y","meta l","ber ry","fi re","fi lled","bur st","sal t","sing ing","cor n","cor vets","consis t","blo nd","peck ing","bul ged","inter mingled","inter rup","flo at","flo ats","hea vily","resem ble","lea ving","cre ating","gr as","desig ned","resemb ling","post ure","car ry","bor ate","refle ct","ball oon","non descri","pos si","hel p","fier y","follow s","mall ard","domin antly","reflec ts","distinguish ing","wor m","smoke y","blotch es","flash es","mini ature","pr int","swo llen","minus cule","monoch romatic","boast ing","reti cule","clos er","trail ing","trans lucent","sweep ing","az ure","dro op","eff ect","glea ming","lavend er","coast al","mult itude","qual ity","brind le","specta cular","camoflau ged","jewe l","ela borate","fas cinating","fing er","gro up","pho to","thra ot","assort ment","abstra ct","skun k","kingfish er","camer a","interrup ted","nondescri pt",", .",". ,","1 0","a bi","a light","a way","b un","c ak","c trices","d ee","e w","e ats","f it","f ro","f ant","g ri","g any","h un","h sa","i e","i p","i mid","i mal","j a","k s","k ely","m or","m metric","o se","o ur","p or","r ated","s la","s pat","s us","s sing","t ea","t us","t ub","t ake","u in","u ve","w ra","w ti","w ears","z z","bi ng","ll o","is s","re n","re al","la ri","la ke","with out","bla de","black bird","black head","be ar","ma uve","ma lari","at ive","ri d","lo ne","gre e","co uld","po p","bre ats","st r","eye bro","eye catching","int imid","ro d","ro u","ro ad","ra lly","are nt","en circled","en circling","ch a","ch si","short ened","feather less","li f","li kely","ti ll","ti cking","ti mes","light est","stri ated","ing s","mo ving","patch ing","us ed","speck e","de curved","we t","tri color","fa ring","lit y","side bars","thi e","sha pes","ex pres","ex pand","rea dy","ac tu","ho gany","ter s","wo ven","ir regular","pa ck","pa il","enti on","du n","du ed","br won","app ro","shin ing","cen tric","com b","com posed","ding y","fu chsi","mas s","tall er","do med","span ned","inclu de","op pos","he ld","sti ll","sti pes","swi ft","perch es","pre y","peach y","fur y","tar tus","any where","prominent ly","bell ly","ble eds","check er","bu rd","sho cking","pla te","interesting ly","sing s","tr ina","cor ner","protru de","puff in","spread s","feat ured","rectric ies","region s","faint ly","tho se","camouflage s","bra y","gradi ents","compr ises","sub dued","separ ates","speci es","gener al","sy mmetric","squ inty","tota l","sli ver","stretch es","mering ue","gradu ating","detail ing","fluff ly","da zz","pers on","ador ned","ador able","bat ch","bord er","domin ant","connec ts","connec ting","man e","remark ably","decent ly","modest ly","distinguish ed","seed s","flow er","complimen ts","awkward ly","monoch rome","blak c","born w","jut s","mee ts","inver ted","colour ful","abs omen","provi de","fig ure","fir st","kn own","wng s","later al","comic ally","gent ly","peng uin","soot y","direc tion","cali co","blond e","gras ping","possi bly","abi lity","bun ch","tub ular","wti h","malari a","intimid ating","fuchsi a","oppos ite","trina gular","dazz ling","a a","a ck","a brown","a yellow","a mel","b an","c all","c own","c ree","c ling","d with","d ri","d ge","d ead","d on","d dy","d ay","e li","e had","e ys","f rea","g ish","g ay","h ang","j as","j ag","k in","k not","l f","m it","m us","n ar","o ak","p h","p ee","p ut","p read","p ical","r ine","s ite","s ed","s ac","s urp","s cen","s upe","t is","t il","t ended","u ght","v aries","v ron","an a","an tial","bi b","bi ght","bi colored","wi des","is tent","re co","la rd","black ed","be li","be nt","this is","ite d","the d","or g","or ig","ma ries","ma ture","ma hogany","ak s","ri zing","sma ttering","yellow body","lo n","co on","ge t","ge en","ast ic","st a","st or","st ring","st ay","st ares","st antial","sh ite","sh eathe","sh ark","sh ip","head and","es ome","ro ots","ra c","ra il","en comp","en sive","ch ir","ta b","ta i","ta l","pe ers","li c","li g","ti ght","tail tip","si di","back s","back wards","le ast","und e","to e","pot ted","ne at","ne st","bright est","med i","neck line","medium s","siz es","mo ss","colo uring","us es","na me","cur ly","cur bed","par rot","che vron","cond aries","second ar","sharp ed","we re","tri pes","ab rup","al fa","under wing","out ter","lit ter","rec tan","fla pping","sha le","some thing","ex pe","ex hi","ex istent","pin ch","ur ated","rea ding","rea ching","narrow ed","but ter","sp la","sp he","sp rink","sp reading","ru ddy","bea m","bar rel","tt ered","ion al","dis proportionate","dis tended","ir red","gu ing","wat tle","flu ttering","flu tter","du ring","du al","entire ty","br as","br ast","ext ensive","pro gre","rust ed","golden rod","stout ly","dull er","tu ff","ad ul","di ving","di am","od y","hi de","et c","te st","no ti","band ing","op ales","ty pical","cla ck","who lly","coloration s","cont ent","sti ped","ca mo","mid section","set ting","compar able","where as","one y","alf alfa","other s","cat ely","smooth ly","sn out","ind s","talo n","pure ly","check ed","way s","der ful","bet ter","fin ely","fin ally","pla ce","sc ra","not ch","thing s","tru ly","im mature","eyeing s","bul k","she ll","flo wing","bir s","bir ght","gr an","sub stantial","fra g","laye r","peak ing","shore bird","intri guing","car ries","car amel","stunning ly","hold s","sw a","sw an","sun ken","ador ns","pouch ed","hel ps","bord ering","fri lly","ob sidi","peppe ring","den se","start ling","equ al","wor k","descri be","dramatic ally","swo oped","won derful","ste m","nota bly","secondai res","cas ional","aw esome","ali g","mee t","wih t","breat ss","dust ing","identi f","sat urated","thor at","bard s","support ed","eb lly","wal king","ster n","decor ated","flap py","spark ling","catch er","accentu ated","velve ty","oc casional","att ention","exclu ding","pad dle","droop s","cak ing","fant astic","specke led","actu ally","shocking ly","symmetric al","frea thers","jag ged","mus cular","pee ring","scen ery","wides pread","reco gni","sheathe d","abrup tly","litter y","sphe rical","sprink led","diam ond","opales cent","obsidi an","a q","a er","a bod","a che","a float","a lone","b ll","b ring","b us","b own","b dy","b ones","c il","c ted","c al","c rea","c lim","c ending","c lean","c iliary","d and","e ve","e mp","e llow","f us","f al","f ile","f ty","g lid","g low","g ins","h al","h ump","h eal","h gas","h oney","i w","i ce","i cular","i mage","j aw","k le","k ni","l s","l and","l ank","m is","m less","n um","o ng","o ugh","p p","p end","p ur","p ump","r um","s pin","s ally","s sive","s condaries","t en","t ries","t ear","t ere","t rem","t run","u can","u im","w and","x ed","x ible","z ar","th s","th si","an e","an ting","an eg","an imal","and y","and black","bi red","bi te","bi zar","wi nt","wi ry","wi ns","wi gs","wi ith","is p","is cent","rd rop","as sing","ck s","ck les","re as","re me","re pt","re tries","la re","la ted","it ud","ng ed","ng ue","black and","be l","be ating","wh te","wh eat","ye s","brown er","the s","or age","or ag","or io","or por","or aneg","wing ers","ma lor","ma ged","ma tte","in es","in visible","in iscent","belly t","small l","ea th","wings pand","wings tripes","yellow y","lo ver","ar ge","ar ching","ar ran","ar mor","gre t","gre ed","co l","co us","co ld","co ated","co if","ge lly","ge ne","long itud","po nd","po sing","po ised","bre w","bre y","bre sat","grey with","red crown","st ed","st al","st ance","st eal","crown s","sh if","es que","ra pi","ra cing","ra gged","en ch","en na","en cas","en jo","bo y","gra b","gra yed","ch rome","lar gish","lu sh","lu mp","lu min","thro ught","blu sh","pe ri","li age","li ves","si lly","si der","si enna","dark en","dark ening","dark ens","ars us","ba lly","le on","cu red","ly ing","stri ls","to ed","to ad","to ucan","to ngue","pot s","pat tere","med uim","neck ring","mo s","patch work","colo rd","se co","se qu","se rious","se lf","bars us","ve y","curv ature","tars as","par a","par all","prima i","de gree","ut s","ish ed","tri colored","tan t","tip ed","tip ping","cover let","al mon","fa thers","tin e","under rated","des cending","cove rings","lit tering","side bur","down w","down turn","over ly","over coat","thin ner","thick b","plu maged","ent ist","fla ming","ex e","pin hole","end ous","web b","downward ly","ped o","for k","for ming","ac ing","sp a","sp and","sp arent","mi ght","ho ck","ho st","ho use","vi ew","go ose","�� ��","bar bed","excep ting","qu ar","dis pers","fe like","fe male","ld ed","ke y","per pend","mix ing","gu e","pale tte","ap pointed","water bound","purp les","br wn","un ted","me an","me rizing","me leon","con to","con cent","con sider","ext reme","yello e","triangular bill","fo liage","fo lded","upper parts","pro x","pro file","pro nged","stand out","spi ral","silver ish","di ag","di pped","hi ll","vari g","tur sus","inc orpor","te ll","fle xible","span s","no sed","no strils","band it","high lighter","he llo","he fty","cla d","cla y","rem iniscent","dy namic","sof ter","mid sized","mid way","bro wish","diff ering","sl ash","sur face","sit y","duck ling","dot ting","fly catcher","ci ll","sea mless","supercill aries","bell ty","ble u","am d","tor pedo","surround s","bu d","bu g","bu ggy","fi d","fi eld","sport ed","open ing","fin ed","fin ish","pla ced","pla ces","pper s","coll ared","sc iss","bl own","pi ll","dor sally","puff s","hum an","hum ped","im men","tra ce","blo ated","peck er","bul ge","men ts","men acing","inter mit","tran sc","tran sparent","spec ts","great ly","relation ship","nice ly","must ache","slo pes","use ful","sub mer","fra med","fra yed","cro ssing","close ly","similar ly","sca led","coo rdin","defin ing","shading s","flesh y","noticea bly","stretch y","pear ly","ric es","does n","cl as","car mel","whis py","bor ing","grace fully","continu ing","sw allow","sun light","cra cking","semi circular","coup led","comple mented","shimmer s","brest ed","rough ly","offset ting","whisk er","win bar","win kle","beg ins","domin ate","mes merizing","inten sity","texture s","far ther","patter s","ei th","shad ows","ey llow","fring es","mil dly","ill a","pal m","ste aks","complex ion","brush ed","mal er","boast s","seg al","seg mented","dust ed","clos ed","cr isp","inver se","ga zing","pen cil","rat io","town s","ist ening","stub bed","velve t","bak c","gl istening","rising ly","ony x","carry ing","dee per","gri p","spat tering","tea rdrop","wra pping","ative ly","rid ged","cha meleon","lif ted","expres sive","appro pri","checker board","ban ana","dri ed","eli on","hang s","surp risingly","supe rior","org ange","stay s","encomp assing","rectan gular","exhi bits","irred entist","adul t","ody namic","noti ce","scra wny","frag ile","stem ming","alig ning","identif y","aer odynamic","bus y","crea med","clim bing","dand elion","emp has","glid ing","kni felike","lank y","rum ped","trem endous","trun k","bizar re","orio le","arran ged","gene ric","longitud inal","ench anting","enjo ys","parall el","almon d","sidebur ns","dispers ed","perpend icular","diag on","slash es","seamless ly","sciss or","immen se","intermit tent","0 ff","1 2","2 0","4 5","a f","a v","a black","a white","a ed","a ri","a grey","a gray","a lar","a blue","a very","a ut","a lot","a hs","a blaze","a ft","a log","a mple","b d","b umpy","c it","c ts","c ru","c ron","c owl","c act","c rush","d ar","d eathe","d aries","d ab","d al","d ary","d ied","d one","e and","e belly","e ge","e ts","e vid","f rown","f er","f its","f ab","f ree","f inds","f littery","g an","g row","g on","g ul","g led","g ut","g ru","g ant","g ry","g lack","g littery","h the","h ed","h ar","h over","h ome","h rs","h jas","i a","i ma","i cu","i al","i ent","i con","i ous","i ze","i pped","i eld","i bll","j ect","k a","k c","k k","k o","k er","k arsus","l ite","l er","l its","m ll","m ow","m ast","m int","m ur","m fe","m eal","m ang","m ans","m enting","n th","n ch","n ubby","n metal","o h","o o","o rd","o wing","o at","o ed","o red","o st","p erc","p ile","p tion","p hite","p ares","r is","r red","r ro","s ri","s po","s ce","s lit","s well","s ure","s cream","s me","s app","s age","s eal","s coo","s nack","t n","t ort","t ange","t ubby","t un","u th","u si","u ally","u sing","u lean","u lous","v o","v this","v rown","v ity","w l","w ow","w black","w eathe","w ash","w ren","w uth","y on","y si","y ield","z es","z en","z ag","z ig","z able","th y","th rown","th orn","an at","an ts","an ced","and a","and s","and the","bi lly","bi er","bi ege","ll e","ll s","wi g","is cule","bird y","bird ie","as pe","as sis","re y","re pe","re stri","re tri","re trac","re eds","re trace","la c","la w","la ge","la ced","la tter","it ing","it ive","with r","has s","bla t","bla zing","black beak","black ness","be an","be st","be side","be coming","be ka","be nch","wh il","wh ee","row ed","ye ad","ye kk","the red","or ch","or go","or range","wing er","wing feathers","wing ba","wing back","wing les","wing let","wing lay","wing bards","ma ti","ma tted","at tra","ed ium","in y","in distinct","belly l","belly q","belly s","belly and","ri ver","ri age","ri ms","small bird","small bill","ea ling","ea ger","wings and","yell w","yell wo","yell low","lo ose","bill l","ar mp","gre an","gre be","gre et","gre ssive","ge s","ge orgo","er up","po i","po m","po ll","po le","po se","po king","po kes","po ps","ast ri","breast e","breast stro","grey ing","grey scale","red headed","st are","st ately","st ers","st ered","st aring","crown and","sh allow","eye wing","eye browns","eye lash","eye circles","eye ball","int ed","int act","on s","on ish","on ably","es cent","ro ud","ra re","ra di","ra ct","ra coon","are black","en th","en ck","en lar","en tive","en circles","en ough","bo at","bo red","gra de","gra ph","ch op","ch ise","ch romatic","short y","bod ay","ver se","feathe s","of ten","thro ut","thro ad","ee t","ta lly","ta ri","ta ur","ta per","ta ble","ta gged","blu ie","throat patch","li e","li the","li ving","li lac","blue and","ti me","si x","si ght","dark ish","dark est","dark ened","light brown","light ed","light ning","light ening","light ens","ba c","ba ige","ba gs","back drop","cu lated","cu mfe","stri ke","stri ct","um n","to t","to ened","spot ed","bri gh","ne lly","siz able","mo th","mo on","mo tle","mo tion","mo ves","mo cking","mo cha","mo hock","mo unted","patch e","colo ed","colo ss","strip ping","se ries","se pi","om y","ve st","ul ky","tars is","spe cial","speck eld","all owing","che ak","che ats","ce own","de ter","de mon","de pic","ut ed","we ak","eyering ed","cheek y","cheek stripe","cheek bones","tan ish","brow h","ab d","ab do","abdom in","abdomen al","al r","eyebrow ed","fa m","fa ve","up standing","round er","under wings","under bill","under part","under sided","under lying","cove re","side ways","down curved","down side","over head","over size","over shadow","over bite","rec it","rec tor","rec tr","leg nth","fla ring","fla ir","fla res","ard s","so il","so ld","so tted","some one","ex p","ex act","ex posed","ex ample","pin e","pin stripes","along side","end ly","ur ish","ur ation","superciliary s","ha bit","ha ps","rea ch","for ma","for rest","sk i","sk im","narrow s","sp ro","sp ear","sp ac","sp ares","sp lits","mi mic","mi rro","stra y","stra it","mul it","ho t","ho les","vi r","vi ous","ter ms","cep tion","coloring ful","hook like","qu is","dis e","dis tic","dis cre","dis cer","dis tal","dis tally","fe int","fe ate","fe thers","per haps","ir rel","mix es","pa ge","pa late","pa thes","distinc tion","fl st","fl ows","gu ar","gu nmetal","redd er","wat ches","gold finch","flank ed","purple ish","cent ered","un us","un like","un attractive","me lar","me ld","me llow","app le","app arent","solid ly","near s","con fig","con centric","con fid","ot ter","sto p","sto ck","sto ic","sto ps","sto pped","yello ow","fo llo","stomach ed","pro of","pro te","com bed","lin ear","dull ish","spi king","ad ap","di p","di vi","di vid","di wth","bot tle","va gant","hi re","hi ding","vari ated","hu ng","uni color","tuf ty","do g","do ck","deep ly","had s","te en","te ther","te llow","te ctrices","superci ali","he llow","mixture s","who s","mou thed","rem inds","cont ently","cont ract","cir cumfe","sti p","sti ff","live ly","mid length","soft ly","ree ctrices","run ner","bro s","bro win","whit w","diff icu","compar atively","swi pe","average s","average ly","sl ant","sl eep","mohawk ed","swim mer","pre maries","pre pares","match ed","ruff le","ruff ly","nea rest","fur rowed","el s","exception al","ci a","ci rd","ci ous","ci lliary","sn ake","ash ort","ind ic","sea faring","sea gul","prett ily","stro kes","meta lic","supercill ery","sa mll","talo ned","bell a","bell ey","ni ble","check s","check ering","ag ile","ag gressive","fi able","touch ing","see med","gi gan","sho ck","sho vel","shape ly","sive ly","camoufla ging","sc rat","combi ne","usu al","ain s","fan s","fan tail","not e","pi ck","tru e","splash ed","cor verts","cor mor","consis tant","rock y","puff ing","im posing","mut li","hor ns","hor ned","tra ils","rectric le","blo tted","altern ate","bul b","dra wing","dra gon","inter woven","iz ed","tho at","clo ak","clo red","clo ud","sty led","sheen y","great er","neut rally","woodpeck ers","addition al","vis ibly","vis cous","strange ly","must y","make up","gradi enting","cre ated","gr re","extra vagant","sub tly","bely l","orn ately","separ ate","min iscule","sort s","gener ali","bron w","remain s","peak ed","squ ished","squ irrel","plain ly","transition ing","cro wing","wind span","wind bags","twi n","blood shot","close st","environ ments","lack ing","pon ted","stee ly","nex k","defin ition","plum b","feed s","thru sh","intri cately","gradu ated","complim enting","earth ly","earth tones","earth toened","cl own","car to","car riage","atta ches","mous y","pea ce","da mp","dash ed","sw eet","sun k","sun set","sun flower","stream line","bush es","cra wl","deli cately","burg andy","cy an","comple ted","comple menting","conne ct","pie ces","slick ed","attractive ly","making s","fri zzy","fri endly","hard ly","ob vious","win ter","beg in","beat y","mall ar","brid ge","domin ating","hear ty","curious ly","man tle","man illa","su e","su cking","su ited","mono tone","equ ipped","covar t","seconda rily","among st","distinguish able","flow ering","natu rally","blotch ed","fre sh","mil d","intense ly","pl ane","pun k","blac j","position ed","camofla gue","charac te","ug out","insec ts","jut ting","sm ile","bread s","blur red","blur ry","seg ment","marb ling","anterior ly","identi fiable","shadow ed","random ly","cr wn","cer tain","cer ulean","wa ding","wa iting","thor a","support s","support ing","straw berry","display ing","eb ony","eat er","ga ze","jo y","ple as","wal ks","ina lar","breas e","stain s","stain ed","provi des","accentu ating","characteristic s","cross ed","ec ru","ec centric","tak es","tak ing","bend s","att entive","curl s","predator y","fire y","corn ers","balloon ed","droop ing","photo graph","fro sted","fro zen","gri pping","hun ting","ja de","ja guar","our ter","sla b","sla m","spat tered","ren ce","rou ded","expres sion","expand ed","expand ing","pack et","sliver s","call s","call ed","cree py","cling s","ph ysi","til ts","lard ge","beli ed","orig inating","stor my","string y","rac coon","chir p","unde fined","neat ly","secondar ines","expe ct","butter fly","spla ttered","flutter y","extensive ly","progre ssing","swa th","swa mp","startling ly","describe s","recogni zed","recogni zable","abod omen","cal m","fus cia","fal con","hal ved","heal thy","num ber","pur pose","pump kin","spin es","wint ry","reas onably","rept ile","orag ne","brew ers","shif t","rapi dly","encas ed","lumin ous","throught out","pattere nd","mos ly","seco daries","para dise","primai ries","downw ward","exe ception","quar ters","mean while","concent rated","consider ably","prox imal","varig ated","incorpor ated","bud ding","transc ends","submer ged","coordin ate","clas ped","appropri ate","superior s","diagon al","immense ly","af ter","aut umn","cit rine","cact us","dal mati","evid ent","fab ulous","icon ic","mur ky","ord er","oat meal","sme ll","sapp hire","scoo ped","tort oise","tange rine","anat omy","assis ts","retrac ted","whil st","yekk iw","attra ct","armp it","georgo us","erup ting","breaststro ke","roud ned","radi ant","enlar ged","chop py","chise led","taur us","strict ly","motle y","mocking bird","coloss al","sepi a","deter min","demon str","rector ies","mirro red","distic tive","discre et","discer nible","feate hrs","config uration","confid ent","follo wing","prote c","divid ed","superciali ary","circumfe rence","difficu lt","gigan tic","cormor ant","generali z","physi que","dalmati an","\" ,","\" -","\" .",") ;",", \"",". /","1 1","1 3","1 4","1 8","2 white","3 8","3 d","3 t","4 x","4 38","5 0","8 0","8 10","9 0","9 2","9 ok","; ;","a th","a bird","a la","a ite","a co","a breast","a crown","a its","a are","a bright","a pri","a ce","a de","a ur","a ff","a mi","a also","a grayish","a rily","a ches","a forest","a fri","a hwite","a ils","a ired","a thed","b g","b n","b rd","b bird","b be","b this","b on","b gray","b li","b blue","b um","b led","b bed","b by","b arrow","b ub","b ank","b hi","b ty","b one","b owl","b ble","b men","b ows","b less","b ake","b rome","b ved","b ony","b tight","c p","c and","c black","c in","c ea","c crown","c head","c are","c lor","c ti","c led","c ili","c ant","c ting","c ated","c ally","c tor","c tow","c lash","c rock","c able","c roon","c limb","c ess","c ited","c andy","d d","d r","d s","d v","d ow","d re","d has","d white","d rown","d ak","d head","d feather","d um","d ul","d led","d ard","d ear","d ry","d ation","d ance","d ling","d der","d abs","d eath","e f","e h","e k","e m","e u","e is","e black","e brown","e lly","e lo","e ast","e en","e by","e ight","e vent","e lli","e cent","e kes","e ves","e ment","e min","e ings","e cks","f k","f s","f ed","f ea","f il","f om","f ce","f ts","f dis","f rump","f ied","f ash","f ind","f ers","f ake","f ears","f eath","f ris","g t","g it","g at","g ar","g lor","g li","g ap","g lim","g nature","g tly","g rows","g nar","g uses","g lare","h black","h es","h ange","h ee","h ark","h ugh","h read","h ers","h sort","h wit","h anced","h rey","h gt","i an","i wh","i ri","i er","i en","i colored","i aries","i ish","i ary","i et","i ate","i est","i ppe","i pping","i ple","i wngs","i maries","i hgt","j g","j t","j u","j ac","j 3t","j hers","k is","k led","k eep","k no","l w","l ye","l ast","l bars","l ted","l mostly","l ear","l wo","l ving","l ves","l verts","l enth","m g","m ead","m ish","m inn","m ant","m no","m mer","m usky","m mofla","m ist","m oney","n is","n ow","n ck","n ak","n belly","n wings","n es","n its","n ce","n tle","n ub","n vent","n ky","n ash","n asi","n ake","n arsus","o s","o u","o x","o y","o lly","o bre","o en","o ch","o il","o large","o um","o pa","o hi","o ven","o res","o oked","o yed","o hs","o cious","p f","p li","p ars","p patch","p us","p all","p eek","p ac","p ion","p tive","p portion","p ied","p ies","p ass","p py","p inty","p nted","p pen","p rac","p reaching","p ciliary","p sotted","q ith","r th","r in","r st","r ly","r primaries","r ry","r ation","r ating","r ang","r ise","r ised","r bow","r ises","r tiped","s z","s ck","s or","s wing","s in","s belly","s er","s st","s on","s en","s si","s back","s le","s ries","s om","s prima","s ut","s round","s ear","s ump","s ile","s ubby","s lid","s mas","s ust","s ches","s nap","s ert","s mud","s ink","s ways","s rtiped","t d","t l","t this","t at","t ee","t ely","t les","t ling","t read","t ending","u ed","u ne","u tive","u fl","u et","u ral","u gy","u wn","u rious","u sion","u cous","v k","v an","v re","v bill","v are","v ort","v lu","v ee","v ring","v back","v over","v ated","v ention","v ines","v ealing","w s","w y","w brown","w ea","w ee","w nd","w rest","w rings","w ter","w ant","w ad","w ning","w add","w edged","w born","w rink","x ima","x urious","y yellow","y lor","y ing","y brow","y ard","y llow","y mous","y ue","y ond","y hellow","z on","z ish","z ard","z ze","z ily","z oo","th r","th re","th row","th ri","th under","th his","th ank","th od","th ci","th rat","an f","an n","an the","an orange","an ish","an ad","an ning","an ces","an cill","an bd","an ial","and t","and has","and white","and brown","and on","and inner","and covets","bi s","bi ck","bi re","bi ar","bi li","bi led","bi ke","bi no","bi fur","bi sec","bi ill","bi rid","bi lateral","bi fid","ll ing","ll us","ll aries","ll ant","ll arge","wi ght","wi ta","wi pe","wi ne","wi sk","wi tch","wi tr","wi llow","wi wth","wi den","wi phite","wi rth","is n","is black","is white","is mostly","is so","is covered","is ies","is mic","is cer","is tant","is bon","rd eve","bird 1","bird h","bird i","bird it","bird with","bird has","bird ba","as r","as nd","as us","as well","as cen","as sy","as ging","ow ling","ck le","ck eek","ck et","ck oo","re o","re r","re ed","re ast","re le","re ly","re ing","re ne","re curved","re tin","re mi","re nt","re tain","re llow","re je","re bel","re fined","re verse","re vealing","la kes","la ct","la ys","la cy","la arge","la kc","la dder","la zily","it sh","it tle","it ies","it rely","with t","with w","with brown","with grey","with green","with ing","with pink","with whtie","has h","ng e","ng er","ng thed","bla des","bla me","bla cl","bla zed","bla ack","bla zes","bla zon","black c","black i","black x","black with","black er","black crown","black eye","black throat","black tail","black feet","black cheek","black top","be ye","be ed","be lo","be red","be speckled","be al","be sk","be id","be lt","be come","be yond","this this","wh ut","wh ings","wh aite","ite s","ite ly","white d","white e","white n","white y","white and","white belly","white head","white body","white feathers","white covering","white except","ye r","ye lly","ye lo","ye lk","ye allow","ye lwo","brown b","brown m","brown w","brown ed","brown in","brown breast","brown body","brown back","the breast","or a","or na","or ad","or ance","or ise","or ient","or ien","or thod","wing a","wing e","wing and","wing ab","wing tipped","wing band","wing lines","wing ps","wing tripes","wing bras","wing ets","wing lbars","wing lays","ma int","ma il","ma li","ma les","ma ting","ma te","ma ze","ma ize","at is","at il","at ied","at ured","at ening","at aed","ak es","ed ing","beak l","in and","in ed","in er","in ch","in aries","in flat","in fe","in do","in between","in su","in ess","in ator","in fant","in vo","in quis","in distinguishable","in appropriate","in determin","belly w","belly y","ri e","ri er","ri on","ri pe","ri ing","ri aries","ri ff","ri ad","ri va","ri angular","ri pped","ri ots","ri zed","ri pp","ri bbed","sma ill","sma ttered","small b","small e","small g","small s","small t","small brown","small perching","ea p","ea ge","ea ble","ea gle","wings that","wings bars","wings bar","wings et","yellow black","yellow ed","yellow er","yellow breast","yellow gray","yellow patch","yellow nape","lo re","lo st","lo on","lo ght","lo nd","lo des","lo ped","lo ud","lo oped","lo cali","lo dge","lo arge","lo usi","lo 9ok","bill ow","bill with","ar c","ar m","ar t","ar ch","ar ti","ar ish","ar gy","ar resting","ar my","ar ou","gre na","gre yed","gre ey","gre eb","gre yer","co t","co re","co red","co fee","co ff","co tt","co un","co moufla","co eve","co vring","ge ome","ge een","ge ntle","er g","er red","er cep","er ry","er ous","er hs","er ved","long and","long orange","long ated","long tailed","po rd","po of","po li","po mp","po od","po tion","po ison","po upon","po pped","po dge","po ited","po unted","po iny","po cket","ast onish","bre ed","bre lly","bre athed","breast on","breast feathers","breast ing","breast ts","breast along","breast ss","breast line","breast plate","grey t","grey and","grey is","grey bird","grey color","red and","red with","red bill","red breast","st ead","st ly","st ing","st ut","st rings","st ump","st ir","st ry","st ic","st ate","st able","st ones","st atured","crown a","crown b","sh or","sh ead","sh es","sh ra","sh are","sh all","sh eek","sh ab","sh striped","sh rot","sh ake","sh eath","sh rouded","sh ipping","that y","that ch","head a","head dre","eye e","eye strip","eye patches","eye ru","eye bar","eye lid","eye lin","eye rink","eye brew","eye rbow","eye reing","eye riing","int ently","on t","on ce","es p","es sing","point e","point ex","its 0","its body","its back","its chest","ro wing","ro ma","ro at","ro bo","ro of","ro pe","ro ing","ro ve","ro ts","ro ound","ro un","ro used","ro ost","ra m","ra ling","ra geous","ra ising","ra ucous","gh ing","gh roat","are n","are brown","are yellow","are gray","en our","en ails","en hanced","en itrely","en longated","bo re","bo bo","bo ok","bo ugh","bo lt","bo ack","bo xed","bo som","gra pe","gra vel","gra ckles","gra phite","gra iny","gra dation","ange lic","gray with","gray wings","gray ing","gray scale","ch y","ch patch","ch al","ch rest","ch ub","ch ling","ch ain","ch air","ch ip","ch ia","ch eap","ch erry","ch roma","orange breast","short s","short ed","short ish","bod t","bod ice","bod wy","lar si","lar va","lar he","ver s","ver t","ver sion","ver sus","lu ted","lu ses","lu ster","lu xurious","feathe rd","feathe ts","il ium","il colored","color ul","color fully","color iz","color less","color ufl","feathers m","feathers and","of ver","of cblack","thro a","thro aq","thro ugout","thro asr","ee very","ee ybrow","ee rie","ta m","ta x","ta led","ta lk","ta unt","ta lic","ta ppers","ta luses","nd aries","pe l","pe y","pe st","pe fect","pe ters","pe ice","pe 3d","pe wter","throat e","throat ted","li ary","li fe","li lle","li zard","li ghing","blue bird","blue green","blue legs","blue jay","large st","large compared","ti ck","ti es","ti pe","ti ff","ti ble","ti more","ti cked","ti vity","tail and","tail bars","tail tips","tail feathering","tail dfeather","tail gat","pointed brown","si c","si an","si mp","si ding","si xed","si cks","si gnature","si ckle","dark pointed","ars ed","ring eye","ring bars","ring bone","light s","light ing","light ful","light pink","ba d","ba g","ba pe","ba thing","ba lk","back and","back with","back ish","back end","back ward","back yard","le tic","le vel","le ngthed","cu ff","cu les","cu sing","cu tie","cu pine","cu lverts","cu llaries","cu ckoo","cu erved","green ery","fee at","fee et","feet s","und ant","und iscer","stri ght","stri bed","stri ation","stri kes","stri oed","um ing","um ber","ing ly","eyes and","to i","to pe","to up","to ur","to ugh","to me","to oth","to day","to enails","spot ter","spot td","bri en","bri ef","bri gtly","bri llant","ne ural","ne vk","ne wborn","pat tered","pat tering","pat sches","pat riots","med um","med oum","neck a","neck s","neck band","neck less","siz d","siz eable","mo d","mo und","mo ur","mo ld","mo sa","mo ment","mo lt","mo hogany","mo hal","mo lted","mo llus","patch j","patch s","colo d","colo ful","colored d","strip y","strip le","strip les","se ve","se ts","se ated","se ismic","se rene","us a","na l","na ll","na row","na il","na ries","na ve","na ble","na mon","na ylor","cur ring","cur ling","cur bved","cur rent","ve t","ve ring","ve ling","ve ils","ve ins","ve ctrices","ve nger","ul ent","curv en","curv bed","curv age","tars es","tars al","spe ak","spe ed","spe aks","spe kc","spe kled","speck els","tarsus a","tarsus ed","par tri","par ched","par rots","all ir","all oped","che at","che ast","che es","che ated","che erful","che ery","che chpatch","second iaries","second sries","pri mit","pri imaries","ce let","ce ment","ce liary","most y","prima ily","prima riaries","prima ties","chest y","de red","de ly","de line","de lightful","ut ty","shar t","sharp er","curved b","curved beak","we st","we ight","we ings","cheek spot","cheek strip","cheek patches","tri but","tri cep","tri ag","tan a","tan k","tan age","brow b","ab uts","ab ulky","ab andon","ab undant","tip pe3d","abdom an","abdom on","abdomen d","cover st","cover tail","spotted belly","al p","al der","al mos","al bino","al ittle","al shes","fa e","fa il","fa ther","fa vor","tin iest","up to","up side","up set","up going","up raised","up lif","up lifted","round s","round ly","round ing","under cover","under bellied","under brush","under carriage","rest ic","rest less","des sert","out most","out sides","out standing","out rageous","cove t","cove ted","cove ting","cove rim","lit ary","lit tered","lit tl","side and","side ring","down wo","down like","down curving","down sloping","over s","over top","over tones","over tone","over lay","over aq","over hung","thi c","rec ess","rec ently","rec rices","rec eding","thin ly","ok y","comp ed","comp lime","comp aired","stripe y","inn ter","erc ed","sup ic","thick bill","superc ilium","superc allir","plu ff","plu age","plu am","plu cked","ent ering","fla ck","fla re","fla me","fla ked","fla kes","fla vor","fla ired","fla ppers","sha pen","sha fts","so ar","so on","so da","so lves","so litary","flat ly","flat ter","flat ness","some ones","ex agger","ex ces","ex quis","ex cited","pin stripe","pin cer","pin yon","ili an","ili ari","top sides","top line","top ping","top az","top knot","pink s","pink y","pink ness","supercili ous","supercili als","supercili ari","web be","web footed","web bing","bed head","ff ec","ha ed","ha un","ha ird","ha pp","ha ppen","rea cing","for med","for ag","for mal","for ks","sk ir","sk ies","king s","arrow s","arrow head","arrow points","narrow ly","ear t","ear then","ac ting","ac ial","mar y","mar tin","mar gins","his tor","stre as","stre ngth","stre ets","but te","big bill","big gish","sp n","sp lend","sp ry","sp ends","sp here","sp loc","sp ray","sp ckled","sp ack","sp potted","sp ckles","sp orad","sp alshes","mi mg","stra p","stra ihgt","ru es","ru ding","ru bbe","mage stic","ho ur","ho dge","ho ooked","ho uet","ho vering","vi ll","vi di","vi dual","vi lle","vi ctor","vi reo","go lf","go died","go bble","look ed","ter shading","cream s","bea lly","bea ver","bea ding","bea ming","bea ded","through ly","through put","wide st","bar n","bar rier","cep ted","ion ing","outer s","outer most","outer rectrices","outer reach","whi th","whi re","whi ite","whi et","whi checked","qu ot","qu ill","qu ently","qu ished","qu iet","qu orise","dis colored","dis gu","dis cent","dis coloration","dis proportional","dis bur","dis trac","dis proportionally","dis gru","dis tribut","dis solves","fe ther","fe ty","fe sti","fe lt","fe thered","fe sters","fe males","fe vers","multi coloed","multi clored","multi cored","wo olly","also s","vent rally","tive ly","pattern es","ke red","ke en","ke pt","per t","per ry","per winkle","rump p","rump s","rump led","ir ange","nt led","ton al","pa e","pa y","pa inted","streaks and","distin quished","distinc tie","fl own","gu ed","gu alr","lli aries","lli gent","redd ing","redd iish","wat ch","wat ching","pale st","complet ly","stubby beak","water proof","water thrush","enti ful","enti fied","flu sh","flu me","flu ttered","flu stered","flu rry","wingbar red","du o","entire s","br s","br ite","br ant","br ake","br andt","cent ral","plump ish","un its","un curved","un ts","un spotted","un ion","un uni","un proportional","un ass","un less","un marked","un pleas","un orthod","un veils","me g","me at","me ant","me edium","wingspan n","feature less","app ealing","near by","have ing","con ca","con cre","con cea","con sump","con vention","con vert","con sidering","trian gled","trian gualr","ext ruding","sto pping","yello s","yello iw","greenish yellow","fo x","fo led","fo ots","fo cusing","upper most","upper side","pro pit","pro ud","pro found","pro pr","pro maries","pro ject","pro cess","pro pel","com pon","com position","com patriots","abo ce","abo min","ere ffec","off ers","lin k","ting ing","ry ing","sil k","sil houet","ic ient","rela tivity","stout s","undertail s","undertail ed","thigh ss","vibr ating","omin ous","predomin ate","predomin ently","iridescent ly","tu be","tu red","tu ne","tu se","tu ally","tu rou","tu cted","tu xed","tu cks","spi lls","spi culated","spi raling","relative y","ad o","ad ee","ad ding","ad our","ad jac","ad mist","ad abomin","low ered","silver bill","di et","di ms","di men","di min","di ps","di verse","di git","di mmer","di luted","fu ffy","fu zze","botto med","tch ing","va gue","hi p","hi lly","hi ber","hint ed","vari ant","vari ag","vari ances","vari atied","ance stry","tic ally","tur key","tur quorise","tion ally","tion ship","main lly","et rating","mas king","mas ke","tall on","tall est","tall ons","do ted","do gs","do sile","do pey","inc reas","te h","te l","te mple","te thers","superci iliary","superci iary","superci lliaries","span ning","span gled","no ble","no thing","no urish","vivid ness","inclu ded","inclu sive","op posed","op ulent","foot ball","high er","high lighing","he as","he ck","he ed","he wn","ty pic","cla mp","age s","who e","mou se","wk th","jet black","cont rac","being a","sti ps","sti pp","als on","ca o","ca w","ca ding","ca ged","ca mel","ca using","ca vity","ca mmofla","ca vort","ca rion","smo ked","smo other","mid st","mid ium","mid air","mid day","mid sz","fleck ing","contr asging","tint ing","bro an","bro and","bro ther","bro ze","bro uwn","whit r","whit ye","diff use","diff uses","swi tch","lim bed","differe nce","sur ves","sit t","anch ored","duck ing","duck like","swim mimg","pre histor","bit d","bit es","other side","half way","ling ala","stick like","ruff les","there of","cat us","cat ches","cat alog","nea ring","nea rer","broad side","part ner","somewhat lighter","el vis","el bows","elong ate","elong aed","need ed","ci es","ci gar","tree bird","ang les","various ly","bas ed","sn on","sn ippe","sn akes","ash ed","ash en","fron ted","fron tal","ind entified","sea going","sea ms","tar get","tar guses","front side","slim mer","sa ck","sa des","sa mall","sa id","sa utty","sa fety","prom ement","any thing","bell ed","bell oed","ni rd","ni ck","hair like","hair cut","ble w","ble ak","ble ly","am bered","tor und","tor se","tor sus","ber k","ber ries","strong ly","strong est","cap able","ven ile","ven ess","bu e","bu le","bu ffy","bu gs","bu oyed","bu ugy","fi ve","fi est","fi lls","fi acial","pud dle","pud dly","touch ed","chin s","striping s","gi ble","gi ven","full er","hind s","sho ts","sho ots","tow hee","stark white","open s","open ly","open ings","fin s","fin er","glo ssi","pla ck","pla ys","pla id","pla tea","pla ying","pper y","inte rest","inte rior","inte lligent","bur n","asi a","coll er","coll ect","coll ec","splotch ing","lars ud","flight less","sc ant","sc ler","sc anning","sc isso","sc owling","sc alloped","sc alp","even ness","sal ty","copper s","gull s","combi nes","eg al","wood y","wood ed","wood land","mer s","mer ging","retric s","usu ally","leading to","res at","res pond","res istant","bl il","bl ank","bl cak","bl sck","sec ndaries","fan cy","reg ards","not ching","fish tail","fish eyed","lash es","pi an","pi lliary","pi pit","pi cked","pi pping","tru ck","bee p","larsus es","can not","can ters","mon ster","tr asus","crow d","crow s","crow ed","crow bars","crow wn","crow bn","orang s","orang ge","again sst","cor respond","fore front","dor mant","scat thered","bid ds","rock ish","combination s","hum ong","im medi","mut ilcolored","stu ck","hor se","feat ers","feat jhers","feat erhs","feat rues","sturd ily","tra cking","tra veling","rectric ites","varieg ation","rus sian","blo ts","blo cky","blo cked","altern ates","altern atively","wn ite","wn ward","dra wn","dra ws","she st","she lled","inter lea","inter change","inter changing","inter mixing","inter wea","inter cepted","humming nird","flo uted","flo urish","ov als","ov ular","iz ing","ig ated","ig gle","tho ught","tho ugout","tho art","bir k","bir l","bir n","bir t","bir ched","hea c","hea rd","hea fdis","cri mple","chun k","sky blue","sheen ed","relation s","woodpeck ing","addition t","vis ually","lea pord","slo ppy","rich er","bra in","bra celet","past y","gradi ants","cre w","cre y","cre at","cre ast","gr and","gr ye","gr in","gr won","gr atis","break s","break ing","extra ordin","extra ordinary","bark brown","air bound","air plane","air sack","sub sequ","sub ject","sub cilliary","sub cullaries","bely y","separ ation","separ ative","speci ali","though out","resemb led","fra ming","fra ill","hand s","min or","laye ring","bron ish","bron zed","bron zish","scar ce","heavy set","nut meg","sy non","sy ste","sy metric","peak s","bland ly","bland ing","squ ad","squ arish","squ ashed","squ iggle","ches k","ches y","molar patch","nap r","nap es","if ic","wit ting","wind y","wind ow","wind er","wind ing","wind bars","wind bar","bold y","bold ly","song s","song birds","notic ed","notic ible","notic able","gradient ly","twi sted","blood y","sli des","sli cky","sli ps","sli ppery","sca venger","stee per","bal c","bal ance","bal anced","bal timore","nex ck","defin itive","defin itely","plum mish","plum eage","fellow s","feed ing","him self","pear lish","ass es","ric iliary","crooked ly","dagger like","pow dered","stun ted","gradu ates","earth tone","pair s","forest s","pronounced ly",".. ..","car ved","ird escent","pit ched","pic tured","whis tling","whis kered","atta ck","atta ch","bor g","bor s","bor on","bor ne","bor ad","bor rows","beard ed","smal er","fluff ing","fluff ier","fluff iness","da il","da ring","da wning","da isies","sun ny","sun kin","sun bathing","stream s","stream ing","rect ries","rect ises","super celiary","super pilliary","cra m","cra y","cra yon","non distinct","non existent","pos essing","posses es","semi circled","bat ches","imp ercep","loc ation","loc ations","enormous ly","comple ment","hel ping","pie bald","cock s","chee ek","limb s","impressive ly","bow ed","bow ling","hard y","hard er","kind a","my ste","my riad","ob tuse","win ch","win ts","win span","win ks","win bg","win fs","beat ty","mall or","domin ates","tarus us","den im","den oted","fun ky","beast s","egg shell","intersp arsed","intersp erced","twig s","reflec ting","reflec tion","amo unts","man ner","man nish","py lon","swat ched","var rying","posterior ly","cylin der","far hood","nature s","indi vidual","rain bird","lemon y","seconda ies","slan ting","distinguish es","ei the","eleg ance","eleg antly","wor ld","wor ked","wor kings","wingu lar","descri bed","descri ption","descri ptive","accomp any","rush es","iris es","flow ers","warbl ers","blotch y","clu e","clu ster","clu sters","clu stered","clu nky","clu tching","dwell er","ey ring","ey brow","ey rings","ey brows","ey bros","fre y","fre ckles","fring y","mud died","ink ly","sion s","mot led","distan t","ill usion","pl ants","pl entiful","pr ciliary","pr pportion","pr inaries","pr mary","swo op","wisp s","blac m","blac n","grew y","ste p","ste ak","flatt ish","met talic","camofla ged","camofla gued","amazing ly","cas ing","cas cading","cas pian","ele vated","wild ly","blak s","blak ish","blak ened","mal t","bound ary","chick en","chick ens","chick adee","bull et","compliment ary","aw aits","fli ppers","fic es","her ringbone","sm ll","sm ow","sm ear","sm ears","sm nall","reti res","reti cules","reti fices","bread t","bread th","seg ments","alert ness","incred ible","height s","further more","bulbous ly","cheeck patch","identi fier","identi cal","identi cally","cr won","cr iss","cr anial","drop let","drop ping","sat in","sco tt","wa des","wa vy","wa fer","thor ns","thor ough","ins ane","trans forms","trans fers","leaf y","sweep s","punctu ates","signific antly","dro oped","eff icient","fall s","fall ing","ga pe","ga ce","glea m","jo int","jo ined","pen tine","pen etrating","ple ated","ple thora","rat tles","wal k","lavend ar","breas k","breas y","breas et","stub bu","stub bier","show casing","cut ting","ombre s","decor ating","decor ate","decor ative","abs ent","marvelous ly","spark le","qual ities","brind led","four th","heat er","protrusion s","accentu ates","trimming s","specta cled","camoflau ge","jewe led","cross es","fir m","gl ank","gl ance","gl assy","hat chling","kn ee","oc curring","oc ado","pint ed","tak en","tak ers","wng span","lay ing","lay out","later ally","edging s","comic all","ond ary","peng un","move ment","exclu sing","exclu sively","pad s","pad dling","predator s","direc ting","fire ry","corn w","gras sy","carry s","possi ble","print ed","spectacular ly","finger like","group ing","camera person","dee t","dee pest","ew s","ew ll","fro sting","hun ts","hun ter","hun ched","ja il","por potion","por cupine","sla pped","wra ps","wra pped","ren trices","real tionship","rid dled","str pe","str ped","str uts","eyebro s","eyebro ews","rod ent","rou ge","rou fous","road runner","lif ts","specke lled","expand able","actu al","pack ages","dun es","appro aches","appro xima","symmetric ally","direction s","cree k","cree per","cling ing","dri lling","don ning","day s","eli gible","nar rown","nar ry","nar rowing","surp rised","supe riciliary","til t","til ted","lard er","beli ll","beli eve","org anish","orig in","orig ami","lon jg","get ting","sta ight","sta right","sta cked","sta ulky","stor m","stor ies","encomp asses","chir ping","chir py","lig t","lig th","lig ther","lig jt","tight ly","unde body","unde rdeve","nest ing","nest led","medi an","medi ium","medi up","moss y","secondar is","rectan gle","expe cted","expe cts","exhi bit","butter ball","spla ttering","spla tter","irred ecent","flutter s","bras sy","brast s","progre sses","progre ssive","tuff led","adul ts","noti able","setting s","place ment","scra ped","gran n","frag mented","alig ned","identif ied","muscular ly","abod men","fus chia","glow s","land s","land ing","mis sing","mis tly","mis shapen","num erous","pur gy","spin dly","wint gs","rept ilian","lare ge","orag nge","armor ing","col red","col roing","stal k","stal ky","stal ker","steal th","shif ting","rapi d","encas ing","grab bing","lump y","lumin escent","peri winkle","pattere ned","colord ed","seco naries","sequ in","sequ ence","para des","primai res","downw ad","exe ption","spa ce","spa ckled","spa ecks","host s","���� ����","quar ter","conto ur","conto uring","conto ured","concent ration","consider able","prox ima","hill side","hill sides","varig ataed","incorpor ate","bud s","field s","transc ending","submer ges","coordin ated","clas sic","appropri ately","identify ing","emphas ize","emphas ized","emphas izing","tremendous ly","generic ally","diagon ally","scissor s","20 th","av oce","av ocado","alar ming","alar mingly","aft ereffec","alog n","bd ody","cru cial","cru dely","cron e","cron w","crush ed","crush ing","dar l","deathe r","deathe rs","fer ocious","grow th","grow ths","gru b","hed ed","har boring","har bors","hover s","home ly","ko i","ko el","ker nal","lite r","mast er","mang y","mang rove","oh n","ost ly","perc ent","perc iliary","ris k","sri ped","sri pes","spo on","spo oky","sce condaries","sce ondary","slit ted","sure pciliary","scream s","snack s","tun ed","tun ing","usi ast","vo luminous","weathe red","weathe rs","yield s","yield ing","zag s","zig zags","thorn y","aspe ct","aspe cts","repe l","repe ated","restri cted","restri cti","retri ever","retri eves","latter ally","whee l","whee ling","orch ard","orch id","wingba ar","wingba red","river s","poi inted","poi bty","poll inator","astri de","astri ped","eyelash es","eyeball s","enth usiast","six ths","bac lk","brigh ly","patche es","depic ts","depic ted","abdo omen","abdo bmen","alr ge","fam ily","fam iliari","covere ring","covere ts","recit ces","recit rices","rectr rices","rectr cies","soil d","soil ed","exp nasi","exp lodes","exact ly","pine cone","habit at","forma lly","forma tion","skim ming","spro uts","spro uted","spac ed","spac ious","mulit colored","mulit iple","vir brant","vir tually","unus al","unus able","meld ing","adap t","adap table","divi ding","hung ry","teen y","teen sy","bros d","browin sh","browin ish","slant y","els where","indic ated","indic ates","scrat ched","scrat chy","mutli ple","dragon fly","grre en","grre nish","carto ons","carto onish","peace ful","peace fully","sue prciliary","sue perciliary","fresh ers","characte rizing","characte rized","thora x","pleas ing","slab s","slam m","swamp y","calm ly","tortoise shell","determin ed","demonstr ating","demonstr ate","discreet ly","protec tive","protec tion","generaliz ation","generaliz ations","438 92","810 43892","ath letic","aco ss","apri cot","ade pt","aur as","aff ect","afri ca","bgray is","bli ue","bum ble","bub bled","bhi rd","bless ed","cp ffee","cand ied","cin namon","care takers","cili aries","crock ed","dr k","dv d","dow wnward","dak r","dum b","dear k","em blazon","eu rope","elo quently","east er","eby ll","event ually","elli e","emin ence","fk at","fea her","fil ters","frump y","fash ioning","fris ky","glor ious","gli des","gap ing","glim mers","gnar led","hange r","hugh ed","iwh t","iri discent","ju venile","keep ing","kno b","lear n","mead ow","minn ow","mno stly","nis tly","nak ed","nash ville","oen anthe","och re","opa que","ohi o","oven bird","pli mage","pus sy","pall et","peek ing","pac ific","pion ted","prac tically","sor rounding","sin ce","ser pentine","sen egal","sle ak","sprima rly","sut le","sear ch","slid er","smas hed","sust ains","snap shots","smud ged","sink s","tee th","tread s","une ven","van illa","vre ass","vare igated","vlu e","vover t","wrest ling","wad er","wadd ler","wrink ly","yue llow","thre atening","thri ves","thunder bolt","thank s","thci k","ancill ary","bili ous","bifur cated","bisec ts","wisk ers","witr h","willow s","widen ing","isbon ze","birdba th","ascen ts","rele tively","retin a","remi ges","retain s","reje cting","lact us","beed y","belo ly","whut e","yelo ow","yelk low","brownin sh","orna ge","orient ation","orien ted","wingab rs","wingps an","maint ains","mail er","mali cious","inflat e","infe rior","indo or","insu lated","invo lving","inquis itive","indetermin ate","riff les","riva led","ripp les","locali zed","lousi ana","lo9ok ing","arti culated","argy le","arou ng","grena de","coff e","cott on","coun tershading","comoufla ged","coeve ring","geome tric","geeen ish","pomp adour","pood le","poison ed","astonish ingly","stead ily","stut bby","stir pe","shra p","shab by","headdre ss","eyeru ng","eyelid s","eyelin er","robo tic","roost ing","enour mous","bobo link","chal ky","chub bier","chip py","larva e","coloriz ation","throaq t","eevery were","tiff any","tailgat ers","simp ly","undiscer nable","striation snon","toup ee","tour quoise","mour ning","mold s","mosa ic","mohal k","mollus ks","seve re","current ly","spekc les","partri dge","primit ive","deline ation","tricep s","triag les","tanage r","favor ite","uplif ting","restic es","outstanding ly","outrageous ly","coverim g","downwo ards","overaq all","recess ed","complime ted","supic iliary","supercallir ary","pluff ed","pluam ge","exagger ated","exces sively","exquis ite","haun ting","haird o","happ ily","happen s","forag ing","skir ts","splend id","sploc thes","spack ling","sporad ic","rubbe ry","vidi d","victor ian","outerreach ers","quot e","disgu ised","disbur sed","distrac ting","disgru ntled","distribut ed","festi ve","perry winkle","brake men","ununi formally","unass uming","unpleas antly","unorthod ox","conca ve","concre te","concea led","consump tion","convention ally","propit iate","propr tionally","compon ents","silhouet ted","turou ise","tuxed o","adjac ent","dimen sions","dimin utive","digit al","hiber nation","variag ated","increas es","nourish ment","typic ally","contrac ting","stipp ling","cammofla ge","cavort s","midsz ie","prehistor ic","snippe ts","fiest y","glossi er","platea ued","collec tion","scler a","scisso red","correspond ing","humong ous","immedi ate","interlea ved","interwea ving","flourish es","extraordin arily","subsequ ently","speciali zed","fraill e","synon ymous","syste matic","symetric al","impercep tible","myste rious","winbg bars","rattles nake","approxima tely","underdeve loped","proxima lly","aftereffec ts","restricti veness","familiari zes","expnasi ve","emblazon ed","europe an","threatening ly"]}}